<pad>	0
<unk>	0
<s>	0
</s>	0
▁t	-0
ng	-1
▁c	-2
▁đ	-3
▁b	-4
▁th	-5
▁m	-6
▁n	-7
▁h	-8
▁a	-9
▁s	-10
▁l	-11
om	-12
▁T	-13
ôi	-14
▁k	-15
ou	-16
▁g	-17
▁w	-18
▁ch	-19
▁tôi	-20
▁v	-21
er	-22
▁I	-23
▁kh	-24
▁d	-25
▁to	-26
▁i	-27
nh	-28
on	-29
ông	-30
▁Tom	-31
▁p	-32
re	-33
ạn	-34
at	-35
▁y	-36
an	-37
▁the	-38
▁nh	-39
▁tr	-40
▁bạn	-41
▁không	-42
ed	-43
▁ng	-44
ing	-45
ar	-46
▁you	-47
▁f	-48
▁r	-49
en	-50
▁là	-51
is	-52
ll	-53
or	-54
▁có	-55
▁tom	-56
as	-57
ột	-58
in	-59
▁một	-60
▁gi	-61
▁đã	-62
ấy	-63
ve	-64
ay	-65
ch	-66
▁o	-67
es	-68
▁ph	-69
he	-70
th	-71
ủa	-72
▁của	-73
▁ha	-74
▁nó	-75
▁is	-76
▁anh	-77
iế	-78
▁đi	-79
▁in	-80
▁be	-81
ow	-82
ời	-83
▁W	-84
▁ấy	-85
ên	-86
▁ta	-87
ất	-88
úng	-89
ld	-90
ới	-91
▁of	-92
le	-93
qu	-94
▁H	-95
▁an	-96
▁x	-97
▁mu	-98
▁qu	-99
ary	-100
▁chúng	-101
▁sẽ	-102
▁e	-103
id	-104
ều	-105
▁do	-106
▁thể	-107
ot	-108
st	-109
▁đó	-110
et	-111
▁và	-112
ày	-113
ere	-114
ong	-115
▁với	-116
▁làm	-117
▁was	-118
▁M	-119
▁cho	-120
▁gì	-121
▁nói	-122
▁u	-123
im	-124
▁me	-125
ang	-126
it	-127
▁he	-128
▁The	-129
▁wi	-130
▁on	-131
▁wh	-132
oo	-133
▁that	-134
gh	-135
ốn	-136
ic	-137
ke	-138
▁for	-139
iệ	-140
▁st	-141
ại	-142
uy	-143
ến	-144
▁re	-145
ải	-146
▁Tôi	-147
▁sa	-148
▁He	-149
▁ở	-150
ười	-151
ome	-152
▁đến	-153
▁li	-154
▁ngh	-155
iết	-156
▁đư	-157
▁it	-158
ould	-159
▁have	-160
ver	-161
ây	-162
▁họ	-163
out	-164
▁muốn	-165
▁Th	-166
▁cá	-167
ant	-168
▁Y	-169
▁ba	-170
▁S	-171
▁cô	-172
▁này	-173
se	-174
▁ne	-175
ent	-176
▁You	-177
ght	-178
ần	-179
▁trong	-180
▁để	-181
▁đang	-182
▁phải	-183
▁người	-184
▁A	-185
▁Wh	-186
ằng	-187
ình	-188
▁điều	-189
▁C	-190
▁ra	-191
ly	-192
ee	-193
▁go	-194
▁We	-195
▁biết	-196
ững	-197
▁with	-198
▁want	-199
ter	-200
▁cả	-201
▁his	-202
▁Mary	-203
▁can	-204
▁mary	-205
ợc	-206
▁những	-207
am	-208
▁được	-209
ad	-210
▁this	-211
▁như	-212
al	-213
▁my	-214
▁and	-215
▁kn	-216
ion	-217
▁bu	-218
▁at	-219
▁not	-220
▁về	-221
▁D	-222
▁don	-223
▁khi	-224
▁nghĩ	-225
▁vào	-226
pp	-227
▁rằng	-228
▁as	-229
▁j	-230
ướ	-231
ce	-232
▁rất	-233
ro	-234
▁nhi	-235
▁your	-236
▁It	-237
all	-238
▁we	-239
▁sh	-240
▁con	-241
▁B	-242
▁su	-243
ết	-244
▁did	-245
ống	-246
ơn	-247
▁giờ	-248
▁tố	-249
▁know	-250
▁cu	-251
ăn	-252
ật	-253
▁are	-254
ri	-255
▁thấy	-256
▁ab	-257
thing	-258
au	-259
ước	-260
▁đây	-261
ơi	-262
iệc	-263
▁mình	-264
one	-265
ook	-266
ào	-267
ờng	-268
ea	-269
ink	-270
ích	-271
▁ho	-272
ận	-273
ck	-274
àn	-275
▁like	-276
ai	-277
ầu	-278
ct	-279
âu	-280
▁nhà	-281
▁She	-282
ight	-283
▁xe	-284
ỏi	-285
▁what	-286
▁him	-287
▁sự	-288
▁bị	-289
ore	-290
▁some	-291
ost	-292
▁việc	-293
▁wor	-294
▁any	-295
▁N	-296
ài	-297
▁nào	-298
▁ti	-299
▁nhiều	-300
ther	-301
▁get	-302
ain	-303
▁so	-304
ell	-305
▁thích	-306
▁lại	-307
ir	-308
▁about	-309
▁từ	-310
ành	-311
▁tim	-312
▁out	-313
▁tiế	-314
▁think	-315
▁has	-316
▁sá	-317
▁chuy	-318
nd	-319
ọi	-320
▁had	-321
ức	-322
est	-323
▁ngày	-324
ác	-325
ối	-326
▁hơn	-327
▁tốt	-328
and	-329
ện	-330
àng	-331
▁her	-332
end	-333
ust	-334
ble	-335
ường	-336
ắt	-337
ood	-338
▁al	-339
ăm	-340
▁up	-341
▁nên	-342
òng	-343
▁bao	-344
▁P	-345
ực	-346
▁time	-347
▁will	-348
▁all	-349
▁What	-350
▁ăn	-351
▁see	-352
▁pl	-353
▁sp	-354
▁chỉ	-355
▁L	-356
êu	-357
▁cần	-358
▁lo	-359
▁us	-360
ân	-361
ur	-362
ưa	-363
ền	-364
ữa	-365
▁ai	-366
▁qua	-367
▁học	-368
ôn	-369
▁no	-370
▁didn	-371
ind	-372
▁fr	-373
▁cái	-374
▁here	-375
▁công	-376
ery	-377
ish	-378
ge	-379
úc	-380
ừng	-381
▁ex	-382
op	-383
ái	-384
▁going	-385
iể	-386
▁They	-387
áo	-388
ard	-389
▁ông	-390
▁very	-391
ut	-392
ate	-393
ally	-394
▁happ	-395
ast	-396
un	-397
▁trên	-398
ill	-399
▁tiếng	-400
ắng	-401
ry	-402
ộc	-403
▁This	-404
▁Do	-405
▁would	-406
▁de	-407
▁does	-408
ul	-409
▁need	-410
ảy	-411
▁ever	-412
úp	-413
▁chiế	-414
▁thế	-415
▁sao	-416
▁thực	-417
our	-418
ấn	-419
▁chắ	-420
ếu	-421
▁from	-422
▁look	-423
ake	-424
▁chuyện	-425
▁just	-426
inh	-427
ice	-428
▁trước	-429
ear	-430
art	-431
▁đề	-432
▁thời	-433
▁tell	-434
▁pro	-435
▁Anh	-436
▁should	-437
▁đầu	-438
▁giúp	-439
ổi	-440
lp	-441
ess	-442
▁di	-443
▁were	-444
▁could	-445
▁been	-446
▁com	-447
▁help	-448
are	-449
▁work	-450
▁one	-451
▁J	-452
ặp	-453
oston	-454
anh	-455
ửa	-456
▁by	-457
il	-458
ays	-459
ss	-460
▁mọi	-461
▁thứ	-462
▁thành	-463
ase	-464
▁hỏi	-465
ist	-466
▁too	-467
▁tất	-468
▁lu	-469
▁đá	-470
▁bất	-471
▁That	-472
ers	-473
ath	-474
ỗi	-475
day	-476
iên	-477
▁good	-478
▁got	-479
▁gặp	-480
ặt	-481
▁các	-482
ought	-483
▁nếu	-484
ản	-485
▁man	-486
ame	-487
▁tại	-488
ation	-489
▁E	-490
▁vì	-491
út	-492
ff	-493
▁there	-494
▁cảm	-495
ap	-496
ked	-497
▁sống	-498
▁thật	-499
▁tal	-500
▁số	-501
▁tin	-502
▁bo	-503
▁co	-504
nt	-505
iện	-506
ìn	-507
▁thu	-508
▁năm	-509
▁vu	-510
▁bắt	-511
▁nhìn	-512
▁nay	-513
▁yêu	-514
▁khó	-515
king	-516
▁se	-517
▁chưa	-518
át	-519
▁nhất	-520
ượ	-521
▁tiền	-522
▁There	-523
▁F	-524
ùng	-525
lo	-526
▁cứ	-527
▁gian	-528
ồi	-529
ậy	-530
▁ag	-531
▁xảy	-532
ôm	-533
▁ý	-534
▁ar	-535
lf	-536
ound	-537
▁doesn	-538
ọng	-539
ree	-540
▁tu	-541
▁nghe	-542
▁but	-543
▁ngo	-544
▁chi	-545
ìm	-546
ội	-547
ạnh	-548
ính	-549
▁mà	-550
▁vui	-551
ập	-552
▁lớ	-553
ie	-554
dy	-555
▁than	-556
▁My	-557
▁told	-558
ăng	-559
▁po	-560
▁every	-561
án	-562
ốc	-563
▁tìm	-564
▁khác	-565
▁car	-566
▁đừng	-567
▁How	-568
▁happen	-569
▁hôm	-570
ave	-571
ren	-572
▁nhận	-573
▁something	-574
▁cuộc	-575
ig	-576
▁vấn	-577
ort	-578
▁chiếc	-579
ãy	-580
▁never	-581
▁stu	-582
ven	-583
▁off	-584
▁now	-585
ive	-586
▁ro	-587
▁she	-588
▁more	-589
▁jo	-590
▁le	-591
ous	-592
▁xu	-593
▁come	-594
▁trở	-595
▁đồ	-596
▁hai	-597
row	-598
▁phòng	-599
ite	-600
▁lên	-601
ơng	-602
▁quá	-603
lease	-604
▁quy	-605
▁home	-606
▁Don	-607
ương	-608
▁chơi	-609
▁đị	-610
▁cách	-611
ạc	-612
▁viên	-613
▁really	-614
▁when	-615
▁tự	-616
ẫn	-617
▁mo	-618
▁Bạn	-619
▁mua	-620
▁câu	-621
áy	-622
fe	-623
▁won	-624
êm	-625
▁much	-626
mp	-627
ra	-628
▁lời	-629
ure	-630
ine	-631
▁Can	-632
▁sách	-633
ather	-634
▁if	-635
pe	-636
▁back	-637
▁sau	-638
▁nhưng	-639
▁new	-640
áp	-641
ao	-642
▁Đ	-643
▁"	-644
âm	-645
▁pre	-646
▁hiể	-647
▁int	-648
▁who	-649
itt	-650
▁bằng	-651
▁K	-652
▁cùng	-653
▁say	-654
riend	-655
ass	-656
▁hàng	-657
▁quan	-658
▁af	-659
▁đâu	-660
▁take	-661
mb	-662
ved	-663
▁tối	-664
ool	-665
▁xem	-666
▁chắc	-667
òn	-668
ew	-669
▁nhau	-670
▁cửa	-671
▁how	-672
▁G	-673
oney	-674
▁lớn	-675
▁wr	-676
▁said	-677
ving	-678
▁tru	-679
▁make	-680
▁year	-681
▁eat	-682
ảo	-683
ục	-684
ợi	-685
▁bus	-686
ak	-687
cc	-688
▁or	-689
ấu	-690
ick	-691
▁Why	-692
▁xin	-693
▁bet	-694
▁định	-695
▁am	-696
eop	-697
▁money	-698
▁last	-699
eople	-700
▁long	-701
ough	-702
ning	-703
▁en	-704
ft	-705
▁cố	-706
ade	-707
▁vậy	-708
▁lúc	-709
▁lần	-710
▁khá	-711
▁nữa	-712
▁thought	-713
▁book	-714
▁độ	-715
▁right	-716
self	-717
▁bây	-718
▁talk	-719
▁gọi	-720
▁spea	-721
▁tho	-722
▁mới	-723
▁anything	-724
ep	-725
▁còn	-726
▁lòng	-727
▁khỏi	-728
me	-729
ưở	-730
▁day	-731
ach	-732
▁theo	-733
▁Let	-734
ặc	-735
blem	-736
▁ngoài	-737
▁sinh	-738
▁over	-739
▁problem	-740
▁pr	-741
▁thường	-742
▁Is	-743
▁read	-744
▁comp	-745
▁nước	-746
ưởng	-747
▁trẻ	-748
▁ngủ	-749
▁trả	-750
▁friend	-751
▁tw	-752
▁thing	-753
us	-754
▁ad	-755
▁cầu	-756
▁cũ	-757
ouse	-758
▁sch	-759
▁people	-760
▁hãy	-761
▁tuy	-762
▁lot	-763
ide	-764
▁let	-765
▁our	-766
▁tay	-767
▁luôn	-768
ful	-769
▁ngay	-770
▁play	-771
ứng	-772
own	-773
ấp	-774
bo	-775
▁call	-776
ag	-777
▁hoàn	-778
▁went	-779
▁wat	-780
▁way	-781
fore	-782
▁bỏ	-783
▁gia	-784
ọc	-785
▁Boston	-786
▁boston	-787
red	-788
nder	-789
▁đưa	-790
▁lea	-791
▁Ch	-792
▁Ph	-793
▁made	-794
▁mất	-795
▁đường	-796
▁1	-797
ệt	-798
age	-799
▁into	-800
▁house	-801
▁Nh	-802
▁kết	-803
▁before	-804
▁bài	-805
▁sm	-806
ty	-807
el	-808
▁speak	-809
▁O	-810
▁cuốn	-811
▁only	-812
▁vẻ	-813
▁must	-814
▁stay	-815
▁bộ	-816
▁trường	-817
▁If	-818
▁rời	-819
▁gái	-820
▁bữa	-821
▁room	-822
▁kho	-823
▁other	-824
▁un	-825
▁quyết	-826
ways	-827
▁đợi	-828
▁school	-829
▁chắn	-830
▁Cô	-831
▁always	-832
der	-833
▁again	-834
▁hiểu	-835
ắc	-836
▁lỗi	-837
▁give	-838
▁after	-839
ánh	-840
▁cl	-841
▁dr	-842
▁vẫn	-843
▁mẹ	-844
▁máy	-845
ẹp	-846
▁under	-847
▁lý	-848
▁sure	-849
▁sáng	-850
▁down	-851
▁trai	-852
▁three	-853
▁Pháp	-854
orrow	-855
▁lấy	-856
▁Are	-857
▁they	-858
body	-859
▁gh	-860
eel	-861
▁old	-862
▁mai	-863
▁better	-864
▁gắng	-865
▁child	-866
ment	-867
ớm	-868
▁seem	-869
ụng	-870
▁Please	-871
ắn	-872
ạy	-873
▁sớm	-874
▁tâm	-875
▁fa	-876
ity	-877
▁bec	-878
▁em	-879
ait	-880
▁hiện	-881
▁put	-882
rench	-883
▁part	-884
▁động	-885
▁nơi	-886
▁feel	-887
ầm	-888
▁aw	-889
ẩn	-890
ol	-891
▁vọng	-892
▁care	-893
urn	-894
▁French	-895
▁đồng	-896
▁kỳ	-897
▁plan	-898
eep	-899
▁app	-900
▁đọc	-901
àu	-902
▁đàn	-903
▁well	-904
▁cuối	-905
▁asked	-906
▁bel	-907
▁tuần	-908
ứa	-909
ance	-910
▁still	-911
ọn	-912
ảnh	-913
▁try	-914
▁meet	-915
▁đánh	-916
▁dự	-917
▁hard	-918
ves	-919
▁uống	-920
▁wanted	-921
▁night	-922
eek	-923
ittle	-924
hn	-925
▁giá	-926
▁trời	-927
ies	-928
▁toàn	-929
▁chính	-930
▁little	-931
xt	-932
▁may	-933
▁find	-934
▁hand	-935
▁đẹp	-936
▁isn	-937
▁tea	-938
ied	-939
▁thư	-940
▁Did	-941
▁thức	-942
▁Có	-943
ack	-944
▁two	-945
▁wait	-946
▁where	-947
▁chết	-948
▁đúng	-949
▁many	-950
▁happened	-951
▁đặt	-952
iz	-953
óng	-954
▁exp	-955
▁left	-956
ắm	-957
▁week	-958
▁giải	-959
▁today	-960
▁hôn	-961
▁đều	-962
ịch	-963
ét	-964
ount	-965
▁mặt	-966
ting	-967
▁gần	-968
▁bro	-969
▁buy	-970
▁dis	-971
ừa	-972
▁hoạ	-973
▁job	-974
00	-975
▁op	-976
▁vài	-977
▁acc	-978
▁sw	-979
ress	-980
áng	-981
mber	-982
▁giữ	-983
▁bl	-984
▁dụng	-985
iến	-986
▁la	-987
ia	-988
▁sai	-989
▁came	-990
▁cũng	-991
iss	-992
▁hu	-993
▁leave	-994
▁them	-995
▁When	-996
▁bảo	-997
▁lắng	-998
▁phí	-999
ồn	-1000
estion	-1001
▁fin	-1002
▁tomorrow	-1003
▁gr	-1004
▁bé	-1005
▁te	-1006
wn	-1007
ried	-1008
ence	-1009
ộn	-1010
▁wal	-1011
▁ngồi	-1012
▁years	-1013
▁ear	-1014
▁father	-1015
▁tưởng	-1016
▁viết	-1017
▁next	-1018
▁mỗi	-1019
ict	-1020
leep	-1021
ated	-1022
▁No	-1023
lish	-1024
▁áo	-1025
ít	-1026
▁ten	-1027
▁took	-1028
▁đỡ	-1029
▁xuống	-1030
▁clo	-1031
▁nhớ	-1032
▁imp	-1033
ip	-1034
iệt	-1035
gg	-1036
ile	-1037
▁happy	-1038
▁start	-1039
▁Who	-1040
▁cha	-1041
▁couldn	-1042
▁belie	-1043
ise	-1044
▁mar	-1045
▁tức	-1046
▁giáo	-1047
▁question	-1048
▁Where	-1049
▁Tại	-1050
▁tên	-1051
▁Eng	-1052
▁inter	-1053
."	-1054
ển	-1055
ich	-1056
ester	-1057
▁cây	-1058
▁dec	-1059
ạo	-1060
▁trông	-1061
▁thông	-1062
irst	-1063
▁báo	-1064
▁đủ	-1065
uyên	-1066
▁sĩ	-1067
▁saw	-1068
▁teach	-1069
▁trọng	-1070
▁their	-1071
▁underst	-1072
▁diff	-1073
ợp	-1074
▁doing	-1075
ệnh	-1076
ảng	-1077
▁chút	-1078
iệu	-1079
▁cao	-1080
óc	-1081
▁sợ	-1082
▁lâu	-1083
▁đêm	-1084
▁2	-1085
▁hy	-1086
▁gu	-1087
▁love	-1088
reat	-1089
▁hợp	-1090
▁sử	-1091
▁ít	-1092
▁chu	-1093
▁nhân	-1094
▁nothing	-1095
▁away	-1096
▁hành	-1097
▁id	-1098
▁br	-1099
▁tuổi	-1100
▁điện	-1101
▁chó	-1102
esterday	-1103
▁res	-1104
▁tập	-1105
▁done	-1106
▁fl	-1107
▁thị	-1108
▁late	-1109
ian	-1110
ese	-1111
▁nhiêu	-1112
▁thay	-1113
▁sc	-1114
▁tiếp	-1115
ậu	-1116
read	-1117
▁English	-1118
ten	-1119
▁tra	-1120
▁nhanh	-1121
apan	-1122
▁Japan	-1123
ùa	-1124
ious	-1125
▁soon	-1126
▁bên	-1127
▁gave	-1128
ank	-1129
▁wasn	-1130
▁ảnh	-1131
▁drink	-1132
mer	-1133
▁first	-1134
▁door	-1135
▁kế	-1136
pect	-1137
▁watch	-1138
ắp	-1139
ted	-1140
▁fi	-1141
iệm	-1142
▁heard	-1143
▁dog	-1144
▁ask	-1145
▁chạy	-1146
▁ơn	-1147
▁tuyệt	-1148
▁nghỉ	-1149
ab	-1150
ạm	-1151
▁understand	-1152
▁Kh	-1153
▁bận	-1154
ause	-1155
▁boy	-1156
os	-1157
▁cảnh	-1158
▁gir	-1159
▁mặc	-1160
▁stud	-1161
▁bản	-1162
▁tháng	-1163
▁yesterday	-1164
ect	-1165
▁keep	-1166
kes	-1167
▁vụ	-1168
▁tàu	-1169
ởi	-1170
▁đối	-1171
▁Nhật	-1172
ert	-1173
te	-1174
ark	-1175
very	-1176
▁friends	-1177
▁hết	-1178
▁chị	-1179
ident	-1180
▁nhiên	-1181
▁mat	-1182
ail	-1183
▁cơ	-1184
▁big	-1185
ace	-1186
▁His	-1187
▁why	-1188
ily	-1189
▁pers	-1190
▁hour	-1191
iếm	-1192
▁chủ	-1193
▁str	-1194
▁tình	-1195
▁hay	-1196
▁even	-1197
▁believe	-1198
ượng	-1199
▁bay	-1200
any	-1201
▁fam	-1202
▁wants	-1203
▁chăm	-1204
▁used	-1205
▁live	-1206
▁vị	-1207
▁chiến	-1208
▁phát	-1209
▁R	-1210
▁mor	-1211
▁everything	-1212
▁mở	-1213
▁mang	-1214
▁hoạch	-1215
ặng	-1216
▁min	-1217
▁mưa	-1218
▁busy	-1219
▁từng	-1220
òa	-1221
▁sleep	-1222
▁around	-1223
▁things	-1224
▁giả	-1225
▁hạnh	-1226
▁bệnh	-1227
▁thuốc	-1228
▁cười	-1229
▁kind	-1230
▁children	-1231
▁bàn	-1232
▁hội	-1233
▁pol	-1234
▁rain	-1235
▁enough	-1236
ổn	-1237
▁wrong	-1238
▁sát	-1239
▁Every	-1240
úi	-1241
▁forg	-1242
▁giới	-1243
igh	-1244
▁bad	-1245
ull	-1246
▁To	-1247
ange	-1248
▁sur	-1249
air	-1250
▁phúc	-1251
▁đổi	-1252
▁kiể	-1253
ượt	-1254
▁please	-1255
▁phụ	-1256
▁tiệc	-1257
▁morning	-1258
ond	-1259
▁nghi	-1260
▁Have	-1261
▁dri	-1262
▁turn	-1263
▁đáng	-1264
ãi	-1265
▁dễ	-1266
▁party	-1267
ised	-1268
ner	-1269
▁life	-1270
▁thương	-1271
▁gl	-1272
▁mười	-1273
▁hear	-1274
▁lẽ	-1275
▁bóng	-1276
▁bánh	-1277
▁nhạc	-1278
▁show	-1279
▁thuy	-1280
um	-1281
ctor	-1282
▁mother	-1283
other	-1284
▁study	-1285
ti	-1286
ky	-1287
able	-1288
▁att	-1289
▁tranh	-1290
▁Jo	-1291
▁looking	-1292
▁năng	-1293
▁đôi	-1294
▁bơi	-1295
▁chí	-1296
ult	-1297
▁run	-1298
▁ri	-1299
▁cle	-1300
▁wish	-1301
▁finish	-1302
▁hình	-1303
▁lái	-1304
▁alone	-1305
▁looks	-1306
▁interest	-1307
èo	-1308
ork	-1309
▁cat	-1310
▁dài	-1311
▁open	-1312
▁knows	-1313
▁nhỏ	-1314
àm	-1315
▁lạnh	-1316
▁ngôi	-1317
ue	-1318
▁found	-1319
▁đơn	-1320
▁đại	-1321
▁buổi	-1322
▁cà	-1323
▁im	-1324
▁màu	-1325
▁che	-1326
▁use	-1327
▁kiểm	-1328
▁mong	-1329
▁might	-1330
▁mind	-1331
▁vis	-1332
▁cont	-1333
▁khách	-1334
▁seems	-1335
ách	-1336
▁adv	-1337
pped	-1338
ạt	-1339
▁bố	-1340
▁John	-1341
▁Would	-1342
wer	-1343
ually	-1344
▁supp	-1345
ited	-1346
▁rec	-1347
▁wouldn	-1348
▁hát	-1349
▁rồi	-1350
▁hur	-1351
▁St	-1352
▁tham	-1353
▁person	-1354
ép	-1355
▁tai	-1356
ngry	-1357
▁hồ	-1358
▁ước	-1359
▁often	-1360
▁few	-1361
▁Some	-1362
▁girl	-1363
▁knew	-1364
▁quên	-1365
ậm	-1366
▁being	-1367
▁best	-1368
?"	-1369
▁hộ	-1370
▁hope	-1371
▁sec	-1372
▁fo	-1373
ễn	-1374
ible	-1375
30	-1376
▁minut	-1377
erm	-1378
▁name	-1379
▁ty	-1380
ince	-1381
▁phút	-1382
▁train	-1383
ready	-1384
▁lear	-1385
▁already	-1386
ci	-1387
▁nghị	-1388
▁wonder	-1389
▁idea	-1390
▁thú	-1391
pt	-1392
▁khăn	-1393
▁mon	-1394
▁yet	-1395
▁trung	-1396
▁without	-1397
ned	-1398
▁vừa	-1399
▁pret	-1400
▁tiết	-1401
▁beg	-1402
ưới	-1403
member	-1404
akes	-1405
▁ans	-1406
▁because	-1407
▁mắt	-1408
sp	-1409
▁sho	-1410
aught	-1411
vor	-1412
▁lập	-1413
▁tới	-1414
▁seen	-1415
▁giống	-1416
▁chuyến	-1417
▁same	-1418
ươi	-1419
▁đứa	-1420
▁teacher	-1421
▁el	-1422
▁count	-1423
▁list	-1424
▁chờ	-1425
▁bought	-1426
ón	-1427
▁dường	-1428
▁student	-1429
▁bed	-1430
▁nhật	-1431
▁hơi	-1432
▁met	-1433
▁thoại	-1434
▁bre	-1435
▁thêm	-1436
▁tiên	-1437
▁while	-1438
▁kinh	-1439
▁getting	-1440
ạp	-1441
orm	-1442
▁remember	-1443
▁stop	-1444
▁đau	-1445
▁Ng	-1446
▁nữ	-1447
▁des	-1448
▁quả	-1449
▁chú	-1450
▁nạn	-1451
▁young	-1452
ory	-1453
ằm	-1454
▁Làm	-1455
▁sức	-1456
▁looked	-1457
ud	-1458
▁kiếm	-1459
▁swim	-1460
▁able	-1461
▁arri	-1462
▁chọn	-1463
ans	-1464
▁cold	-1465
▁matter	-1466
ẵn	-1467
▁bình	-1468
▁lịch	-1469
▁May	-1470
▁biể	-1471
▁class	-1472
oy	-1473
▁phố	-1474
▁sẵn	-1475
▁each	-1476
▁lost	-1477
▁mist	-1478
▁great	-1479
les	-1480
▁Bản	-1481
▁anyone	-1482
▁điể	-1483
▁điểm	-1484
▁đo	-1485
▁văn	-1486
▁answer	-1487
ret	-1488
▁fun	-1489
▁bức	-1490
▁beau	-1491
ater	-1492
▁dành	-1493
▁tried	-1494
▁meeting	-1495
▁mùa	-1496
▁thất	-1497
▁loại	-1498
▁hot	-1499
ced	-1500
▁place	-1501
▁đứng	-1502
▁nghĩa	-1503
▁water	-1504
▁ma	-1505
▁days	-1506
▁these	-1507
pr	-1508
▁pay	-1509
iều	-1510
▁quanh	-1511
▁else	-1512
▁food	-1513
▁phục	-1514
▁brother	-1515
▁eas	-1516
▁thân	-1517
▁wear	-1518
▁dậy	-1519
▁xấu	-1520
▁chuyển	-1521
arent	-1522
▁letter	-1523
ey	-1524
▁ac	-1525
▁kể	-1526
▁mươi	-1527
▁đình	-1528
▁bởi	-1529
int	-1530
▁far	-1531
▁Tell	-1532
▁xuất	-1533
▁xa	-1534
▁Hãy	-1535
▁nu	-1536
▁rep	-1537
▁haven	-1538
▁chứ	-1539
▁expect	-1540
▁himself	-1541
▁du	-1542
▁act	-1543
▁own	-1544
▁duy	-1545
gether	-1546
ửi	-1547
▁khóa	-1548
▁thăm	-1549
inner	-1550
▁miss	-1551
by	-1552
▁lớp	-1553
▁biệt	-1554
cu	-1555
▁rest	-1556
ýt	-1557
▁talking	-1558
ister	-1559
▁month	-1560
▁together	-1561
▁quay	-1562
▁nguy	-1563
▁tính	-1564
▁another	-1565
▁chịu	-1566
▁giết	-1567
▁trò	-1568
▁cấp	-1569
▁giận	-1570
▁vời	-1571
ided	-1572
▁dối	-1573
▁accident	-1574
ru	-1575
ens	-1576
▁phi	-1577
▁pict	-1578
óa	-1579
▁war	-1580
▁pain	-1581
▁picture	-1582
▁Khi	-1583
▁họp	-1584
▁thuyết	-1585
lain	-1586
▁Điều	-1587
nis	-1588
▁beauti	-1589
kyo	-1590
▁đóng	-1591
▁walk	-1592
▁cẩn	-1593
▁thử	-1594
▁sàng	-1595
ons	-1596
▁sl	-1597
▁phép	-1598
ựa	-1599
▁phim	-1600
▁rõ	-1601
▁married	-1602
▁beautiful	-1603
arents	-1604
iếu	-1605
▁police	-1606
led	-1607
▁trí	-1608
▁tennis	-1609
▁ngốc	-1610
ồng	-1611
ered	-1612
▁bán	-1613
▁ey	-1614
act	-1615
▁trying	-1616
▁All	-1617
▁phê	-1618
▁rối	-1619
orry	-1620
:30	-1621
▁ly	-1622
▁sit	-1623
▁both	-1624
no	-1625
cle	-1626
▁In	-1627
▁khuyên	-1628
ream	-1629
ướng	-1630
▁ngạc	-1631
▁trưa	-1632
▁favor	-1633
side	-1634
▁unt	-1635
▁dinner	-1636
▁hiểm	-1637
▁phía	-1638
▁wind	-1639
▁đất	-1640
▁giỏi	-1641
▁coming	-1642
▁minh	-1643
▁quần	-1644
▁word	-1645
▁family	-1646
▁gửi	-1647
▁hours	-1648
ken	-1649
▁muộn	-1650
be	-1651
▁kill	-1652
▁liên	-1653
ượu	-1654
ouble	-1655
ever	-1656
▁lầm	-1657
▁tài	-1658
▁tội	-1659
ord	-1660
▁tệ	-1661
▁lạc	-1662
▁ngu	-1663
▁once	-1664
▁doctor	-1665
▁ton	-1666
▁rượu	-1667
▁quite	-1668
ấm	-1669
▁chân	-1670
▁diffic	-1671
▁xử	-1672
▁buýt	-1673
▁early	-1674
▁mệt	-1675
▁sat	-1676
▁pass	-1677
em	-1678
▁sn	-1679
▁viện	-1680
▁likes	-1681
▁surpr	-1682
raid	-1683
▁hóa	-1684
▁parents	-1685
▁U	-1686
▁afraid	-1687
▁pretty	-1688
▁started	-1689
ầy	-1690
▁hòa	-1691
▁tục	-1692
▁xác	-1693
▁thr	-1694
ose	-1695
▁vợ	-1696
▁luận	-1697
ffee	-1698
▁buồn	-1699
▁high	-1700
▁thận	-1701
▁until	-1702
iệp	-1703
▁bác	-1704
▁john	-1705
▁khu	-1706
▁says	-1707
▁sing	-1708
een	-1709
▁ổn	-1710
▁mạnh	-1711
▁office	-1712
▁such	-1713
ars	-1714
▁coffee	-1715
▁kẻ	-1716
ac	-1717
▁lau	-1718
▁ké	-1719
ared	-1720
▁called	-1721
▁through	-1722
▁nice	-1723
▁món	-1724
iness	-1725
▁sister	-1726
▁à	-1727
▁càng	-1728
▁true	-1729
most	-1730
▁beh	-1731
▁ser	-1732
▁cons	-1733
▁phạm	-1734
ign	-1735
sic	-1736
▁ago	-1737
▁trái	-1738
▁inv	-1739
▁đô	-1740
▁vô	-1741
▁having	-1742
▁someone	-1743
unch	-1744
▁break	-1745
▁cậu	-1746
▁phần	-1747
▁listen	-1748
▁lã	-1749
▁end	-1750
▁tired	-1751
▁ngữ	-1752
ates	-1753
▁prom	-1754
▁world	-1755
▁import	-1756
▁trouble	-1757
▁khỏ	-1758
▁wom	-1759
▁minutes	-1760
▁working	-1761
▁mov	-1762
▁pres	-1763
▁tế	-1764
▁hầu	-1765
ash	-1766
▁books	-1767
▁Could	-1768
ition	-1769
▁cam	-1770
▁cứu	-1771
▁truth	-1772
▁dù	-1773
▁myself	-1774
▁đội	-1775
ph	-1776
▁air	-1777
▁per	-1778
▁sorry	-1779
▁real	-1780
▁stand	-1781
▁decided	-1782
ild	-1783
▁pian	-1784
▁bước	-1785
▁trang	-1786
▁sick	-1787
▁phone	-1788
▁visit	-1789
▁khả	-1790
▁V	-1791
▁cook	-1792
▁sto	-1793
▁most	-1794
▁yourself	-1795
▁mèo	-1796
▁dừng	-1797
▁khỏe	-1798
▁căn	-1799
▁phiền	-1800
▁difficult	-1801
▁cr	-1802
arge	-1803
▁bir	-1804
▁son	-1805
▁suy	-1806
ảm	-1807
▁ngờ	-1808
▁túi	-1809
▁Tokyo	-1810
▁quen	-1811
ize	-1812
▁As	-1813
▁almost	-1814
▁chấp	-1815
▁differ	-1816
▁guy	-1817
ẩm	-1818
▁thúc	-1819
joy	-1820
▁hurt	-1821
▁since	-1822
ốt	-1823
êng	-1824
▁lá	-1825
ub	-1826
▁vi	-1827
ably	-1828
▁hút	-1829
▁conc	-1830
▁station	-1831
▁ob	-1832
▁si	-1833
ssible	-1834
▁table	-1835
▁tuyết	-1836
▁ga	-1837
▁chì	-1838
▁Your	-1839
▁piano	-1840
▁vượt	-1841
▁rel	-1842
oup	-1843
sh	-1844
ention	-1845
ike	-1846
▁chiều	-1847
ỉnh	-1848
▁questions	-1849
ane	-1850
▁ghét	-1851
▁sugg	-1852
▁lunch	-1853
▁music	-1854
anger	-1855
▁ready	-1856
here	-1857
▁sư	-1858
▁dưới	-1859
ertain	-1860
▁sáu	-1861
ors	-1862
▁head	-1863
▁thậm	-1864
▁tượng	-1865
ason	-1866
▁rem	-1867
▁vật	-1868
▁nóng	-1869
▁enjoy	-1870
▁tonight	-1871
▁ent	-1872
▁small	-1873
▁doll	-1874
▁fish	-1875
▁sổ	-1876
▁sóc	-1877
meric	-1878
▁cổ	-1879
▁win	-1880
▁waiting	-1881
▁nổi	-1882
▁needs	-1883
elt	-1884
▁chance	-1885
cy	-1886
less	-1887
ating	-1888
▁learn	-1889
▁aren	-1890
▁Americ	-1891
reet	-1892
▁prob	-1893
▁đông	-1894
▁cư	-1895
▁đổ	-1896
ếp	-1897
ush	-1898
▁lạ	-1899
▁hoa	-1900
▁Just	-1901
oke	-1902
▁19	-1903
▁sk	-1904
▁change	-1905
▁company	-1906
▁rộn	-1907
io	-1908
▁ap	-1909
▁2:30	-1910
▁fire	-1911
▁gone	-1912
▁ràng	-1913
▁wife	-1914
▁sound	-1915
▁thống	-1916
▁finished	-1917
alth	-1918
▁dàng	-1919
▁five	-1920
▁nhiệm	-1921
▁probably	-1922
▁mật	-1923
pid	-1924
▁Mỹ	-1925
▁bí	-1926
▁playing	-1927
man	-1928
▁âm	-1929
▁town	-1930
▁favorite	-1931
more	-1932
▁hoặc	-1933
▁secret	-1934
av	-1935
orn	-1936
▁felt	-1937
▁mean	-1938
▁anymore	-1939
▁đói	-1940
▁fast	-1941
▁trấn	-1942
▁tăng	-1943
ám	-1944
▁ký	-1945
ital	-1946
▁cáo	-1947
▁near	-1948
▁thiết	-1949
▁shouldn	-1950
ross	-1951
▁kiến	-1952
▁khoảng	-1953
▁country	-1954
▁Japanese	-1955
▁business	-1956
▁đoán	-1957
▁angry	-1958
▁students	-1959
cked	-1960
▁On	-1961
▁lư	-1962
ces	-1963
app	-1964
▁kéo	-1965
▁thì	-1966
lic	-1967
▁thuộc	-1968
▁hứa	-1969
▁TV	-1970
▁Her	-1971
▁hài	-1972
▁turned	-1973
lt	-1974
▁tương	-1975
▁important	-1976
▁deal	-1977
▁bè	-1978
▁comm	-1979
▁news	-1980
▁certain	-1981
▁coll	-1982
▁quốc	-1983
▁order	-1984
▁sửa	-1985
▁Does	-1986
▁died	-1987
▁luật	-1988
ions	-1989
▁bại	-1990
▁thủ	-1991
▁easy	-1992
▁khóc	-1993
▁lang	-1994
▁dress	-1995
form	-1996
work	-1997
▁ass	-1998
▁phá	-1999
▁light	-2000
▁già	-2001
▁window	-2002
ẳng	-2003
aper	-2004
▁ban	-2005
▁đầy	-2006
▁times	-2007
▁lives	-2008
ense	-2009
omet	-2010
▁mỏi	-2011
▁giữa	-2012
▁trust	-2013
ward	-2014
▁cánh	-2015
▁nhảy	-2016
rew	-2017
▁mũ	-2018
▁diễn	-2019
▁cắt	-2020
▁Be	-2021
▁ngừng	-2022
▁mom	-2023
▁conf	-2024
▁those	-2025
where	-2026
▁dạy	-2027
ject	-2028
osed	-2029
▁rơi	-2030
▁trị	-2031
▁băng	-2032
▁lặng	-2033
▁feeling	-2034
▁usually	-2035
oto	-2036
▁rắc	-2037
▁thi	-2038
▁tre	-2039
▁tóc	-2040
▁later	-2041
▁ngoại	-2042
▁danger	-2043
▁mistake	-2044
ib	-2045
▁Will	-2046
ient	-2047
▁giày	-2048
ier	-2049
▁makes	-2050
▁Sh	-2051
ball	-2052
▁caught	-2053
▁laugh	-2054
used	-2055
▁Our	-2056
▁bit	-2057
▁ele	-2058
▁khí	-2059
▁chức	-2060
▁eyes	-2061
▁arrived	-2062
▁problems	-2063
▁inc	-2064
▁Give	-2065
▁giao	-2066
▁trình	-2067
▁stupid	-2068
▁reading	-2069
▁Su	-2070
▁hè	-2071
▁nghiệp	-2072
irty	-2073
▁sum	-2074
▁game	-2075
ạng	-2076
llow	-2077
▁ref	-2078
▁song	-2079
▁spend	-2080
▁longer	-2081
aid	-2082
ote	-2083
▁hộp	-2084
▁dep	-2085
▁hands	-2086
▁story	-2087
ny	-2088
▁đu	-2089
▁kid	-2090
▁sắp	-2091
▁lực	-2092
▁ran	-2093
▁ngăn	-2094
▁weather	-2095
▁tổ	-2096
▁key	-2097
▁worry	-2098
▁suggest	-2099
▁baby	-2100
▁doanh	-2101
▁afterno	-2102
▁biển	-2103
▁exam	-2104
▁walked	-2105
ized	-2106
▁giảm	-2107
▁Thank	-2108
▁glass	-2109
▁thắng	-2110
ói	-2111
▁ô	-2112
ủng	-2113
▁fail	-2114
ime	-2115
ont	-2116
ượn	-2117
▁afternoon	-2118
not	-2119
sed	-2120
▁giường	-2121
▁mơ	-2122
ract	-2123
▁nằm	-2124
▁par	-2125
▁cạnh	-2126
▁clean	-2127
▁number	-2128
▁cơn	-2129
▁dân	-2130
▁sol	-2131
▁tồi	-2132
▁city	-2133
▁pháp	-2134
▁sở	-2135
ouch	-2136
▁fell	-2137
▁liệu	-2138
▁then	-2139
▁surprised	-2140
du	-2141
oud	-2142
ỏng	-2143
▁đạp	-2144
▁buộc	-2145
▁cung	-2146
▁forget	-2147
▁tax	-2148
▁reason	-2149
▁mái	-2150
▁đám	-2151
▁guit	-2152
▁tele	-2153
▁along	-2154
▁lượng	-2155
ốm	-2156
▁mi	-2157
▁nam	-2158
▁ret	-2159
▁riêng	-2160
vel	-2161
▁chỗ	-2162
▁drive	-2163
gn	-2164
▁fore	-2165
▁broke	-2166
▁guitar	-2167
▁health	-2168
▁homework	-2169
▁interested	-2170
ềm	-2171
ision	-2172
▁biến	-2173
ire	-2174
▁ghế	-2175
▁hair	-2176
▁langu	-2177
▁cannot	-2178
log	-2179
▁face	-2180
▁movie	-2181
▁advice	-2182
ept	-2183
▁tù	-2184
ical	-2185
ming	-2186
▁reg	-2187
▁living	-2188
▁5	-2189
▁ru	-2190
▁mời	-2191
▁free	-2192
▁hoạt	-2193
▁mượn	-2194
▁arm	-2195
▁ốm	-2196
▁write	-2197
▁comple	-2198
ẹn	-2199
ỏa	-2200
cept	-2201
▁chàng	-2202
▁dro	-2203
▁forgot	-2204
▁moment	-2205
▁thinking	-2206
▁set	-2207
▁tắt	-2208
▁đấu	-2209
▁sent	-2210
▁follow	-2211
▁chìa	-2212
▁thoát	-2213
▁eating	-2214
▁đỏ	-2215
ness	-2216
▁bảy	-2217
▁bar	-2218
▁mil	-2219
▁safe	-2220
▁truy	-2221
▁add	-2222
▁sông	-2223
▁điên	-2224
▁nghiêm	-2225
▁yên	-2226
▁exact	-2227
▁khiến	-2228
▁street	-2229
▁taking	-2230
az	-2231
per	-2232
iet	-2233
▁glad	-2234
▁hosp	-2235
▁park	-2236
▁sang	-2237
▁Everyone	-2238
▁hospital	-2239
ộng	-2240
▁dịch	-2241
▁anybody	-2242
irt	-2243
▁sạn	-2244
▁whe	-2245
▁hiệu	-2246
▁kept	-2247
▁thanh	-2248
▁xét	-2249
▁agree	-2250
▁build	-2251
▁trách	-2252
▁interesting	-2253
èn	-2254
als	-2255
▁careful	-2256
▁sân	-2257
▁snow	-2258
▁dream	-2259
▁lived	-2260
▁quick	-2261
▁everyone	-2262
óm	-2263
ling	-2264
▁med	-2265
▁mine	-2266
bed	-2267
ger	-2268
▁lắm	-2269
▁đời	-2270
▁woman	-2271
▁against	-2272
▁dollars	-2273
▁Nếu	-2274
ience	-2275
▁wall	-2276
br	-2277
▁vệ	-2278
itch	-2279
▁dẫn	-2280
▁đặc	-2281
▁hướng	-2282
▁đe	-2283
▁giàu	-2284
▁chuẩn	-2285
▁hẹn	-2286
▁tắm	-2287
▁lãng	-2288
▁began	-2289
▁Mr	-2290
▁law	-2291
▁explain	-2292
▁Con	-2293
▁begin	-2294
icy	-2295
▁abs	-2296
▁goes	-2297
▁These	-2298
▁tránh	-2299
▁Tr	-2300
land	-2301
▁chối	-2302
▁thảo	-2303
▁Người	-2304
▁hungry	-2305
▁Q	-2306
▁Fr	-2307
▁lựa	-2308
▁mức	-2309
▁táo	-2310
▁needed	-2311
ủy	-2312
▁Ai	-2313
▁trip	-2314
▁front	-2315
▁large	-2316
▁Un	-2317
▁ate	-2318
▁phủ	-2319
▁close	-2320
▁making	-2321
▁wearing	-2322
▁ích	-2323
▁shoes	-2324
▁return	-2325
▁summer	-2326
dd	-2327
▁cut	-2328
▁pic	-2329
▁phản	-2330
itting	-2331
▁chứng	-2332
▁clear	-2333
ĩnh	-2334
▁gây	-2335
▁trễ	-2336
▁fight	-2337
▁consid	-2338
▁short	-2339
▁behind	-2340
▁quà	-2341
▁exactly	-2342
ison	-2343
vers	-2344
▁cry	-2345
▁ngon	-2346
▁Nobody	-2347
if	-2348
▁cost	-2349
▁10	-2350
ular	-2351
▁suit	-2352
▁Những	-2353
▁hotel	-2354
ured	-2355
ative	-2356
ccess	-2357
▁gets	-2358
ully	-2359
▁mắn	-2360
▁Thật	-2361
▁nấu	-2362
▁hasn	-2363
▁kiss	-2364
▁killed	-2365
ịp	-2366
▁box	-2367
▁bầu	-2368
▁địa	-2369
▁flow	-2370
▁store	-2371
▁thiếu	-2372
▁became	-2373
med	-2374
▁xung	-2375
▁trave	-2376
▁possible	-2377
▁Qu	-2378
▁chằm	-2379
▁wash	-2380
▁birth	-2381
▁catch	-2382
▁trượt	-2383
▁tổn	-2384
▁súng	-2385
▁khoác	-2386
▁river	-2387
▁3	-2388
▁tử	-2389
rant	-2390
▁tòa	-2391
▁biểu	-2392
▁xanh	-2393
▁comes	-2394
ko	-2395
zy	-2396
▁men	-2397
▁sản	-2398
▁Sund	-2399
▁serious	-2400
▁supposed	-2401
ãn	-2402
▁ni	-2403
▁tiêu	-2404
▁xong	-2405
▁present	-2406
rect	-2407
▁chia	-2408
▁vàng	-2409
bt	-2410
iếp	-2411
▁tác	-2412
▁váy	-2413
▁whole	-2414
▁success	-2415
▁telling	-2416
▁studying	-2417
uter	-2418
▁pat	-2419
▁tall	-2420
ween	-2421
▁kính	-2422
▁cloth	-2423
▁different	-2424
▁tư	-2425
▁bag	-2426
▁cap	-2427
▁dark	-2428
▁hate	-2429
▁chang	-2430
▁works	-2431
▁bur	-2432
▁giấy	-2433
▁point	-2434
▁red	-2435
▁Maybe	-2436
▁án	-2437
ended	-2438
▁grand	-2439
▁trắng	-2440
▁six	-2441
▁ter	-2442
▁dist	-2443
▁xuyên	-2444
ither	-2445
▁outside	-2446
cuss	-2447
▁New	-2448
▁bốn	-2449
▁pop	-2450
▁trận	-2451
▁Không	-2452
▁computer	-2453
ữu	-2454
ạch	-2455
▁OK	-2456
▁fig	-2457
▁hữu	-2458
▁pen	-2459
▁đảm	-2460
icket	-2461
▁less	-2462
▁thuê	-2463
▁wine	-2464
▁thinks	-2465
ão	-2466
000	-2467
▁cra	-2468
▁ngôn	-2469
▁between	-2470
tle	-2471
▁vỡ	-2472
▁adm	-2473
▁hat	-2474
▁thôi	-2475
▁talked	-2476
▁vũ	-2477
▁rad	-2478
▁phẩm	-2479
▁trốn	-2480
▁discuss	-2481
▁Go	-2482
▁vé	-2483
cess	-2484
lock	-2485
iting	-2486
▁report	-2487
▁ill	-2488
unk	-2489
port	-2490
▁aff	-2491
▁nỗi	-2492
▁sun	-2493
▁val	-2494
ately	-2495
▁stopped	-2496
▁complete	-2497
ased	-2498
fully	-2499
▁danh	-2500
▁fine	-2501
▁death	-2502
aughter	-2503
▁disapp	-2504
▁hit	-2505
▁núi	-2506
▁nửa	-2507
ấc	-2508
airs	-2509
cial	-2510
▁đèn	-2511
▁đùa	-2512
▁Many	-2513
▁jack	-2514
▁bring	-2515
▁quyền	-2516
co	-2517
▁sub	-2518
▁thịt	-2519
▁reach	-2520
▁stayed	-2521
▁spe	-2522
oking	-2523
▁team	-2524
▁touch	-2525
▁cắp	-2526
uring	-2527
▁ngắn	-2528
▁ngoái	-2529
▁strong	-2530
▁lỡ	-2531
aged	-2532
imes	-2533
vent	-2534
▁flo	-2535
▁hào	-2536
▁leg	-2537
▁quiet	-2538
▁thẳng	-2539
▁helped	-2540
▁dead	-2541
▁vo	-2542
ceed	-2543
room	-2544
▁ins	-2545
▁trợ	-2546
▁guess	-2547
▁whether	-2548
▁bắn	-2549
▁Một	-2550
▁lửa	-2551
ently	-2552
▁mess	-2553
eal	-2554
fast	-2555
▁cor	-2556
▁tạo	-2557
▁base	-2558
▁ngân	-2559
▁allow	-2560
▁thang	-2561
▁become	-2562
▁building	-2563
ưu	-2564
▁pie	-2565
▁thơ	-2566
▁quản	-2567
▁rich	-2568
▁evening	-2569
era	-2570
ual	-2571
▁mù	-2572
fect	-2573
▁age	-2574
▁dọn	-2575
▁taxi	-2576
▁spent	-2577
▁known	-2578
olog	-2579
▁coi	-2580
▁fall	-2581
aurant	-2582
▁ticket	-2583
▁trưởng	-2584
▁restaurant	-2585
ton	-2586
▁né	-2587
▁bút	-2588
▁hon	-2589
▁Come	-2590
▁Af	-2591
▁fe	-2592
▁cup	-2593
▁cân	-2594
▁đen	-2595
ations	-2596
▁expens	-2597
▁worked	-2598
▁bếp	-2599
▁check	-2600
▁radio	-2601
▁which	-2602
▁worried	-2603
▁complain	-2604
▁ext	-2605
▁Chin	-2606
▁điển	-2607
▁Canad	-2608
▁watching	-2609
vi	-2610
iếng	-2611
▁kia	-2612
▁xúc	-2613
▁Take	-2614
▁toán	-2615
▁khủng	-2616
▁thuật	-2617
▁worth	-2618
▁clothes	-2619
erv	-2620
▁es	-2621
▁tv	-2622
▁die	-2623
▁full	-2624
▁breakfast	-2625
ob	-2626
son	-2627
▁cờ	-2628
▁bật	-2629
▁its	-2630
▁chim	-2631
▁test	-2632
▁asleep	-2633
▁speaks	-2634
▁birthday	-2635
▁Ô	-2636
▁hổ	-2637
▁language	-2638
▁det	-2639
▁hủy	-2640
▁Germ	-2641
▁half	-2642
▁nhập	-2643
▁nặng	-2644
▁road	-2645
▁thirty	-2646
eg	-2647
▁Tru	-2648
▁dạo	-2649
▁Đức	-2650
▁niềm	-2651
▁paid	-2652
▁rather	-2653
▁saying	-2654
ometimes	-2655
▁pri	-2656
▁luck	-2657
▁reco	-2658
▁inform	-2659
▁thừa	-2660
▁carry	-2661
▁second	-2662
erg	-2663
▁bia	-2664
▁tắc	-2665
▁Ông	-2666
▁conv	-2667
▁wrote	-2668
ountain	-2669
▁Nó	-2670
ffic	-2671
▁vội	-2672
pping	-2673
▁paper	-2674
▁kịp	-2675
▁sữa	-2676
▁giác	-2677
▁sand	-2678
▁quickly	-2679
way	-2680
▁Trung	-2681
▁chồng	-2682
ith	-2683
▁nợ	-2684
▁One	-2685
▁hại	-2686
▁xây	-2687
▁nhẫn	-2688
▁poor	-2689
▁others	-2690
ages	-2691
▁dục	-2692
▁hor	-2693
▁rửa	-2694
▁bicy	-2695
▁cháy	-2696
▁desk	-2697
▁hold	-2698
▁seat	-2699
▁heart	-2700
▁brought	-2701
▁speaking	-2702
▁ju	-2703
▁fix	-2704
phone	-2705
▁Quốc	-2706
▁clim	-2707
▁lose	-2708
▁thuận	-2709
ờn	-2710
▁bà	-2711
cket	-2712
▁ann	-2713
▁ứng	-2714
▁coup	-2715
▁resp	-2716
▁tree	-2717
▁xinh	-2718
uation	-2719
▁Which	-2720
▁older	-2721
▁daughter	-2722
▁certainly	-2723
gr	-2724
▁mấy	-2725
▁bank	-2726
▁ngựa	-2727
▁swimming	-2728
ege	-2729
ife	-2730
▁ngơi	-2731
▁terri	-2732
▁nghiệm	-2733
▁Đây	-2734
▁bill	-2735
▁chán	-2736
▁miễn	-2737
▁move	-2738
▁vòng	-2739
▁Sunday	-2740
▁college	-2741
▁sitting	-2742
▁mì	-2743
ondon	-2744
▁pull	-2745
▁tiếc	-2746
▁trăm	-2747
iction	-2748
▁takes	-2749
▁thiện	-2750
▁white	-2751
▁across	-2752
▁during	-2753
▁opened	-2754
ẩu	-2755
fort	-2756
▁hid	-2757
inted	-2758
▁beer	-2759
▁plane	-2760
▁finally	-2761
▁leaving	-2762
ểu	-2763
ỡng	-2764
▁foot	-2765
▁tiểu	-2766
▁loves	-2767
▁choice	-2768
iếc	-2769
▁vư	-2770
ined	-2771
▁Now	-2772
▁dou	-2773
▁gun	-2774
▁swe	-2775
▁chào	-2776
▁cour	-2777
▁dựng	-2778
▁đeo	-2779
▁độc	-2780
▁Mon	-2781
▁ghi	-2782
▁born	-2783
▁chậm	-2784
▁guys	-2785
▁price	-2786
▁smoking	-2787
set	-2788
▁Get	-2789
clock	-2790
▁giấu	-2791
▁grow	-2792
▁ship	-2793
▁sign	-2794
▁chống	-2795
▁running	-2796
▁áp	-2797
▁suc	-2798
▁fact	-2799
▁bicycle	-2800
▁succeed	-2801
ót	-2802
▁emp	-2803
▁trà	-2804
▁giấc	-2805
▁heav	-2806
▁tĩnh	-2807
▁chóng	-2808
▁minute	-2809
ộm	-2810
fer	-2811
inc	-2812
▁mục	-2813
▁ple	-2814
▁couple	-2815
▁weekend	-2816
▁Đó	-2817
enty	-2818
▁bot	-2819
▁exc	-2820
▁chung	-2821
▁mountain	-2822
▁At	-2823
▁ca	-2824
▁tờ	-2825
yoto	-2826
▁ném	-2827
gu	-2828
▁phù	-2829
▁milk	-2830
▁sold	-2831
▁floor	-2832
▁lương	-2833
▁medic	-2834
▁camera	-2835
▁inside	-2836
ụp	-2837
▁An	-2838
▁fu	-2839
eech	-2840
▁situation	-2841
aw	-2842
áu	-2843
▁ồn	-2844
vered	-2845
▁vườn	-2846
▁apolog	-2847
▁perfect	-2848
▁actually	-2849
▁expensive	-2850
▁coat	-2851
▁black	-2852
▁elect	-2853
artment	-2854
ears	-2855
▁art	-2856
▁nàn	-2857
▁inst	-2858
▁pick	-2859
▁appre	-2860
▁sense	-2861
▁taken	-2862
▁speech	-2863
▁happening	-2864
amp	-2865
ighb	-2866
▁cal	-2867
▁Look	-2868
▁chày	-2869
▁neighb	-2870
ics	-2871
ries	-2872
▁nhờ	-2873
▁hỏng	-2874
▁phàn	-2875
▁quit	-2876
▁temp	-2877
▁tách	-2878
▁khoản	-2879
▁famous	-2880
▁prison	-2881
▁attention	-2882
outh	-2883
ring	-2884
▁đón	-2885
▁least	-2886
▁dangerous	-2887
ial	-2888
▁Sp	-2889
▁av	-2890
ices	-2891
▁eng	-2892
aster	-2893
▁four	-2894
▁nghệ	-2895
▁tường	-2896
▁closed	-2897
▁baseball	-2898
▁expected	-2899
▁hệ	-2900
iced	-2901
▁ris	-2902
▁trừ	-2903
▁tận	-2904
ility	-2905
▁bath	-2906
▁sell	-2907
▁showed	-2908
▁thuyền	-2909
▁bão	-2910
▁lie	-2911
▁sim	-2912
▁prep	-2913
▁rece	-2914
▁blame	-2915
▁eaten	-2916
▁borrow	-2917
▁appreci	-2918
▁decision	-2919
band	-2920
▁tám	-2921
▁tạp	-2922
▁cưới	-2923
▁offer	-2924
road	-2925
▁hạn	-2926
▁đạt	-2927
▁tiến	-2928
▁changed	-2929
▁strange	-2930
ặn	-2931
aka	-2932
▁gen	-2933
▁vac	-2934
▁đắt	-2935
▁opin	-2936
▁past	-2937
▁doubt	-2938
▁kỹ	-2939
▁ấm	-2940
▁bãi	-2941
itten	-2942
▁hang	-2943
▁nghèo	-2944
▁Ken	-2945
▁tây	-2946
▁đột	-2947
▁gard	-2948
▁khẩu	-2949
▁Chúng	-2950
▁everybody	-2951
▁lệ	-2952
▁bri	-2953
▁shot	-2954
▁given	-2955
▁liked	-2956
▁arrive	-2957
▁necess	-2958
▁consider	-2959
atur	-2960
▁cake	-2961
▁khoa	-2962
▁slow	-2963
usband	-2964
▁America	-2965
▁flowers	-2966
▁Everybody	-2967
ead	-2968
▁vẽ	-2969
wich	-2970
▁Jack	-2971
▁crow	-2972
▁appro	-2973
▁hurry	-2974
▁garden	-2975
▁concert	-2976
▁sandwich	-2977
▁completely	-2978
▁del	-2979
▁lừa	-2980
▁side	-2981
▁plans	-2982
▁trans	-2983
▁uncle	-2984
▁months	-2985
iv	-2986
so	-2987
ọt	-2988
▁esc	-2989
▁libr	-2990
ressed	-2991
▁hưởng	-2992
▁truyền	-2993
▁Gi	-2994
▁hét	-2995
▁Even	-2996
▁husband	-2997
ẩy	-2998
arm	-2999
▁Lu	-3000
▁ví	-3001
reed	-3002
▁chữa	-3003
▁post	-3004
▁happens	-3005
▁medicine	-3006
ẫu	-3007
▁Ho	-3008
▁def	-3009
▁lợi	-3010
▁hiếm	-3011
▁After	-3012
▁trứng	-3013
ket	-3014
ude	-3015
▁lỗ	-3016
▁hop	-3017
▁send	-3018
▁2:30.	-3019
▁drunk	-3020
ination	-3021
lfriend	-3022
▁honest	-3023
▁promise	-3024
▁visited	-3025
▁planning	-3026
▁6	-3027
ute	-3028
▁kẹ	-3029
▁case	-3030
▁mừng	-3031
▁hardly	-3032
▁forward	-3033
▁library	-3034
oint	-3035
▁mad	-3036
▁boss	-3037
▁chair	-3038
▁words	-3039
▁staying	-3040
pl	-3041
▁card	-3042
▁prot	-3043
▁trộm	-3044
▁exper	-3045
▁played	-3046
iệng	-3047
▁sâu	-3048
▁anim	-3049
▁grad	-3050
▁tinh	-3051
▁miệng	-3052
▁spoke	-3053
▁People	-3054
▁missed	-3055
▁mistakes	-3056
▁cập	-3057
▁ind	-3058
▁tải	-3059
▁yếu	-3060
▁Jane	-3061
▁dùng	-3062
▁tặng	-3063
▁shirt	-3064
▁figure	-3065
▁diction	-3066
▁traffic	-3067
edu	-3068
▁tủ	-3069
▁Put	-3070
▁dây	-3071
▁nhẹ	-3072
▁earth	-3073
▁sever	-3074
▁telephone	-3075
lves	-3076
▁opp	-3077
▁York	-3078
▁escap	-3079
▁giọng	-3080
▁Monday	-3081
▁travel	-3082
ored	-3083
ower	-3084
▁sắc	-3085
▁tôn	-3086
▁ball	-3087
▁seeing	-3088
▁vacation	-3089
▁girlfriend	-3090
ji	-3091
▁mắc	-3092
▁sắm	-3093
▁uni	-3094
vious	-3095
▁khuy	-3096
▁ngọn	-3097
▁solve	-3098
▁several	-3099
▁sometimes	-3100
eren	-3101
▁Keep	-3102
▁suốt	-3103
▁asking	-3104
▁drinking	-3105
con	-3106
orts	-3107
rell	-3108
▁egg	-3109
▁sil	-3110
ained	-3111
ndred	-3112
▁held	-3113
▁Someone	-3114
▁somewhere	-3115
▁ấn	-3116
ustr	-3117
▁Chr	-3118
▁eff	-3119
▁fau	-3120
▁mag	-3121
▁ngã	-3122
▁sal	-3123
mbrell	-3124
▁driving	-3125
ope	-3126
▁pub	-3127
▁kiện	-3128
▁nhầm	-3129
▁thỏa	-3130
▁Canada	-3131
▁umbrell	-3132
▁4	-3133
iển	-3134
rit	-3135
▁Họ	-3136
ding	-3137
▁ken	-3138
▁pur	-3139
▁bông	-3140
▁crazy	-3141
▁eight	-3142
▁phương	-3143
▁kỷ	-3144
head	-3145
▁chế	-3146
▁tha	-3147
▁also	-3148
▁blue	-3149
▁char	-3150
▁lawy	-3151
▁lưng	-3152
▁lying	-3153
▁sight	-3154
▁accept	-3155
▁weight	-3156
▁information	-3157
▁lai	-3158
▁top	-3159
ments	-3160
▁chụp	-3161
▁deep	-3162
▁nhắn	-3163
selves	-3164
▁United	-3165
▁broken	-3166
▁chuyên	-3167
eas	-3168
ird	-3169
▁20	-3170
▁Stop	-3171
▁chất	-3172
▁nhóm	-3173
▁perm	-3174
▁quân	-3175
▁trại	-3176
▁means	-3177
▁nhiệt	-3178
▁stood	-3179
▁pictures	-3180
▁dictionary	-3181
▁Bây	-3182
▁cur	-3183
▁mãi	-3184
▁spo	-3185
▁fool	-3186
▁quán	-3187
▁beach	-3188
▁noise	-3189
▁scared	-3190
▁carefully	-3191
ín	-3192
res	-3193
▁Sau	-3194
▁ánh	-3195
▁bird	-3196
▁novel	-3197
▁picked	-3198
▁opinion	-3199
▁umbrella	-3200
▁join	-3201
▁kids	-3202
▁crowd	-3203
▁heavy	-3204
▁phong	-3205
▁London	-3206
▁abroad	-3207
▁waited	-3208
▁necessary	-3209
:00	-3210
▁Has	-3211
▁eye	-3212
▁ice	-3213
▁nắm	-3214
▁đậu	-3215
▁boys	-3216
▁meat	-3217
▁failed	-3218
▁hundred	-3219
ef	-3220
idge	-3221
▁dra	-3222
▁golf	-3223
itchen	-3224
▁standing	-3225
ony	-3226
▁ow	-3227
ants	-3228
▁fut	-3229
▁bụng	-3230
▁dòng	-3231
▁kiên	-3232
▁requ	-3233
▁giành	-3234
▁waste	-3235
▁result	-3236
▁kitchen	-3237
▁walking	-3238
ầng	-3239
ựng	-3240
sted	-3241
▁Was	-3242
▁cau	-3243
▁dấu	-3244
▁hãi	-3245
▁ngư	-3246
▁weren	-3247
▁sleeping	-3248
▁Everything	-3249
isf	-3250
oun	-3251
ple	-3252
▁Al	-3253
▁dao	-3254
▁leo	-3255
itted	-3256
▁chạm	-3257
▁tivi	-3258
▁women	-3259
▁glasses	-3260
▁respons	-3261
▁hỗ	-3262
iday	-3263
▁Par	-3264
▁cãi	-3265
▁tầng	-3266
▁funny	-3267
▁thank	-3268
▁contin	-3269
▁nguyên	-3270
▁7	-3271
ric	-3272
▁da	-3273
dden	-3274
▁col	-3275
▁cặp	-3276
▁hảo	-3277
▁shop	-3278
▁newsp	-3279
▁seven	-3280
▁Thanks	-3281
▁future	-3282
▁pulled	-3283
ator	-3284
▁hối	-3285
▁môn	-3286
▁rid	-3287
▁rút	-3288
▁prof	-3289
▁fault	-3290
▁trạng	-3291
▁States	-3292
▁sudden	-3293
▁Something	-3294
âng	-3295
▁ir	-3296
vern	-3297
▁Cậu	-3298
▁emb	-3299
▁kiệm	-3300
▁sạch	-3301
▁though	-3302
▁address	-3303
▁invited	-3304
▁special	-3305
ug	-3306
anc	-3307
▁cử	-3308
ings	-3309
▁cực	-3310
▁mid	-3311
▁chai	-3312
▁date	-3313
▁imag	-3314
▁mach	-3315
▁thao	-3316
▁girls	-3317
▁weeks	-3318
▁bother	-3319
▁seemed	-3320
▁appreciate	-3321
ior	-3322
iled	-3323
▁bối	-3324
▁cải	-3325
▁sàn	-3326
▁impo	-3327
▁răng	-3328
▁đựng	-3329
▁loved	-3330
▁reached	-3331
õi	-3332
oid	-3333
▁sad	-3334
▁ngón	-3335
▁nuôi	-3336
▁tích	-3337
ointed	-3338
▁smell	-3339
▁either	-3340
▁lawyer	-3341
▁noticed	-3342
▁shopping	-3343
ames	-3344
▁Các	-3345
▁thờ	-3346
▁chín	-3347
▁fill	-3348
▁prop	-3349
▁trải	-3350
▁viol	-3351
▁phiếu	-3352
▁worse	-3353
▁yours	-3354
▁passed	-3355
▁writing	-3356
▁American	-3357
▁hò	-3358
▁sy	-3359
▁vờ	-3360
ists	-3361
▁thấp	-3362
▁cross	-3363
▁nướng	-3364
▁treat	-3365
▁chương	-3366
▁thoảng	-3367
▁winter	-3368
▁fishing	-3369
▁impossible	-3370
bb	-3371
ze	-3372
izz	-3373
ities	-3374
▁gift	-3375
▁vắng	-3376
▁Paris	-3377
▁khiếp	-3378
▁recogn	-3379
ex	-3380
case	-3381
medi	-3382
ature	-3383
▁lead	-3384
▁attend	-3385
▁contro	-3386
▁transl	-3387
▁airport	-3388
▁herself	-3389
▁learned	-3390
ps	-3391
▁So	-3392
ived	-3393
▁chữ	-3394
▁fre	-3395
▁gấp	-3396
▁vực	-3397
iling	-3398
▁Here	-3399
▁shut	-3400
▁tỉnh	-3401
▁afford	-3402
▁immedi	-3403
▁regret	-3404
▁entered	-3405
▁written	-3406
dle	-3407
ins	-3408
ired	-3409
▁dõi	-3410
▁đằng	-3411
▁easily	-3412
▁govern	-3413
▁prefer	-3414
iew	-3415
its	-3416
cent	-3417
▁web	-3418
▁nerv	-3419
▁proud	-3420
▁pocket	-3421
▁advised	-3422
▁foreign	-3423
▁nervous	-3424
▁terrible	-3425
saka	-3426
▁occ	-3427
▁jump	-3428
▁thiệu	-3429
▁Ex	-3430
▁gió	-3431
▁lad	-3432
▁nhu	-3433
▁chảy	-3434
▁dish	-3435
▁thần	-3436
▁satisf	-3437
▁somebody	-3438
ĩa	-3439
ened	-3440
▁rul	-3441
▁đạo	-3442
▁giản	-3443
▁tast	-3444
▁horse	-3445
▁lucky	-3446
▁moved	-3447
▁giving	-3448
▁Nothing	-3449
▁listening	-3450
▁8	-3451
▁ghé	-3452
▁mis	-3453
▁đẩy	-3454
▁chặt	-3455
▁khích	-3456
▁twice	-3457
▁patient	-3458
▁difference	-3459
cri	-3460
rely	-3461
tain	-3462
▁thù	-3463
▁thở	-3464
▁tie	-3465
ction	-3466
▁châu	-3467
▁alive	-3468
▁upset	-3469
▁driver	-3470
▁apartment	-3471
une	-3472
book	-3473
▁dem	-3474
▁fly	-3475
▁thô	-3476
▁hadn	-3477
▁khắc	-3478
▁line	-3479
▁save	-3480
▁knife	-3481
▁thiên	-3482
▁ign	-3483
▁earl	-3484
▁paris	-3485
▁pract	-3486
▁produ	-3487
▁Christ	-3488
▁belong	-3489
▁crying	-3490
▁movies	-3491
▁popular	-3492
▁protect	-3493
▁promised	-3494
▁dã	-3495
▁ev	-3496
▁mẽ	-3497
▁mur	-3498
▁tấn	-3499
▁club	-3500
▁star	-3501
father	-3502
ustral	-3503
▁press	-3504
▁triển	-3505
▁triệu	-3506
ove	-3507
hood	-3508
▁Jim	-3509
▁jim	-3510
▁phổ	-3511
▁sơn	-3512
▁rent	-3513
▁warm	-3514
ousand	-3515
▁apple	-3516
ax	-3517
ato	-3518
amed	-3519
ones	-3520
▁Lần	-3521
▁fat	-3522
▁gói	-3523
▁tầm	-3524
▁rừng	-3525
▁smoke	-3526
▁handle	-3527
▁allowed	-3528
▁machine	-3529
▁watched	-3530
▁willing	-3531
uro	-3532
▁Cu	-3533
▁nổ	-3534
▁Isn	-3535
▁pizz	-3536
▁soát	-3537
▁Austral	-3538
▁message	-3539
▁studied	-3540
omp	-3541
▁30	-3542
▁sơ	-3543
rown	-3544
▁mùi	-3545
▁túc	-3546
▁yen	-3547
▁đảo	-3548
▁chúc	-3549
▁lend	-3550
▁nhắc	-3551
▁till	-3552
▁piece	-3553
▁sounds	-3554
▁Chinese	-3555
▁immediately	-3556
ume	-3557
▁ce	-3558
ager	-3559
cuse	-3560
reen	-3561
▁pea	-3562
▁đài	-3563
▁grew	-3564
▁keys	-3565
▁wood	-3566
▁dị	-3567
▁mối	-3568
▁nội	-3569
ushed	-3570
▁eats	-3571
▁fing	-3572
▁ride	-3573
▁vali	-3574
friend	-3575
▁dance	-3576
▁khuôn	-3577
▁meant	-3578
▁concer	-3579
▁nguyện	-3580
▁anywhere	-3581
▁trôi	-3582
▁thoải	-3583
▁notice	-3584
▁correct	-3585
▁respect	-3586
ỡi	-3587
ilt	-3588
omm	-3589
oof	-3590
▁cụ	-3591
▁mộ	-3592
▁Ban	-3593
▁Nha	-3594
▁cởi	-3595
▁enem	-3596
▁pack	-3597
▁thải	-3598
▁vill	-3599
▁Today	-3600
▁hoàng	-3601
▁stuff	-3602
▁tuyên	-3603
▁charge	-3604
▁likely	-3605
▁murder	-3606
▁nghiên	-3607
▁raining	-3608
▁whatever	-3609
▁18	-3610
▁100	-3611
▁xóm	-3612
▁xếp	-3613
▁boat	-3614
▁khắp	-3615
▁lake	-3616
▁bread	-3617
▁chiếu	-3618
▁marry	-3619
▁mouth	-3620
versity	-3621
▁earlier	-3622
▁gar	-3623
▁pot	-3624
▁vết	-3625
▁đào	-3626
▁cent	-3627
▁lính	-3628
▁phân	-3629
▁tiện	-3630
vision	-3631
▁photo	-3632
▁pizza	-3633
▁depend	-3634
▁account	-3635
▁newspaper	-3636
▁z	-3637
▁Bố	-3638
▁Sm	-3639
ancy	-3640
oned	-3641
▁Tây	-3642
▁sle	-3643
▁risk	-3644
▁gener	-3645
▁control	-3646
▁younger	-3647
mas	-3648
urch	-3649
▁bạc	-3650
▁dựa	-3651
▁inj	-3652
ished	-3653
▁argu	-3654
▁joke	-3655
▁phán	-3656
▁ahead	-3657
▁khoai	-3658
▁Germany	-3659
▁obvious	-3660
▁support	-3661
▁neighbor	-3662
▁nỗ	-3663
,000	-3664
.000	-3665
orge	-3666
▁los	-3667
▁tốc	-3668
▁hoãn	-3669
▁làng	-3670
▁poss	-3671
▁treo	-3672
▁rules	-3673
▁thỉnh	-3674
▁trống	-3675
▁enjoyed	-3676
▁painting	-3677
▁surprise	-3678
▁Christmas	-3679
▁wonderful	-3680
▁grandfather	-3681
ief	-3682
ổng	-3683
ched	-3684
▁cop	-3685
▁sus	-3686
▁vai	-3687
▁cool	-3688
▁mill	-3689
idence	-3690
▁laughed	-3691
▁mô	-3692
▁Try	-3693
▁mot	-3694
▁thà	-3695
ances	-3696
▁cust	-3697
▁rộng	-3698
▁khăng	-3699
▁bottle	-3700
▁drinks	-3701
▁partic	-3702
▁subject	-3703
▁government	-3704
ướt	-3705
▁gà	-3706
erve	-3707
▁bat	-3708
▁thẻ	-3709
▁cond	-3710
▁loud	-3711
▁Those	-3712
▁named	-3713
▁storm	-3714
▁attack	-3715
▁common	-3716
▁harder	-3717
▁bas	-3718
▁gas	-3719
eared	-3720
▁arre	-3721
▁jane	-3722
▁mail	-3723
▁ring	-3724
▁đích	-3725
▁peace	-3726
▁polit	-3727
▁singing	-3728
▁Australia	-3729
▁president	-3730
▁disappointed	-3731
òi	-3732
▁lễ	-3733
gged	-3734
▁béo	-3735
▁cầm	-3736
ering	-3737
ution	-3738
▁fair	-3739
▁avoid	-3740
▁miếng	-3741
▁ought	-3742
▁trăng	-3743
▁buying	-3744
▁church	-3745
▁public	-3746
▁television	-3747
arr	-3748
ged	-3749
▁Bo	-3750
▁dữ	-3751
omed	-3752
▁ski	-3753
▁vạt	-3754
▁Bill	-3755
▁dogs	-3756
▁agreed	-3757
ili	-3758
olen	-3759
▁ang	-3760
▁hol	-3761
▁sky	-3762
▁veg	-3763
▁eggs	-3764
▁fift	-3765
▁Chiếc	-3766
ational	-3767
ibility	-3768
▁suppose	-3769
▁recently	-3770
gar	-3771
▁Mẹ	-3772
▁dẹp	-3773
▁cộng	-3774
▁gradu	-3775
▁voice	-3776
▁bridge	-3777
▁mention	-3778
▁beginning	-3779
▁boyfriend	-3780
▁máu	-3781
▁pos	-3782
▁quý	-3783
▁rau	-3784
▁tot	-3785
▁hist	-3786
▁khởi	-3787
▁land	-3788
ission	-3789
▁Since	-3790
▁group	-3791
▁veget	-3792
▁detail	-3793
▁kissed	-3794
▁stolen	-3795
▁animals	-3796
▁suggested	-3797
up	-3798
ủi	-3799
ale	-3800
erc	-3801
▁Not	-3802
▁cốc	-3803
▁gra	-3804
▁điệ	-3805
▁feet	-3806
▁native	-3807
▁missing	-3808
Wh	-3809
ứt	-3810
ying	-3811
▁hỏa	-3812
oring	-3813
▁hung	-3814
▁nhặt	-3815
▁tổng	-3816
▁york	-3817
▁intro	-3818
▁assist	-3819
▁leaves	-3820
▁record	-3821
▁laughing	-3822
▁received	-3823
▁returned	-3824
cer	-3825
ror	-3826
▁mỉ	-3827
▁rẻ	-3828
like	-3829
time	-3830
▁hồi	-3831
▁kẹt	-3832
▁pun	-3833
itely	-3834
olved	-3835
▁kích	-3836
▁lệnh	-3837
▁xứng	-3838
▁ideas	-3839
▁persu	-3840
▁smart	-3841
▁decide	-3842
ointment	-3843
▁helping	-3844
▁apologize	-3845
Úc	-3846
bạn	-3847
▁Úc	-3848
▁bẩn	-3849
▁kim	-3850
▁truck	-3851
▁direct	-3852
▁realize	-3853
▁refused	-3854
od	-3855
▁$	-3856
ama	-3857
uit	-3858
▁bò	-3859
▁gỗ	-3860
reme	-3861
uyện	-3862
▁Mar	-3863
▁kem	-3864
▁đua	-3865
▁đĩa	-3866
olute	-3867
▁Most	-3868
▁beat	-3869
▁ngàn	-3870
▁nhấn	-3871
▁nông	-3872
▁priv	-3873
▁keeps	-3874
▁breath	-3875
▁chuông	-3876
▁contact	-3877
▁dropped	-3878
▁thousand	-3879
▁X	-3880
cil	-3881
old	-3882
ache	-3883
▁nút	-3884
▁tan	-3885
▁tồn	-3886
▁Luân	-3887
▁giây	-3888
▁vang	-3889
▁đuổi	-3890
▁built	-3891
▁wallet	-3892
ber	-3893
▁lát	-3894
▁mem	-3895
▁Đôn	-3896
conom	-3897
▁Stay	-3898
▁cars	-3899
▁rảnh	-3900
▁suff	-3901
▁thảm	-3902
▁tàng	-3903
▁email	-3904
▁ngoan	-3905
▁plays	-3906
▁relax	-3907
▁flight	-3908
▁propos	-3909
▁absolute	-3910
▁sẻ	-3911
ayed	-3912
ines	-3913
seum	-3914
▁jud	-3915
▁thợ	-3916
▁unc	-3917
▁tour	-3918
▁9	-3919
▁nụ	-3920
▁ur	-3921
pted	-3922
istic	-3923
▁camp	-3924
▁expl	-3925
▁form	-3926
▁phạt	-3927
▁term	-3928
▁impro	-3929
▁trees	-3930
▁econom	-3931
▁hiding	-3932
▁realized	-3933
▁Tw	-3934
▁ẩn	-3935
vest	-3936
▁bưu	-3937
▁dam	-3938
▁hậu	-3939
▁low	-3940
aight	-3941
edding	-3942
stairs	-3943
▁temper	-3944
▁introdu	-3945
▁village	-3946
na	-3947
ồm	-3948
loy	-3949
uck	-3950
▁cú	-3951
iter	-3952
▁For	-3953
▁ben	-3954
▁den	-3955
▁flu	-3956
▁nền	-3957
▁owe	-3958
▁vợt	-3959
ented	-3960
icked	-3961
▁ngại	-3962
▁thua	-3963
▁vide	-3964
▁defin	-3965
▁exerc	-3966
▁slept	-3967
▁talks	-3968
▁France	-3969
▁cooking	-3970
▁extreme	-3971
▁history	-3972
▁learning	-3973
▁suddenly	-3974
▁examination	-3975
ency	-3976
▁khôn	-3977
▁huống	-3978
▁match	-3979
▁except	-3980
▁museum	-3981
▁player	-3982
▁slowly	-3983
▁twenty	-3984
fortable	-3985
▁straight	-3986
▁satisfied	-3987
ety	-3988
oon	-3989
▁cỏ	-3990
▁ki	-3991
▁hấp	-3992
▁lẫn	-3993
▁mẫu	-3994
▁vol	-3995
▁đập	-3996
▁đồn	-3997
eorge	-3998
▁Both	-3999
▁drop	-4000
▁tokyo	-4001
▁custom	-4002
▁handed	-4003
▁spoken	-4004
▁ordered	-4005
▁prevent	-4006
▁profess	-4007
▁experience	-4008
ots	-4009
aded	-4010
▁cắn	-4011
▁dầu	-4012
▁len	-4013
▁loc	-4014
▁maj	-4015
▁phó	-4016
igned	-4017
▁Euro	-4018
▁hứng	-4019
▁China	-4020
▁Kyoto	-4021
▁cause	-4022
▁kyoto	-4023
▁project	-4024
▁wedding	-4025
▁condition	-4026
ụi	-4027
cks	-4028
unt	-4029
▁bê	-4030
▁je	-4031
▁pu	-4032
▁thả	-4033
▁chea	-4034
▁diện	-4035
▁giãn	-4036
▁lành	-4037
▁trực	-4038
▁yell	-4039
▁magaz	-4040
▁ground	-4041
gan	-4042
tôi	-4043
▁Vì	-4044
ises	-4045
oose	-4046
▁dut	-4047
▁lưu	-4048
▁pin	-4049
▁tạm	-4050
aking	-4051
ctory	-4052
mbers	-4053
▁body	-4054
▁calm	-4055
▁cứng	-4056
▁inno	-4057
▁thiếp	-4058
▁toward	-4059
▁million	-4060
ặm	-4061
ets	-4062
▁Hai	-4063
▁bom	-4064
▁fit	-4065
▁hum	-4066
▁opt	-4067
▁tấm	-4068
▁vay	-4069
asure	-4070
▁ngọt	-4071
▁rule	-4072
▁thổi	-4073
▁Satur	-4074
▁throw	-4075
▁Europe	-4076
▁speaker	-4077
▁feelings	-4078
fa	-4079
Âu	-4080
ats	-4081
▁tô	-4082
▁dặm	-4083
▁Were	-4084
▁fort	-4085
▁ghen	-4086
▁step	-4087
▁thuế	-4088
▁enemy	-4089
▁video	-4090
▁injured	-4091
▁convince	-4092
▁suitcase	-4093
▁wondered	-4094
iko	-4095
use	-4096
▁gõ	-4097
▁ok	-4098
▁Âu	-4099
bbed	-4100
▁Any	-4101
▁Bob	-4102
▁cắm	-4103
▁hạt	-4104
▁vận	-4105
ables	-4106
▁empty	-4107
▁fired	-4108
▁nguồn	-4109
▁stick	-4110
▁threw	-4111
▁German	-4112
▁Should	-4113
▁singer	-4114
▁sooner	-4115
▁painted	-4116
▁pleased	-4117
▁absolutely	-4118
lew	-4119
▁Cha	-4120
▁dày	-4121
▁lay	-4122
▁ướt	-4123
▁amaz	-4124
▁feed	-4125
▁khẩn	-4126
arrass	-4127
▁Giáng	-4128
▁climb	-4129
▁event	-4130
▁phóng	-4131
▁calling	-4132
▁arrested	-4133
▁involved	-4134
▁embarrass	-4135
aps	-4136
nic	-4137
ses	-4138
▁bờ	-4139
▁tả	-4140
aido	-4141
oted	-4142
ught	-4143
▁ash	-4144
▁exh	-4145
▁sea	-4146
▁sót	-4147
▁vua	-4148
anced	-4149
apers	-4150
ising	-4151
ories	-4152
▁danc	-4153
▁dest	-4154
▁hide	-4155
▁moon	-4156
▁note	-4157
▁tịch	-4158
▁barely	-4159
▁dishes	-4160
▁gotten	-4161
▁object	-4162
▁pencil	-4163
▁covered	-4164
▁followed	-4165
▁proposal	-4166
ếm	-4167
ọa	-4168
aii	-4169
ara	-4170
ued	-4171
▁mê	-4172
ilty	-4173
▁ống	-4174
edule	-4175
▁acce	-4176
▁disc	-4177
▁sofa	-4178
▁aware	-4179
▁delic	-4180
▁apples	-4181
▁engine	-4182
▁guilty	-4183
▁plenty	-4184
▁taught	-4185
▁thưởng	-4186
▁dressed	-4187
▁definitely	-4188
▁university	-4189
▁tá	-4190
▁ác	-4191
▁ôm	-4192
▁mỉm	-4193
▁tín	-4194
astic	-4195
rious	-4196
▁With	-4197
▁mạng	-4198
▁divor	-4199
▁green	-4200
▁power	-4201
▁demand	-4202
▁moving	-4203
▁recomm	-4204
▁washing	-4205
▁personal	-4206
▁particular	-4207
aph	-4208
iro	-4209
▁tị	-4210
come	-4211
eter	-4212
gram	-4213
▁aud	-4214
▁cản	-4215
▁hưu	-4216
▁lối	-4217
▁sốt	-4218
▁trì	-4219
ashed	-4220
ipped	-4221
▁prov	-4222
▁siêu	-4223
▁view	-4224
▁cream	-4225
▁drank	-4226
▁tears	-4227
▁market	-4228
▁remind	-4229
▁collect	-4230
▁concerned	-4231
▁countries	-4232
▁extremely	-4233
▁languages	-4234
▁responsible	-4235
▁bob	-4236
▁equ	-4237
▁mát	-4238
▁reo	-4239
kaido	-4240
▁chặn	-4241
▁hồng	-4242
▁lied	-4243
▁purp	-4244
▁xuân	-4245
▁Trong	-4246
▁among	-4247
▁blood	-4248
▁saved	-4249
▁trồng	-4250
▁intend	-4251
▁sports	-4252
▁answered	-4253
▁explained	-4254
▁considered	-4255
▁dọa	-4256
▁kém	-4257
▁ste	-4258
▁đồi	-4259
inced	-4260
ortun	-4261
xious	-4262
▁giặt	-4263
▁legs	-4264
▁nắng	-4265
▁thẩm	-4266
▁weak	-4267
mother	-4268
▁clock	-4269
▁dirty	-4270
▁guest	-4271
▁smile	-4272
▁assume	-4273
▁escape	-4274
▁island	-4275
▁ngưỡng	-4276
▁nobody	-4277
▁remain	-4278
▁scream	-4279
▁shower	-4280
▁accused	-4281
▁schedule	-4282
arp	-4283
den	-4284
ũng	-4285
aces	-4286
cell	-4287
iers	-4288
▁200	-4289
▁Câu	-4290
▁gồm	-4291
▁kno	-4292
▁nor	-4293
ggage	-4294
▁area	-4295
▁harm	-4296
▁lock	-4297
▁pool	-4298
▁sear	-4299
▁absent	-4300
▁locked	-4301
▁middle	-4302
▁tickets	-4303
▁expecting	-4304
▁policeman	-4305
ts	-4306
èm	-4307
▁Ý	-4308
ago	-4309
raz	-4310
▁Am	-4311
▁Sẽ	-4312
▁hạ	-4313
gest	-4314
ield	-4315
▁cab	-4316
▁neg	-4317
▁ủng	-4318
▁bear	-4319
▁farm	-4320
▁khám	-4321
▁muối	-4322
▁neck	-4323
▁wake	-4324
ildren	-4325
▁behav	-4326
▁feels	-4327
▁khuya	-4328
▁sugar	-4329
▁purpose	-4330
▁suspect	-4331
▁convinced	-4332
▁understood	-4333
óp	-4334
úa	-4335
els	-4336
ney	-4337
oln	-4338
ỗng	-4339
eeth	-4340
▁Lea	-4341
▁squ	-4342
▁đốt	-4343
razil	-4344
▁Didn	-4345
▁Mike	-4346
▁cổng	-4347
▁gold	-4348
▁hall	-4349
▁lady	-4350
▁trao	-4351
▁đoàn	-4352
incoln	-4353
kkaido	-4354
▁Chính	-4355
▁drove	-4356
▁fruit	-4357
▁offic	-4358
▁appointment	-4359
ec	-4360
ker	-4361
ccer	-4362
▁Two	-4363
▁cất	-4364
▁mũi	-4365
itive	-4366
▁duty	-4367
▁pair	-4368
▁rang	-4369
▁serv	-4370
▁đỉnh	-4371
▁chuột	-4372
▁const	-4373
▁incre	-4374
▁names	-4375
▁stuck	-4376
▁accomp	-4377
▁choose	-4378
▁healthy	-4379
▁request	-4380
▁behavior	-4381
kh	-4382
key	-4383
▁Sw	-4384
▁bơ	-4385
tern	-4386
▁bội	-4387
▁fil	-4388
▁môi	-4389
▁tốn	-4390
icago	-4391
▁main	-4392
▁nhắm	-4393
▁rock	-4394
▁type	-4395
▁luyện	-4396
▁share	-4397
▁filled	-4398
▁invest	-4399
▁simple	-4400
▁single	-4401
▁spring	-4402
▁carried	-4403
▁Saturday	-4404
▁brothers	-4405
▁listened	-4406
▁permission	-4407
ico	-4408
tom	-4409
ướp	-4410
right	-4411
▁bảng	-4412
▁nine	-4413
▁niên	-4414
▁steal	-4415
▁basket	-4416
▁explan	-4417
▁picnic	-4418
▁courage	-4419
▁managed	-4420
▁careless	-4421
▁position	-4422
▁prepared	-4423
uk	-4424
▁er	-4425
▁hòn	-4426
▁lar	-4427
cious	-4428
entle	-4429
▁Brit	-4430
▁acqu	-4431
▁cướp	-4432
▁meal	-4433
▁reti	-4434
▁soup	-4435
▁color	-4436
▁fresh	-4437
▁hoang	-4438
▁stamp	-4439
▁wears	-4440
▁amount	-4441
▁caused	-4442
▁excited	-4443
▁accepted	-4444
▁sentence	-4445
▁themselves	-4446
▁explanation	-4447
Tôi	-4448
▁Vợ	-4449
▁xã	-4450
ians	-4451
▁bồn	-4452
▁cir	-4453
▁góc	-4454
▁lim	-4455
▁rum	-4456
▁súp	-4457
▁wel	-4458
▁nhiễ	-4459
▁quar	-4460
▁thói	-4461
ounded	-4462
▁cards	-4463
▁teeth	-4464
▁Friday	-4465
▁employ	-4466
▁unlike	-4467
▁anxious	-4468
▁forgive	-4469
▁Somebody	-4470
▁believed	-4471
aly	-4472
rat	-4473
tic	-4474
▁50	-4475
▁au	-4476
▁tỷ	-4477
▁Máy	-4478
▁bọn	-4479
▁gốc	-4480
▁hầm	-4481
▁khô	-4482
▁lăm	-4483
▁lục	-4484
▁map	-4485
▁mạo	-4486
▁đâm	-4487
gress	-4488
▁cute	-4489
▁kiệt	-4490
▁kịch	-4491
▁Leave	-4492
▁ngành	-4493
▁stole	-4494
▁tight	-4495
ulation	-4496
▁butter	-4497
▁finger	-4498
▁slight	-4499
▁stared	-4500
▁figured	-4501
▁imagine	-4502
▁letters	-4503
▁seriously	-4504
bby	-4505
bit	-4506
irm	-4507
uts	-4508
▁pe	-4509
▁nâu	-4510
▁Ngôi	-4511
▁cell	-4512
▁căng	-4513
▁heat	-4514
▁roof	-4515
▁sort	-4516
▁admit	-4517
▁awake	-4518
▁hates	-4519
▁Father	-4520
▁button	-4521
▁hoping	-4522
▁jacket	-4523
▁lights	-4524
▁distance	-4525
▁exercise	-4526
▁fighting	-4527
▁starting	-4528
ury	-4529
▁bù	-4530
▁mò	-4531
inal	-4532
▁Ind	-4533
▁săn	-4534
▁tem	-4535
anish	-4536
graph	-4537
isted	-4538
▁Make	-4539
▁lots	-4540
▁lãnh	-4541
▁race	-4542
▁tend	-4543
atural	-4544
▁judge	-4545
▁sweet	-4546
▁usual	-4547
▁appear	-4548
▁soccer	-4549
▁violin	-4550
▁checked	-4551
▁offered	-4552
▁theater	-4553
▁grandmother	-4554
ls	-4555
▁11	-4556
educ	-4557
ship	-4558
temp	-4559
▁due	-4560
▁gãy	-4561
▁mod	-4562
▁rác	-4563
light	-4564
▁furn	-4565
▁lift	-4566
▁loss	-4567
▁mảnh	-4568
▁rice	-4569
▁rude	-4570
▁salt	-4571
▁điệu	-4572
▁annoy	-4573
▁becom	-4574
▁board	-4575
▁cance	-4576
▁chick	-4577
▁organ	-4578
▁sharp	-4579
▁gentle	-4580
▁England	-4581
▁Jackson	-4582
▁Spanish	-4583
▁sweater	-4584
▁impressed	-4585
▁vegetables	-4586
ẫy	-4587
▁nộ	-4588
ilar	-4589
lies	-4590
▁See	-4591
▁cla	-4592
▁râu	-4593
▁sup	-4594
iliar	-4595
▁docu	-4596
▁mike	-4597
▁đăng	-4598
▁entire	-4599
▁excell	-4600
▁prices	-4601
▁failure	-4602
▁magazine	-4603
▁remained	-4604
▁soldiers	-4605
▁unlikely	-4606
▁classroom	-4607
▁delicious	-4608
▁pretended	-4609
▁suggestion	-4610
hip	-4611
▁ed	-4612
ngth	-4613
ster	-4614
▁Bác	-4615
▁aut	-4616
▁cậy	-4617
▁huy	-4618
▁lic	-4619
▁Ngay	-4620
▁auth	-4621
▁educ	-4622
▁hill	-4623
▁khán	-4624
▁thập	-4625
▁trạm	-4626
▁tuân	-4627
▁đuối	-4628
▁Mother	-4629
▁advant	-4630
▁paying	-4631
▁clearly	-4632
▁earthqu	-4633
▁Children	-4634
▁confused	-4635
▁opportun	-4636
oc	-4637
ler	-4638
pri	-4639
umi	-4640
▁tò	-4641
▁đa	-4642
appy	-4643
line	-4644
▁Nhà	-4645
▁bow	-4646
▁gợi	-4647
▁sắt	-4648
anted	-4649
ences	-4650
gging	-4651
ional	-4652
oured	-4653
▁bike	-4654
▁chứa	-4655
▁drug	-4656
▁khát	-4657
▁linh	-4658
▁poem	-4659
▁rese	-4660
▁đính	-4661
ording	-4662
▁disco	-4663
▁emerg	-4664
▁giảng	-4665
▁pound	-4666
▁thiệt	-4667
▁compet	-4668
▁flower	-4669
▁places	-4670
▁stairs	-4671
▁superm	-4672
▁taller	-4673
▁attract	-4674
▁product	-4675
▁innocent	-4676
col	-4677
rib	-4678
▁Ju	-4679
▁hư	-4680
▁sô	-4681
ters	-4682
▁dọc	-4683
▁rào	-4684
▁sốc	-4685
▁Đứa	-4686
arket	-4687
aving	-4688
▁Wait	-4689
▁mood	-4690
ealous	-4691
▁enter	-4692
▁paint	-4693
▁ashamed	-4694
▁express	-4695
▁jackson	-4696
▁results	-4697
▁excellent	-4698
▁forgotten	-4699
▁recognize	-4700
ớn	-4701
▁12	-4702
▁vã	-4703
ific	-4704
▁Bec	-4705
▁bụi	-4706
▁cig	-4707
▁cow	-4708
▁kêu	-4709
▁ord	-4710
▁unh	-4711
▁Tổng	-4712
▁aunt	-4713
▁earn	-4714
▁lười	-4715
▁runs	-4716
▁wise	-4717
▁cheap	-4718
▁energ	-4719
▁forced	-4720
▁lately	-4721
▁Because	-4722
▁impress	-4723
▁wondering	-4724
▁supermarket	-4725
én	-4726
▁dư	-4727
▁rẽ	-4728
▁tỏ	-4729
ldom	-4730
▁dev	-4731
▁inf	-4732
▁iss	-4733
▁mây	-4734
▁nha	-4735
ified	-4736
▁Tony	-4737
▁cats	-4738
▁clos	-4739
▁huge	-4740
▁scen	-4741
▁thủy	-4742
▁Their	-4743
▁calls	-4744
▁crime	-4745
▁extra	-4746
▁gives	-4747
▁major	-4748
▁Excuse	-4749
▁author	-4750
▁chocol	-4751
▁corner	-4752
▁faster	-4753
▁manage	-4754
▁seldom	-4755
▁continued	-4756
,"	-4757
zz	-4758
iff	-4759
ium	-4760
aken	-4761
▁Cái	-4762
▁Mex	-4763
▁bạo	-4764
▁enc	-4765
▁kil	-4766
▁Turn	-4767
▁army	-4768
▁band	-4769
▁exch	-4770
▁gate	-4771
▁hiệp	-4772
▁above	-4773
▁badly	-4774
▁blind	-4775
▁nhiễm	-4776
▁occur	-4777
▁raise	-4778
▁salad	-4779
▁shall	-4780
▁anyway	-4781
▁poured	-4782
▁silent	-4783
▁threat	-4784
▁useful	-4785
▁climbed	-4786
▁instead	-4787
▁jealous	-4788
▁bì	-4789
▁dì	-4790
ites	-4791
iver	-4792
▁alb	-4793
▁fur	-4794
▁glo	-4795
▁wet	-4796
không	-4797
night	-4798
▁arms	-4799
▁lack	-4800
▁norm	-4801
lished	-4802
▁Osaka	-4803
▁Smith	-4804
▁osaka	-4805
▁prize	-4806
▁rains	-4807
▁round	-4808
▁terms	-4809
▁smiled	-4810
▁capital	-4811
▁escaped	-4812
▁holiday	-4813
▁totally	-4814
▁carrying	-4815
▁recommend	-4816
ụt	-4817
gue	-4818
▁Pr	-4819
seng	-4820
▁amb	-4821
▁bát	-4822
ining	-4823
▁Kate	-4824
▁fear	-4825
▁oper	-4826
▁phấn	-4827
▁qual	-4828
▁trần	-4829
▁vùng	-4830
fortun	-4831
▁deser	-4832
▁ended	-4833
▁boring	-4834
▁commun	-4835
▁losing	-4836
▁truyện	-4837
▁cookies	-4838
▁factory	-4839
▁natural	-4840
▁private	-4841
▁friendly	-4842
▁passport	-4843
▁following	-4844
▁neighbors	-4845
▁bi	-4846
aret	-4847
ners	-4848
stem	-4849
unte	-4850
▁arr	-4851
▁ham	-4852
▁khứ	-4853
▁mir	-4854
▁ung	-4855
▁đáp	-4856
▁Call	-4857
▁appl	-4858
▁cast	-4859
▁khói	-4860
▁noon	-4861
▁phức	-4862
▁vote	-4863
▁điền	-4864
ective	-4865
▁fixed	-4866
▁hoảng	-4867
▁miles	-4868
▁tells	-4869
▁bigger	-4870
▁bright	-4871
▁descri	-4872
▁nearly	-4873
▁license	-4874
▁meaning	-4875
▁headache	-4876
▁chocolate	-4877
▁obviously	-4878
▁succeeded	-4879
ka	-4880
▁Mt	-4881
▁kệ	-4882
▁mt	-4883
ards	-4884
uted	-4885
▁Bet	-4886
▁blo	-4887
▁cúi	-4888
▁est	-4889
▁góp	-4890
▁màn	-4891
▁đớn	-4892
antly	-4893
▁cash	-4894
▁crit	-4895
▁hùng	-4896
▁kiểu	-4897
▁lone	-4898
▁sens	-4899
▁size	-4900
▁weap	-4901
▁brown	-4902
▁chiếm	-4903
▁space	-4904
▁trừng	-4905
▁fright	-4906
▁guests	-4907
▁jumped	-4908
▁appears	-4909
▁volunte	-4910
▁familiar	-4911
▁upstairs	-4912
▁advantage	-4913
▁earthquake	-4914
▁complaining	-4915
get	-4916
gent	-4917
ides	-4918
rupt	-4919
▁Ask	-4920
▁hôi	-4921
▁kẹo	-4922
▁mọc	-4923
▁pha	-4924
erson	-4925
ouses	-4926
▁Aren	-4927
▁bull	-4928
▁draw	-4929
▁xăng	-4930
▁album	-4931
▁blank	-4932
▁thăng	-4933
▁trùng	-4934
▁system	-4935
▁captain	-4936
▁treated	-4937
▁approach	-4938
▁audience	-4939
▁contract	-4940
▁Yesterday	-4941
▁intention	-4942
▁comfortable	-4943
ks	-4944
to	-4945
par	-4946
▁15	-4947
▁lò	-4948
▁xo	-4949
▁họa	-4950
▁oil	-4951
▁spl	-4952
▁toy	-4953
▁tàn	-4954
igent	-4955
▁bell	-4956
▁circ	-4957
▁kate	-4958
▁susp	-4959
▁text	-4960
▁thái	-4961
▁Bring	-4962
▁Nancy	-4963
▁bench	-4964
▁claim	-4965
▁dying	-4966
▁habit	-4967
▁intell	-4968
▁lonely	-4969
▁potato	-4970
▁raised	-4971
▁chicken	-4972
▁manager	-4973
▁football	-4974
▁handsome	-4975
▁Americans	-4976
▁perfectly	-4977
▁neighborhood	-4978
▁Ấ	-4979
▁hi	-4980
erry	-4981
lebr	-4982
rite	-4983
▁búp	-4984
▁cấm	-4985
▁gối	-4986
▁lầu	-4987
▁unf	-4988
▁debt	-4989
▁diet	-4990
▁jail	-4991
▁rỗng	-4992
▁scar	-4993
▁wore	-4994
nderst	-4995
▁facts	-4996
▁jokes	-4997
▁shoot	-4998
▁celebr	-4999
▁course	-5000
▁energy	-5001
▁garage	-5002
▁gather	-5003
▁khuyến	-5004
▁salary	-5005
▁skiing	-5006
▁supper	-5007
▁cigaret	-5008
▁illness	-5009
▁pretend	-5010
▁program	-5011
sc	-5012
ớt	-5013
bye	-5014
mat	-5015
▁vĩ	-5016
▁Ấn	-5017
ents	-5018
haps	-5019
ibly	-5020
ires	-5021
▁nur	-5022
▁None	-5023
▁cous	-5024
▁cred	-5025
▁niệm	-5026
▁nose	-5027
▁sale	-5028
asseng	-5029
▁Sorry	-5030
▁birds	-5031
▁biếng	-5032
▁dancing	-5033
▁details	-5034
▁further	-5035
▁workers	-5036
▁admitted	-5037
▁Kỳ	-5038
▁ào	-5039
▁Chỉ	-5040
▁har	-5041
▁rắn	-5042
▁cand	-5043
▁math	-5044
▁whis	-5045
▁Never	-5046
▁artic	-5047
▁brief	-5048
▁chỉnh	-5049
▁cried	-5050
▁songs	-5051
▁taste	-5052
▁using	-5053
▁proper	-5054
▁season	-5055
▁convers	-5056
▁believes	-5057
▁electric	-5058
▁practice	-5059
▁teaching	-5060
▁childhood	-5061
▁emergency	-5062
▁graduated	-5063
▁population	-5064
▁recognized	-5065
▁opportunity	-5066
fic	-5067
ina	-5068
obe	-5069
rie	-5070
ues	-5071
▁lố	-5072
▁Độ	-5073
entr	-5074
▁500	-5075
▁Hey	-5076
▁bra	-5077
▁fed	-5078
▁hận	-5079
▁đếm	-5080
anged	-5081
iture	-5082
▁chua	-5083
▁lazy	-5084
▁pill	-5085
▁sung	-5086
▁wild	-5087
perate	-5088
▁bored	-5089
▁costs	-5090
▁couch	-5091
▁exhau	-5092
▁games	-5093
▁human	-5094
▁phiên	-5095
▁quảng	-5096
▁state	-5097
▁thước	-5098
▁Brazil	-5099
▁cancer	-5100
▁houses	-5101
▁similar	-5102
▁trusted	-5103
▁shoulder	-5104
▁whenever	-5105
▁mountains	-5106
▁prevented	-5107
▁successful	-5108
ne	-5109
shi	-5110
val	-5111
zen	-5112
▁Fu	-5113
▁lộ	-5114
lled	-5115
▁Tên	-5116
▁gật	-5117
▁lão	-5118
▁lội	-5119
▁nộp	-5120
▁tow	-5121
▁zoo	-5122
▁chúa	-5123
▁copy	-5124
▁khai	-5125
▁mắng	-5126
▁nhát	-5127
▁push	-5128
▁repe	-5129
▁fence	-5130
▁field	-5131
▁speed	-5132
▁thief	-5133
▁third	-5134
▁washed	-5135
▁within	-5136
▁amazing	-5137
▁foolish	-5138
▁passeng	-5139
▁welcome	-5140
▁ourselves	-5141
▁translate	-5142
ah	-5143
og	-5144
▁ổ	-5145
iot	-5146
uko	-5147
▁mồ	-5148
▁rồ	-5149
ulty	-5150
▁199	-5151
▁God	-5152
▁coo	-5153
▁cro	-5154
▁fan	-5155
▁lộn	-5156
ledge	-5157
omach	-5158
▁Hold	-5159
▁blew	-5160
▁dung	-5161
▁dũng	-5162
▁lean	-5163
▁liar	-5164
▁phẫu	-5165
▁skin	-5166
▁soft	-5167
▁thắt	-5168
▁tươi	-5169
▁fifty	-5170
▁motor	-5171
▁ngược	-5172
▁skill	-5173
▁survi	-5174
▁thiệp	-5175
▁trích	-5176
▁affect	-5177
▁animal	-5178
▁classm	-5179
▁dating	-5180
▁easier	-5181
▁instru	-5182
▁memory	-5183
▁pushed	-5184
▁remark	-5185
▁unable	-5186
▁ability	-5187
▁goodbye	-5188
▁hearing	-5189
▁stomach	-5190
▁continue	-5191
▁furniture	-5192
▁difficulty	-5193
alk	-5194
azz	-5195
let	-5196
▁By	-5197
▁Ne	-5198
▁vở	-5199
▁xé	-5200
sion	-5201
▁Hoa	-5202
▁cạo	-5203
▁dần	-5204
▁mic	-5205
▁nối	-5206
▁đấy	-5207
aring	-5208
▁chìm	-5209
▁gián	-5210
▁misu	-5211
▁tony	-5212
▁aband	-5213
▁burst	-5214
▁moder	-5215
▁weird	-5216
itation	-5217
▁announ	-5218
▁cookie	-5219
▁distur	-5220
▁papers	-5221
▁acquain	-5222
▁belongs	-5223
▁elected	-5224
▁neither	-5225
▁studies	-5226
▁traveling	-5227
▁misunderst	-5228
aul	-5229
oko	-5230
▁ủy	-5231
rent	-5232
▁Acc	-5233
▁ach	-5234
▁bày	-5235
▁lao	-5236
▁rót	-5237
▁typ	-5238
board	-5239
▁Life	-5240
▁Show	-5241
▁Theo	-5242
▁hước	-5243
▁inch	-5244
▁king	-5245
▁obey	-5246
▁stri	-5247
▁sóng	-5248
▁tròn	-5249
▁woke	-5250
▁Whose	-5251
▁airpl	-5252
▁bound	-5253
▁diary	-5254
▁dương	-5255
▁explo	-5256
▁fever	-5257
▁shout	-5258
▁beauty	-5259
▁credit	-5260
▁flying	-5261
▁rained	-5262
▁scient	-5263
▁finding	-5264
▁fortune	-5265
▁unhappy	-5266
▁windows	-5267
▁attended	-5268
▁exciting	-5269
▁progress	-5270
▁discussed	-5271
▁conversation	-5272
awa	-5273
yed	-5274
▁16	-5275
▁bó	-5276
▁Tàu	-5277
▁Xin	-5278
▁env	-5279
▁gọn	-5280
▁rủi	-5281
▁saf	-5282
▁tán	-5283
▁đòi	-5284
▁đạn	-5285
icted	-5286
riage	-5287
▁rope	-5288
ically	-5289
▁brush	-5290
▁chess	-5291
▁rough	-5292
▁sương	-5293
▁Mexico	-5294
▁Things	-5295
▁attemp	-5296
▁encour	-5297
▁excuse	-5298
▁normal	-5299
▁saving	-5300
▁crossed	-5301
▁perform	-5302
▁staring	-5303
éo	-5304
ius	-5305
▁CD	-5306
▁Hy	-5307
ases	-5308
atch	-5309
ngue	-5310
tery	-5311
▁aim	-5312
▁hes	-5313
▁hun	-5314
▁thí	-5315
▁đàm	-5316
iable	-5317
▁Fuji	-5318
▁Last	-5319
▁Pres	-5320
▁bite	-5321
▁drow	-5322
▁elev	-5323
▁fond	-5324
▁găng	-5325
▁incl	-5326
▁lượt	-5327
▁lỏng	-5328
▁ngột	-5329
▁self	-5330
▁tang	-5331
erence	-5332
▁reply	-5333
▁destro	-5334
▁dreams	-5335
▁effort	-5336
▁fallen	-5337
▁forest	-5338
▁intern	-5339
▁master	-5340
▁tongue	-5341
▁warned	-5342
▁British	-5343
▁bedroom	-5344
▁forever	-5345
▁service	-5346
▁appeared	-5347
▁occurred	-5348
▁teachers	-5349
▁secretary	-5350
▁possibility	-5351
▁temperature	-5352
ùi	-5353
ape	-5354
ees	-5355
ify	-5356
uss	-5357
▁Per	-5358
▁dad	-5359
▁fro	-5360
▁quê	-5361
▁sợi	-5362
▁voi	-5363
orses	-5364
velop	-5365
▁betr	-5366
▁carp	-5367
▁dent	-5368
▁ears	-5369
▁flat	-5370
▁hero	-5371
▁ngào	-5372
▁nâng	-5373
▁đoạn	-5374
▁cloud	-5375
▁gương	-5376
▁khiếu	-5377
▁thằng	-5378
▁deeply	-5379
▁drives	-5380
▁kicked	-5381
▁search	-5382
▁sleepy	-5383
▁Sundays	-5384
▁becoming	-5385
▁election	-5386
▁investig	-5387
▁persuade	-5388
▁Sometimes	-5389
▁education	-5390
▁embarrassed	-5391
▁responsibility	-5392
bs	-5393
sy	-5394
ges	-5395
ism	-5396
men	-5397
raw	-5398
▁sứ	-5399
▁vỗ	-5400
ains	-5401
eral	-5402
▁197	-5403
▁Haw	-5404
▁bắc	-5405
▁ess	-5406
▁lan	-5407
▁shy	-5408
cture	-5409
▁bang	-5410
▁fuji	-5411
▁laid	-5412
▁lies	-5413
▁loạn	-5414
▁unus	-5415
▁văng	-5416
▁Italy	-5417
▁acted	-5418
▁alarm	-5419
▁avail	-5420
▁cưỡng	-5421
▁hired	-5422
▁seats	-5423
▁tooth	-5424
▁George	-5425
▁member	-5426
▁depends	-5427
▁improve	-5428
▁stories	-5429
▁borrowed	-5430
▁cleaning	-5431
▁concentr	-5432
▁stranger	-5433
ẫm	-5434
ụy	-5435
aro	-5436
llo	-5437
ped	-5438
▁Em	-5439
athy	-5440
aved	-5441
▁Gần	-5442
▁chở	-5443
▁haw	-5444
▁lặp	-5445
▁nar	-5446
▁nản	-5447
▁obs	-5448
▁tur	-5449
orter	-5450
▁Nghe	-5451
▁Read	-5452
▁adop	-5453
▁cong	-5454
▁lưỡi	-5455
▁nhàm	-5456
▁thắn	-5457
though	-5458
▁local	-5459
▁shelf	-5460
▁shook	-5461
▁stock	-5462
▁trick	-5463
▁suspic	-5464
▁tastes	-5465
▁crowded	-5466
▁granted	-5467
▁matters	-5468
▁sisters	-5469
▁elevator	-5470
▁frightened	-5471
do	-5472
ako	-5473
ưởi	-5474
▁17	-5475
▁Pl	-5476
pper	-5477
▁196	-5478
▁lặn	-5479
▁dise	-5480
▁film	-5481
▁firm	-5482
▁giám	-5483
▁jazz	-5484
▁nhạt	-5485
▁upon	-5486
ateful	-5487
▁Betty	-5488
▁anger	-5489
▁disag	-5490
▁hương	-5491
▁kiêng	-5492
▁nurse	-5493
▁rumor	-5494
▁separ	-5495
▁stone	-5496
▁super	-5497
▁burned	-5498
▁highly	-5499
▁pieces	-5500
▁safety	-5501
▁theory	-5502
▁holding	-5503
▁prepare	-5504
▁airplane	-5505
▁solution	-5506
▁President	-5507
▁passengers	-5508
▁photograph	-5509
oph	-5510
▁Re	-5511
▁rổ	-5512
▁ám	-5513
▁đỗ	-5514
anic	-5515
ider	-5516
nect	-5517
ysic	-5518
▁cận	-5519
▁thề	-5520
▁tùy	-5521
▁đạc	-5522
▁đức	-5523
▁Russ	-5524
▁dece	-5525
▁hole	-5526
▁loài	-5527
▁ones	-5528
▁puzz	-5529
▁tháo	-5530
▁typh	-5531
▁ways	-5532
▁Đừng	-5533
▁adult	-5534
▁apart	-5535
▁hesit	-5536
▁somet	-5537
▁tough	-5538
▁damage	-5539
▁expert	-5540
▁ignore	-5541
▁london	-5542
▁repair	-5543
▁struck	-5544
▁urgent	-5545
▁current	-5546
▁develop	-5547
▁disease	-5548
▁economy	-5549
▁fifteen	-5550
▁knocked	-5551
▁putting	-5552
▁Canadian	-5553
▁evidence	-5554
▁grateful	-5555
▁patience	-5556
▁sometime	-5557
▁available	-5558
fortunately	-5559
▁conference	-5560
▁eventually	-5561
ron	-5562
yle	-5563
aled	-5564
aves	-5565
elve	-5566
iest	-5567
look	-5568
umed	-5569
view	-5570
▁300	-5571
▁Nga	-5572
▁Phi	-5573
▁ast	-5574
▁deg	-5575
▁dry	-5576
▁gấu	-5577
▁khổ	-5578
▁mét	-5579
▁sét	-5580
▁van	-5581
▁var	-5582
iment	-5583
ittee	-5584
▁Well	-5585
▁lĩnh	-5586
▁vict	-5587
▁đống	-5588
▁brave	-5589
▁ghost	-5590
▁hoped	-5591
▁spell	-5592
▁critic	-5593
▁horses	-5594
▁leader	-5595
▁regard	-5596
▁reserv	-5597
▁cleaned	-5598
▁unusual	-5599
▁argument	-5600
▁mistaken	-5601
▁According	-5602
▁agreement	-5603
▁committee	-5604
ask	-5605
eak	-5606
▁25	-5607
arch	-5608
eles	-5609
ging	-5610
▁War	-5611
▁kín	-5612
▁lab	-5613
ieved	-5614
▁biên	-5615
▁chăn	-5616
▁crim	-5617
▁entr	-5618
▁ngửi	-5619
▁phận	-5620
▁pred	-5621
▁quầy	-5622
▁suic	-5623
▁symp	-5624
▁sánh	-5625
▁webs	-5626
▁xách	-5627
ential	-5628
▁argue	-5629
▁final	-5630
▁hated	-5631
▁issue	-5632
▁juice	-5633
▁quyển	-5634
▁whose	-5635
▁woods	-5636
▁worst	-5637
▁bottom	-5638
▁clever	-5639
▁depart	-5640
▁policy	-5641
▁thirst	-5642
▁article	-5643
▁camping	-5644
▁divorce	-5645
▁hanging	-5646
▁quietly	-5647
▁bathroom	-5648
▁marriage	-5649
▁exhausted	-5650
▁knowledge	-5651
▁basketball	-5652
▁classmates	-5653
▁disappeared	-5654
my	-5655
ugg	-5656
▁Dr	-5657
▁kê	-5658
mped	-5659
orth	-5660
vere	-5661
yond	-5662
▁198	-5663
▁bốc	-5664
▁mại	-5665
▁sôi	-5666
▁tộc	-5667
allow	-5668
itude	-5669
olded	-5670
▁Ital	-5671
▁drew	-5672
▁hoại	-5673
▁pity	-5674
▁tied	-5675
▁warn	-5676
▁buông	-5677
▁chose	-5678
▁eager	-5679
▁flash	-5680
▁flood	-5681
▁negot	-5682
▁sales	-5683
▁smith	-5684
▁applic	-5685
▁beyond	-5686
▁cheese	-5687
▁joking	-5688
▁wealth	-5689
▁yellow	-5690
▁curtain	-5691
▁engaged	-5692
▁percent	-5693
▁wasting	-5694
▁notebook	-5695
▁assistant	-5696
▁gentleman	-5697
▁introduced	-5698
▁intelligent	-5699
gl	-5700
ada	-5701
coh	-5702
isy	-5703
▁Rõ	-5704
▁rỉ	-5705
teen	-5706
vive	-5707
▁cit	-5708
▁cre	-5709
▁gắn	-5710
▁non	-5711
▁ong	-5712
cohol	-5713
enced	-5714
▁Only	-5715
▁decl	-5716
▁giai	-5717
▁ngầm	-5718
▁rose	-5719
▁tảng	-5720
anding	-5721
▁aside	-5722
▁cabin	-5723
▁candy	-5724
▁goods	-5725
▁hurts	-5726
▁nancy	-5727
▁optim	-5728
▁xương	-5729
▁center	-5730
▁cousin	-5731
▁modern	-5732
▁resign	-5733
▁spread	-5734
▁switch	-5735
▁curious	-5736
▁dentist	-5737
▁deserve	-5738
▁planned	-5739
▁typhoon	-5740
▁Although	-5741
▁insisted	-5742
▁pleasure	-5743
▁visiting	-5744
▁introduce	-5745
▁professor	-5746
▁complained	-5747
ku	-5748
ợt	-5749
rel	-5750
▁đẻ	-5751
▁And	-5752
▁bes	-5753
▁giơ	-5754
▁ngô	-5755
▁sủa	-5756
▁đắp	-5757
asant	-5758
asons	-5759
▁bùng	-5760
▁jour	-5761
▁mạch	-5762
▁nghề	-5763
▁page	-5764
▁thám	-5765
velope	-5766
▁Afric	-5767
▁actor	-5768
▁cheer	-5769
▁chẳng	-5770
▁forty	-5771
▁grass	-5772
▁idiot	-5773
▁kinds	-5774
▁occas	-5775
▁prove	-5776
▁rainy	-5777
▁sushi	-5778
osition	-5779
ustomed	-5780
▁Hawaii	-5781
▁determ	-5782
▁fairly	-5783
▁orders	-5784
▁parked	-5785
▁solved	-5786
▁climate	-5787
▁fingers	-5788
▁growing	-5789
▁kilomet	-5790
▁science	-5791
▁survive	-5792
▁envelope	-5793
▁supplies	-5794
▁worrying	-5795
▁depressed	-5796
ipe	-5797
▁bổ	-5798
▁Đã	-5799
cean	-5800
wers	-5801
▁Har	-5802
▁hỗn	-5803
▁log	-5804
▁lận	-5805
▁lốp	-5806
▁nến	-5807
▁phô	-5808
▁vứt	-5809
▁wit	-5810
▁đáo	-5811
▁Cuối	-5812
▁Once	-5813
▁Rome	-5814
▁blow	-5815
▁cult	-5816
▁cưỡi	-5817
▁cược	-5818
▁pale	-5819
▁sưởi	-5820
▁thin	-5821
▁trèo	-5822
omeday	-5823
▁chiên	-5824
▁cover	-5825
▁grown	-5826
▁hopes	-5827
▁pants	-5828
▁postp	-5829
▁relig	-5830
▁thick	-5831
▁battle	-5832
▁closer	-5833
▁dollar	-5834
▁george	-5835
▁hawaii	-5836
▁larger	-5837
▁mirror	-5838
▁negoti	-5839
▁orange	-5840
▁stamps	-5841
▁answers	-5842
▁confess	-5843
▁grabbed	-5844
▁knowing	-5845
▁luggage	-5846
▁members	-5847
▁pointed	-5848
▁website	-5849
▁greatest	-5850
▁midnight	-5851
▁musician	-5852
▁abandoned	-5853
▁accustomed	-5854
0.	-5855
de	-5856
▁Z	-5857
ita	-5858
oya	-5859
ung	-5860
▁Ro	-5861
▁ao	-5862
illy	-5863
▁Fin	-5864
▁Tất	-5865
▁Won	-5866
▁cru	-5867
▁err	-5868
▁hải	-5869
▁imm	-5870
▁mềm	-5871
▁ngớ	-5872
▁trụ	-5873
▁unw	-5874
▁đốc	-5875
agoya	-5876
hemat	-5877
ulous	-5878
▁Park	-5879
▁bags	-5880
▁hire	-5881
▁iron	-5882
▁khảo	-5883
▁loan	-5884
▁ngẩn	-5885
▁orig	-5886
▁rely	-5887
▁thạo	-5888
▁tiễn	-5889
▁tràn	-5890
▁wide	-5891
▁địch	-5892
irteen	-5893
▁Shall	-5894
▁chừng	-5895
▁citiz	-5896
▁court	-5897
▁skirt	-5898
agement	-5899
▁artist	-5900
▁castle	-5901
▁drawer	-5902
▁invite	-5903
▁nghiện	-5904
▁poison	-5905
▁polite	-5906
▁refuse	-5907
▁served	-5908
▁signed	-5909
▁twelve	-5910
▁writes	-5911
▁happiness	-5912
▁discovered	-5913
▁Unfortunately	-5914
xed	-5915
▁xế	-5916
▁ủi	-5917
aked	-5918
lace	-5919
logy	-5920
roat	-5921
▁Cảm	-5922
▁Few	-5923
▁Lúc	-5924
▁háo	-5925
▁hức	-5926
▁odd	-5927
▁pet	-5928
▁rom	-5929
▁Taro	-5930
▁bỏng	-5931
▁diam	-5932
▁fold	-5933
▁khen	-5934
▁lông	-5935
▁meth	-5936
▁rate	-5937
▁rele	-5938
▁stre	-5939
▁surr	-5940
▁trầm	-5941
▁tung	-5942
▁vâng	-5943
verage	-5944
▁conce	-5945
▁concl	-5946
▁exist	-5947
▁liter	-5948
▁meals	-5949
▁model	-5950
▁noisy	-5951
▁scene	-5952
▁spare	-5953
▁spite	-5954
▁Street	-5955
▁behave	-5956
▁charac	-5957
▁closet	-5958
▁denied	-5959
▁gloves	-5960
▁incred	-5961
▁spends	-5962
▁writer	-5963
▁Perhaps	-5964
▁absence	-5965
▁advance	-5966
▁efforts	-5967
▁lecture	-5968
▁package	-5969
▁parking	-5970
▁silence	-5971
▁suicide	-5972
▁entrance	-5973
▁punished	-5974
▁relation	-5975
▁research	-5976
▁stealing	-5977
▁thirteen	-5978
▁apologized	-5979
▁department	-5980
▁everywhere	-5981
▁invitation	-5982
▁suggesting	-5983
õm	-5984
ịn	-5985
ata	-5986
ole	-5987
que	-5988
uct	-5989
▁lẻ	-5990
▁nở	-5991
▁ẩm	-5992
ooth	-5993
otos	-5994
rain	-5995
rees	-5996
▁bal	-5997
▁cám	-5998
▁pra	-5999
▁rob	-6000
antic	-6001
inary	-6002
iving	-6003
▁From	-6004
▁June	-6005
▁dạng	-6006
▁ends	-6007
▁jean	-6008
▁liệt	-6009
▁ngập	-6010
▁pond	-6011
▁rung	-6012
▁Brown	-6013
▁Peter	-6014
▁Spain	-6015
▁awful	-6016
▁cương	-6017
▁earns	-6018
▁finan	-6019
▁mater	-6020
▁stays	-6021
▁tráng	-6022
▁acting	-6023
▁action	-6024
▁lovely	-6025
▁meters	-6026
▁physic	-6027
▁rarely	-6028
▁unless	-6029
▁Lincoln	-6030
▁biggest	-6031
▁changes	-6032
▁classes	-6033
▁connect	-6034
▁contrib	-6035
▁falling	-6036
▁kidding	-6037
▁lincoln	-6038
▁secrets	-6039
▁slipped	-6040
▁thirsty	-6041
▁Hokkaido	-6042
▁exchange	-6043
▁hokkaido	-6044
▁intended	-6045
▁politics	-6046
▁strength	-6047
▁accidents	-6048
▁desperate	-6049
▁suspicious	-6050
No	-6051
Th	-6052
▁Á	-6053
acy	-6054
zed	-6055
▁Cl	-6056
▁ép	-6057
▁ấu	-6058
What	-6059
atic	-6060
atin	-6061
tled	-6062
▁Dad	-6063
▁bud	-6064
▁chẽ	-6065
▁lật	-6066
▁tật	-6067
▁đấm	-6068
▁cere	-6069
▁none	-6070
▁okay	-6071
▁rail	-6072
▁tech	-6073
▁valu	-6074
▁visa	-6075
ashion	-6076
▁Dường	-6077
▁Tiếng	-6078
▁equal	-6079
▁horri	-6080
▁maybe	-6081
▁micro	-6082
▁overw	-6083
▁thánh	-6084
▁towel	-6085
▁allerg	-6086
▁begins	-6087
▁conven	-6088
▁fought	-6089
▁lesson	-6090
▁method	-6091
▁photos	-6092
▁retire	-6093
▁wishes	-6094
hematics	-6095
▁Chicago	-6096
▁Italian	-6097
▁baggage	-6098
▁chicago	-6099
▁diamond	-6100
▁motorcy	-6101
▁smiling	-6102
▁stepped	-6103
▁touched	-6104
▁document	-6105
▁incident	-6106
▁potatoes	-6107
▁pressure	-6108
▁stronger	-6109
▁persuaded	-6110
éc	-6111
ớp	-6112
mon	-6113
sen	-6114
▁Co	-6115
▁lũ	-6116
▁nô	-6117
ivil	-6118
lect	-6119
vert	-6120
▁Car	-6121
▁Hur	-6122
▁mực	-6123
▁nap	-6124
▁tor	-6125
aired	-6126
asing	-6127
ilton	-6128
isten	-6129
tered	-6130
using	-6131
▁6:30	-6132
▁Gree	-6133
▁Send	-6134
▁Thái	-6135
▁bách	-6136
▁infl	-6137
▁nhõm	-6138
▁sink	-6139
▁Three	-6140
▁Watch	-6141
▁Write	-6142
▁bills	-6143
▁crash	-6144
▁guard	-6145
▁hobby	-6146
▁tuyển	-6147
▁Listen	-6148
▁cancel	-6149
▁double	-6150
▁subway	-6151
▁wished	-6152
▁alcohol	-6153
▁ceiling	-6154
▁medical	-6155
▁provide	-6156
▁reasons	-6157
▁traveled	-6158
▁committed	-6159
▁preparing	-6160
▁attractive	-6161
▁importance	-6162
▁kilometers	-6163
▁motorcycle	-6164
▁reasonable	-6165
▁understands	-6166
ba	-6167
ki	-6168
xy	-6169
cut	-6170
ift	-6171
now	-6172
▁Oh	-6173
▁dụ	-6174
▁ke	-6175
▁tú	-6176
▁đố	-6177
iron	-6178
▁194	-6179
▁Lạp	-6180
▁cơm	-6181
▁jew	-6182
▁móc	-6183
▁nhé	-6184
▁row	-6185
▁rạp	-6186
▁thỏ	-6187
▁uns	-6188
▁vẫy	-6189
▁vặt	-6190
anges	-6191
arest	-6192
idays	-6193
riger	-6194
▁Good	-6195
▁Wash	-6196
▁chôn	-6197
▁file	-6198
▁hiến	-6199
▁rare	-6200
▁spot	-6201
▁trad	-6202
▁uses	-6203
▁India	-6204
▁cough	-6205
▁illeg	-6206
▁socks	-6207
▁stars	-6208
▁value	-6209
▁weigh	-6210
▁eleven	-6211
▁income	-6212
▁plants	-6213
▁pounds	-6214
▁wasted	-6215
▁approve	-6216
▁arguing	-6217
▁average	-6218
▁delayed	-6219
▁dreamed	-6220
▁officer	-6221
▁shocked	-6222
▁someday	-6223
▁thanked	-6224
▁Whatever	-6225
▁attacked	-6226
▁divorced	-6227
▁prisoner	-6228
▁promises	-6229
▁spending	-6230
▁computers	-6231
▁destroyed	-6232
▁discussion	-6233
▁application	-6234
▁difficulties	-6235
Ăn	-6236
ễu	-6237
ừu	-6238
Yes	-6239
bly	-6240
eds	-6241
erk	-6242
ima	-6243
zer	-6244
inda	-6245
▁Gen	-6246
▁Mrs	-6247
▁cừu	-6248
▁lạm	-6249
▁tái	-6250
▁und	-6251
▁vải	-6252
▁yes	-6253
store	-6254
tured	-6255
▁Cuộc	-6256
▁defe	-6257
▁fain	-6258
▁ngợi	-6259
▁nodd	-6260
▁sảnh	-6261
▁unlo	-6262
▁viễn	-6263
ctions	-6264
▁Alice	-6265
▁Latin	-6266
▁beard	-6267
▁lower	-6268
▁plant	-6269
▁rapid	-6270
ilities	-6271
▁Africa	-6272
▁clouds	-6273
▁cooked	-6274
▁higher	-6275
▁nation	-6276
▁robbed	-6277
ironment	-6278
▁applied	-6279
▁arrange	-6280
▁assumed	-6281
▁complic	-6282
▁contest	-6283
▁helpful	-6284
▁hurried	-6285
▁politic	-6286
▁scolded	-6287
rigerator	-6288
▁Tomorrow	-6289
▁fluently	-6290
▁generous	-6291
▁kindness	-6292
▁cigarette	-6293
▁engagement	-6294
▁refrigerator	-6295
▁relationship	-6296
aki	-6297
amb	-6298
cue	-6299
mar	-6300
ori	-6301
ưng	-6302
▁Je	-6303
▁US	-6304
▁rũ	-6305
bage	-6306
uses	-6307
▁Hôm	-6308
▁asp	-6309
▁côn	-6310
▁div	-6311
▁dập	-6312
▁hom	-6313
▁hồn	-6314
▁mạn	-6315
▁nao	-6316
▁sưu	-6317
▁túy	-6318
▁xâm	-6319
▁Đại	-6320
adays	-6321
otion	-6322
▁Cảnh	-6323
▁Help	-6324
▁Thụy	-6325
▁chén	-6326
▁coun	-6327
▁gàng	-6328
▁lent	-6329
▁liếc	-6330
▁poet	-6331
▁sail	-6332
▁sour	-6333
▁worn	-6334
inated	-6335
ulated	-6336
▁Hurry	-6337
▁While	-6338
▁alice	-6339
▁apply	-6340
▁autom	-6341
▁cuồng	-6342
▁dưỡng	-6343
▁force	-6344
▁ident	-6345
▁irrit	-6346
▁mayor	-6347
▁ngang	-6348
▁purse	-6349
▁reput	-6350
▁shape	-6351
▁shows	-6352
▁stret	-6353
▁thách	-6354
▁total	-6355
▁turns	-6356
▁accent	-6357
▁effect	-6358
▁khoảnh	-6359
▁loudly	-6360
▁narrow	-6361
▁nhường	-6362
▁novels	-6363
▁burning	-6364
▁opening	-6365
▁winning	-6366
▁criminal	-6367
▁enjoying	-6368
▁gathered	-6369
▁direction	-6370
▁confidence	-6371
▁reservation	-6372
go	-6373
gy	-6374
ợn	-6375
ano	-6376
asc	-6377
nel	-6378
ott	-6379
▁24	-6380
▁xô	-6381
▁Ăn	-6382
cing	-6383
ieve	-6384
lass	-6385
mbur	-6386
omen	-6387
▁Bao	-6388
▁Mọi	-6389
▁adj	-6390
▁bột	-6391
▁dow	-6392
▁dội	-6393
▁hâm	-6394
▁led	-6395
▁mel	-6396
▁nhổ	-6397
▁não	-6398
▁sou	-6399
▁sáo	-6400
▁đền	-6401
epend	-6402
place	-6403
▁binh	-6404
▁chép	-6405
▁gram	-6406
▁host	-6407
▁mệnh	-6408
▁owns	-6409
▁trói	-6410
angers	-6411
urance	-6412
▁baked	-6413
▁block	-6414
▁level	-6415
▁pitch	-6416
▁plate	-6417
▁reads	-6418
▁silly	-6419
▁uncom	-6420
▁wound	-6421
▁Intern	-6422
▁hambur	-6423
▁reluct	-6424
▁severe	-6425
▁starts	-6426
▁adopted	-6427
▁relaxed	-6428
▁selling	-6429
▁witness	-6430
▁communic	-6431
▁national	-6432
▁repaired	-6433
▁customers	-6434
▁acquainted	-6435
▁friendship	-6436
▁particularly	-6437
ix	-6438
att	-6439
iam	-6440
ica	-6441
lex	-6442
rab	-6443
ump	-6444
▁xà	-6445
ives	-6446
pril	-6447
▁App	-6448
▁Day	-6449
▁Nam	-6450
▁cóc	-6451
▁dại	-6452
▁fai	-6453
▁gro	-6454
▁hẹp	-6455
▁lăn	-6456
▁lợn	-6457
▁mày	-6458
▁pil	-6459
▁psy	-6460
▁râm	-6461
▁séc	-6462
▁sụp	-6463
▁thụ	-6464
▁ver	-6465
▁vir	-6466
chief	-6467
cient	-6468
incip	-6469
omise	-6470
print	-6471
ption	-6472
ticip	-6473
▁Cuốn	-6474
▁Each	-6475
▁Judy	-6476
▁asks	-6477
▁bomb	-6478
▁cháu	-6479
▁chải	-6480
▁ease	-6481
▁fund	-6482
▁goal	-6483
▁jobs	-6484
▁nail	-6485
▁ngây	-6486
▁nhạy	-6487
▁thầm	-6488
▁April	-6489
▁White	-6490
▁cares	-6491
▁greet	-6492
▁helps	-6493
▁khiển	-6494
▁loose	-6495
▁phỏng	-6496
▁poker	-6497
▁track	-6498
▁blamed	-6499
▁repeat	-6500
▁riding	-6501
▁ruined	-6502
▁strict	-6503
▁throat	-6504
▁weapon	-6505
▁anticip	-6506
▁century	-6507
▁chances	-6508
▁constru	-6509
▁example	-6510
▁general	-6511
▁ignored	-6512
▁illegal	-6513
▁largest	-6514
▁manners	-6515
▁nearest	-6516
▁princip	-6517
▁protest	-6518
▁respond	-6519
▁smaller	-6520
▁teaches	-6521
▁wounded	-6522
▁basement	-6523
▁betrayed	-6524
▁deserves	-6525
▁possibly	-6526
▁suffering	-6527
▁downstairs	-6528
▁impression	-6529
▁optimistic	-6530
!"	-6531
gs	-6532
apt	-6533
bon	-6534
bow	-6535
ded	-6536
iểu	-6537
len	-6538
nge	-6539
▁mã	-6540
▁mớ	-6541
▁vỏ	-6542
aced	-6543
anto	-6544
cast	-6545
hand	-6546
lymp	-6547
▁195	-6548
▁Ann	-6549
▁Cho	-6550
▁bực	-6551
▁gầy	-6552
▁gậy	-6553
▁lúa	-6554
▁phú	-6555
▁độn	-6556
arter	-6557
eight	-6558
erved	-6559
iforn	-6560
usion	-6561
▁biện	-6562
▁craw	-6563
▁disp	-6564
▁hiển	-6565
▁khúc	-6566
▁khối	-6567
▁sons	-6568
▁stat	-6569
▁suất	-6570
▁trou	-6571
▁yard	-6572
▁đuôi	-6573
cially	-6574
priate	-6575
▁Water	-6576
▁aspir	-6577
▁cheek	-6578
▁honor	-6579
▁knock	-6580
▁notes	-6581
▁shock	-6582
▁toile	-6583
▁walks	-6584
ifornia	-6585
ization	-6586
stances	-6587
▁active	-6588
▁candid	-6589
▁cooper	-6590
▁headed	-6591
▁lasted	-6592
▁settle	-6593
▁social	-6594
▁jogging	-6595
▁chairman	-6596
▁disagree	-6597
▁holidays	-6598
▁horrible	-6599
▁occasion	-6600
▁pleasant	-6601
▁products	-6602
▁slightly	-6603
▁textbook	-6604
▁thoughts	-6605
▁announced	-6606
▁bothering	-6607
▁financial	-6608
▁insurance	-6609
▁appearance	-6610
▁experiment	-6611
▁threatened	-6612
▁environment	-6613
▁professional	-6614
▁uncomfortable	-6615
wr	-6616
How	-6617
com	-6618
cts	-6619
gen	-6620
lin	-6621
nam	-6622
▁40	-6623
▁Sc	-6624
▁dỗ	-6625
▁gỡ	-6626
▁mỹ	-6627
▁pa	-6628
▁ut	-6629
▁va	-6630
assy	-6631
isco	-6632
zing	-6633
▁Air	-6634
▁Sch	-6635
▁cạn	-6636
▁dai	-6637
▁dâu	-6638
▁hug	-6639
▁lều	-6640
▁nát	-6641
▁nại	-6642
▁unb	-6643
▁xưa	-6644
▁đắn	-6645
mbled	-6646
▁barg	-6647
▁chật	-6648
▁chọc	-6649
▁dawn	-6650
▁deli	-6651
▁flew	-6652
▁inse	-6653
▁irre	-6654
▁myst	-6655
▁redu	-6656
▁suýt	-6657
▁điệp	-6658
isions	-6659
▁Chồng	-6660
▁begun	-6661
▁burgl	-6662
▁dozen	-6663
▁drugs	-6664
▁split	-6665
▁sport	-6666
▁taxes	-6667
▁twins	-6668
▁advise	-6669
▁beside	-6670
▁desire	-6671
▁enjoys	-6672
▁genius	-6673
▁interp	-6674
▁nearby	-6675
▁However	-6676
▁Without	-6677
▁blanket	-6678
▁concern	-6679
▁crashed	-6680
▁furious	-6681
▁garbage	-6682
▁happier	-6683
▁mission	-6684
▁receive	-6685
▁shorter	-6686
▁annoying	-6687
▁canceled	-6688
▁climbing	-6689
▁expenses	-6690
▁unlocked	-6691
▁briefcase	-6692
▁character	-6693
▁documents	-6694
▁mentioned	-6695
▁reputation	-6696
▁complicated	-6697
alf	-6698
ida	-6699
▁Bà	-6700
▁Op	-6701
▁gy	-6702
▁ân	-6703
aire	-6704
mail	-6705
ulse	-6706
▁193	-6707
▁Bất	-6708
▁Che	-6709
▁Mỗi	-6710
▁Rob	-6711
▁cay	-6712
▁dán	-6713
▁dịp	-6714
▁gạo	-6715
▁lam	-6716
▁lit	-6717
▁rev	-6718
▁xóa	-6719
eding	-6720
illed	-6721
imate	-6722
ntown	-6723
▁Comp	-6724
▁Nước	-6725
▁alib	-6726
▁cưng	-6727
▁dess	-6728
▁disg	-6729
▁dính	-6730
▁edge	-6731
▁giật	-6732
▁huấn	-6733
▁khấu	-6734
▁mass	-6735
▁nhịn	-6736
▁puts	-6737
▁quét	-6738
▁remo	-6739
▁sake	-6740
▁tail	-6741
▁task	-6742
▁trộn	-6743
entine	-6744
pected	-6745
▁Doesn	-6746
▁below	-6747
▁boxes	-6748
▁champ	-6749
▁chủng	-6750
▁civil	-6751
▁conse	-6752
▁limit	-6753
▁magic	-6754
▁ocean	-6755
▁proof	-6756
▁swear	-6757
ancisco	-6758
▁advert	-6759
▁cherry	-6760
▁cities	-6761
▁nodded	-6762
▁punish	-6763
▁smooth	-6764
▁trains	-6765
▁victim	-6766
▁warmer	-6767
fficient	-6768
▁Russian	-6769
▁capable	-6770
▁dealing	-6771
▁dessert	-6772
▁fashion	-6773
▁funeral	-6774
▁lessons	-6775
▁mystery	-6776
▁recover	-6777
▁retired	-6778
▁uniform	-6779
▁allergic	-6780
▁captured	-6781
▁cheating	-6782
▁downtown	-6783
▁graduate	-6784
▁independ	-6785
▁informed	-6786
▁valuable	-6787
▁authority	-6788
▁explosion	-6789
▁encouraged	-6790
▁translated	-6791
wh	-6792
The	-6793
ael	-6794
aff	-6795
chi	-6796
lig	-6797
ply	-6798
▁Ar	-6799
▁Bl	-6800
▁Cả	-6801
ures	-6802
vard	-6803
year	-6804
▁Act	-6805
▁Sit	-6806
▁ble	-6807
▁bẫy	-6808
▁cát	-6809
▁dịu	-6810
▁giỏ	-6811
▁gym	-6812
▁gác	-6813
▁gôn	-6814
▁hèn	-6815
▁inh	-6816
▁lat	-6817
▁lắc	-6818
▁nôn	-6819
▁raw	-6820
▁rub	-6821
▁smo	-6822
▁tri	-6823
▁Đối	-6824
▁Đột	-6825
aries	-6826
aying	-6827
cific	-6828
icing	-6829
inter	-6830
order	-6831
stick	-6832
ulted	-6833
▁Cook	-6834
▁desp	-6835
▁dust	-6836
▁fant	-6837
▁flag	-6838
▁móng	-6839
▁nuts	-6840
▁pron	-6841
▁quái	-6842
▁soci	-6843
▁tưới	-6844
▁xoay	-6845
▁đảng	-6846
illing	-6847
▁Jones	-6848
▁finds	-6849
▁honey	-6850
▁jones	-6851
▁legal	-6852
▁plain	-6853
▁punch	-6854
▁react	-6855
▁roses	-6856
▁shame	-6857
▁sheep	-6858
▁stage	-6859
▁voted	-6860
▁Before	-6861
▁bullet	-6862
▁buried	-6863
▁nghiền	-6864
▁simply	-6865
▁square	-6866
▁strike	-6867
▁talent	-6868
▁toilet	-6869
▁treaty	-6870
▁cleared	-6871
▁devoted	-6872
▁glanced	-6873
▁heavily	-6874
▁reminds	-6875
▁settled	-6876
▁smarter	-6877
▁tallest	-6878
umstances	-6879
▁entirely	-6880
▁searched	-6881
▁talented	-6882
▁bookstore	-6883
▁operation	-6884
▁scientist	-6885
▁complaints	-6886
▁flashlight	-6887
It	-6888
po	-6889
▁Ở	-6890
box	-6891
dom	-6892
gly	-6893
het	-6894
kin	-6895
lor	-6896
uki	-6897
▁bể	-6898
▁cỡ	-6899
▁má	-6900
:00.	-6901
alle	-6902
alse	-6903
resh	-6904
rict	-6905
tles	-6906
vant	-6907
velt	-6908
▁Cal	-6909
▁Mất	-6910
▁Sus	-6911
▁jam	-6912
▁kèm	-6913
▁lụt	-6914
▁nai	-6915
▁ngụ	-6916
▁oxy	-6917
▁rèm	-6918
▁tỏa	-6919
▁ván	-6920
hetic	-6921
▁evil	-6922
▁họng	-6923
▁miền	-6924
▁nháy	-6925
▁nhạo	-6926
▁nhợt	-6927
▁poll	-6928
▁ugly	-6929
atient	-6930
eaking	-6931
ensive	-6932
▁Chris	-6933
▁absor	-6934
▁activ	-6935
▁brain	-6936
▁crack	-6937
▁creat	-6938
▁doors	-6939
▁false	-6940
▁gunsh	-6941
▁nhuận	-6942
▁quyến	-6943
▁scare	-6944
▁south	-6945
▁stead	-6946
▁style	-6947
▁thùng	-6948
▁troub	-6949
▁tướng	-6950
▁wheel	-6951
▁School	-6952
▁access	-6953
▁bitter	-6954
▁carpet	-6955
▁causes	-6956
▁chosen	-6957
▁experi	-6958
▁hidden	-6959
▁leaned	-6960
▁resour	-6961
▁smells	-6962
▁stands	-6963
kerchief	-6964
onscious	-6965
oosevelt	-6966
▁aspirin	-6967
▁damaged	-6968
▁players	-6969
▁sounded	-6970
▁warning	-6971
▁watches	-6972
▁increase	-6973
▁released	-6974
▁visitors	-6975
▁departure	-6976
▁detective	-6977
▁increased	-6978
▁assistance	-6979
▁convenient	-6980
▁surrounded	-6981
▁mathematics	-6982
▁performance	-6983
▁handkerchief	-6984
▁understanding	-6985
ila	-6986
lly	-6987
oro	-6988
umb	-6989
ura	-6990
▁$1	-6991
▁13	-6992
▁km	-6993
▁mẻ	-6994
anta	-6995
aven	-6996
over	-6997
▁Bắc	-6998
▁Clo	-6999
▁Giá	-7000
▁Nói	-7001
▁Pol	-7002
▁Pro	-7003
▁Uni	-7004
▁bào	-7005
▁hít	-7006
▁khỉ	-7007
▁lùi	-7008
▁mud	-7009
▁ner	-7010
▁wre	-7011
arily	-7012
cases	-7013
iring	-7014
urity	-7015
▁Kobe	-7016
▁Kore	-7017
▁More	-7018
▁Time	-7019
▁burn	-7020
▁chop	-7021
▁emot	-7022
▁fasc	-7023
▁mỏng	-7024
▁rabb	-7025
▁ranh	-7026
▁ruồi	-7027
▁sinc	-7028
▁tiệm	-7029
lasses	-7030
▁Money	-7031
▁added	-7032
▁alike	-7033
▁boots	-7034
▁brand	-7035
▁chuỗi	-7036
▁kháng	-7037
▁ridic	-7038
▁thiểu	-7039
▁whist	-7040
arently	-7041
looking	-7042
▁Having	-7043
▁Prices	-7044
▁admire	-7045
▁challe	-7046
▁chuyền	-7047
▁includ	-7048
▁itself	-7049
▁ladder	-7050
▁rescue	-7051
▁rights	-7052
▁rushed	-7053
▁sevent	-7054
▁strugg	-7055
▁comfort	-7056
▁drowned	-7057
▁embassy	-7058
▁options	-7059
▁oranges	-7060
▁regular	-7061
▁removed	-7062
▁various	-7063
▁weapons	-7064
▁addition	-7065
▁distract	-7066
▁presence	-7067
▁reliable	-7068
▁terribly	-7069
▁confident	-7070
▁hamburger	-7071
▁impatient	-7072
▁recovered	-7073
▁surprising	-7074
▁unconscious	-7075
▁instructions	-7076
ana	-7077
boy	-7078
iti	-7079
osh	-7080
pea	-7081
▁Mo	-7082
▁bồ	-7083
▁Đi	-7084
itam	-7085
mony	-7086
ushu	-7087
ware	-7088
wood	-7089
▁Lau	-7090
▁fog	-7091
▁joy	-7092
▁ngũ	-7093
▁vặn	-7094
▁wis	-7095
ening	-7096
verse	-7097
▁Find	-7098
▁Lear	-7099
▁Zeal	-7100
▁dumb	-7101
▁giọt	-7102
▁rush	-7103
▁teen	-7104
▁thor	-7105
▁thắp	-7106
▁tire	-7107
▁tạnh	-7108
▁tống	-7109
▁vase	-7110
ichael	-7111
ington	-7112
reedom	-7113
▁Frank	-7114
▁Women	-7115
▁chest	-7116
▁condu	-7117
▁delay	-7118
▁estab	-7119
▁humor	-7120
▁ignor	-7121
▁jeans	-7122
▁lines	-7123
▁lobby	-7124
▁opera	-7125
▁parts	-7126
▁punct	-7127
▁rooms	-7128
▁scrat	-7129
▁sells	-7130
▁sweat	-7131
▁tends	-7132
▁tries	-7133
▁trunk	-7134
▁trúng	-7135
▁tuyến	-7136
fferson	-7137
onsider	-7138
▁adjust	-7139
▁amused	-7140
▁attach	-7141
▁career	-7142
▁folded	-7143
▁latest	-7144
▁suffer	-7145
▁thanks	-7146
▁worker	-7147
expected	-7148
▁Smoking	-7149
▁Zealand	-7150
▁actress	-7151
▁complex	-7152
▁consequ	-7153
▁content	-7154
▁enemies	-7155
▁hunting	-7156
▁keeping	-7157
▁snowing	-7158
▁arriving	-7159
▁ceremony	-7160
▁economic	-7161
▁eighteen	-7162
▁provided	-7163
▁relative	-7164
▁thorough	-7165
▁wherever	-7166
▁completed	-7167
▁interrupt	-7168
▁interview	-7169
▁political	-7170
▁suitcases	-7171
▁University	-7172
▁determined	-7173
▁electricity	-7174
▁embarrassing	-7175
▁circumstances	-7176
ỉa	-7177
Tom	-7178
You	-7179
iod	-7180
omb	-7181
uku	-7182
ếch	-7183
▁De	-7184
▁Of	-7185
▁xì	-7186
anch	-7187
wise	-7188
▁But	-7189
▁Cle	-7190
▁Jud	-7191
▁Mom	-7192
▁bồi	-7193
▁gạt	-7194
▁lou	-7195
▁mer	-7196
▁nho	-7197
▁pig	-7198
▁sếp	-7199
▁vòi	-7200
agers	-7201
▁Châu	-7202
▁July	-7203
▁Luck	-7204
▁anti	-7205
▁calc	-7206
▁chat	-7207
▁kobe	-7208
▁mile	-7209
▁nhai	-7210
▁nhét	-7211
▁nhấp	-7212
▁nons	-7213
▁ours	-7214
▁pháo	-7215
▁rise	-7216
▁robb	-7217
▁rome	-7218
▁ruin	-7219
▁surg	-7220
▁tháp	-7221
▁toys	-7222
orrect	-7223
▁South	-7224
▁babys	-7225
▁coach	-7226
▁frank	-7227
▁giáng	-7228
▁minor	-7229
▁owner	-7230
▁straw	-7231
▁budget	-7232
▁coward	-7233
▁grades	-7234
▁oldest	-7235
▁reject	-7236
▁repres	-7237
▁sleeps	-7238
▁tomato	-7239
▁annoyed	-7240
▁apology	-7241
▁arrival	-7242
▁claimed	-7243
▁congrat	-7244
▁counter	-7245
▁disturb	-7246
▁killing	-7247
▁nowhere	-7248
▁quality	-7249
▁remains	-7250
▁towards	-7251
▁breaking	-7252
▁changing	-7253
▁counting	-7254
▁demanded	-7255
▁invented	-7256
▁relieved	-7257
▁requires	-7258
▁romantic	-7259
▁answering	-7260
▁fantastic	-7261
▁prisoners	-7262
▁remembered	-7263
▁ridiculous	-7264
▁sunglasses	-7265
▁composition	-7266
▁concentrate	-7267
▁imagination	-7268
▁expectations	-7269
5.	-7270
9.	-7271
ev	-7272
hib	-7273
inj	-7274
umn	-7275
▁22	-7276
▁Gr	-7277
▁bề	-7278
▁iP	-7279
fied	-7280
sper	-7281
word	-7282
▁201	-7283
▁Lan	-7284
▁Mãi	-7285
▁Tan	-7286
▁ack	-7287
▁ath	-7288
▁bấm	-7289
▁deb	-7290
▁kar	-7291
▁san	-7292
▁sen	-7293
▁tar	-7294
▁tun	-7295
▁tết	-7296
▁đáy	-7297
ators	-7298
peare	-7299
yushu	-7300
▁Miss	-7301
▁Next	-7302
▁Open	-7303
▁Paul	-7304
▁Such	-7305
▁belt	-7306
▁chay	-7307
▁chấm	-7308
▁dáng	-7309
▁khoe	-7310
▁lamp	-7311
▁magn	-7312
▁ngắt	-7313
▁nhục	-7314
▁path	-7315
▁trúc	-7316
▁vain	-7317
▁vững	-7318
▁Nhiều	-7319
▁alibi	-7320
▁appet	-7321
▁coins	-7322
▁daily	-7323
▁hello	-7324
▁homes	-7325
▁influ	-7326
▁mouse	-7327
▁shake	-7328
▁stops	-7329
▁tools	-7330
▁trade	-7331
▁vitam	-7332
▁Either	-7333
▁Though	-7334
▁acknow	-7335
▁danced	-7336
▁height	-7337
▁indust	-7338
▁interf	-7339
▁joined	-7340
▁nghịch	-7341
▁packed	-7342
▁Harvard	-7343
▁attempt	-7344
▁bargain	-7345
▁command	-7346
▁doctors	-7347
▁pressed	-7348
▁society	-7349
▁soldier	-7350
▁useless	-7351
akespeare	-7352
▁opinions	-7353
▁survived	-7354
▁appointed	-7355
▁effective	-7356
▁employees	-7357
▁organized	-7358
▁statement	-7359
▁discussing	-7360
▁unexpected	-7361
▁appropriate	-7362
▁carelessness	-7363
▁construction	-7364
af	-7365
eb	-7366
li	-7367
ma	-7368
ím	-7369
eaf	-7370
how	-7371
ino	-7372
oms	-7373
uff	-7374
ãng	-7375
ưỡi	-7376
▁Ad	-7377
▁Ob	-7378
▁lồ	-7379
▁mờ	-7380
▁ưu	-7381
corn	-7382
ctob	-7383
irds	-7384
▁Meg	-7385
▁Mặc	-7386
▁Sud	-7387
▁Wor	-7388
▁bít	-7389
▁dưa	-7390
▁hời	-7391
▁làn	-7392
▁lãm	-7393
▁meg	-7394
▁mạc	-7395
▁mập	-7396
▁nắp	-7397
▁nứt	-7398
▁sew	-7399
▁sla	-7400
▁tân	-7401
▁unp	-7402
▁vân	-7403
▁vần	-7404
▁vắt	-7405
ammed	-7406
essie	-7407
ilies	-7408
▁Shut	-7409
▁Yoko	-7410
▁ages	-7411
▁cave	-7412
▁cock	-7413
▁deny	-7414
▁espe	-7415
▁giam	-7416
▁lung	-7417
▁ngần	-7418
▁oven	-7419
▁owes	-7420
▁thôn	-7421
▁điếu	-7422
▁đắng	-7423
ctober	-7424
▁coinc	-7425
▁compr	-7426
▁cruel	-7427
▁eleph	-7428
▁foods	-7429
▁khiêm	-7430
▁khiêu	-7431
▁khổng	-7432
▁lưỡng	-7433
▁memor	-7434
▁pages	-7435
▁pilot	-7436
▁refer	-7437
▁score	-7438
▁Sudden	-7439
▁chuồng	-7440
▁dancer	-7441
▁errors	-7442
▁hugged	-7443
▁period	-7444
▁prohib	-7445
▁puzzle	-7446
▁resist	-7447
▁safely	-7448
▁thượng	-7449
▁whisky	-7450
▁October	-7451
▁burglar	-7452
▁culture	-7453
▁delight	-7454
▁interru	-7455
▁kissing	-7456
▁leather	-7457
▁pockets	-7458
▁rapidly	-7459
▁related	-7460
▁attitude	-7461
▁compared	-7462
▁describe	-7463
▁hesitate	-7464
▁improved	-7465
▁register	-7466
▁buildings	-7467
▁decisions	-7468
▁disturbed	-7469
▁sensitive	-7470
▁tradition	-7471
▁especially	-7472
▁newspapers	-7473
▁overweight	-7474
▁politician	-7475
▁sandwiches	-7476
▁international	-7477
1.	-7478
ằn	-7479
anu	-7480
isa	-7481
str	-7482
tes	-7483
usi	-7484
▁Xe	-7485
▁cd	-7486
They	-7487
bell	-7488
ivid	-7489
▁Hot	-7490
▁Kim	-7491
▁báu	-7492
▁bướ	-7493
▁bến	-7494
▁chợ	-7495
▁còi	-7496
▁foc	-7497
▁fox	-7498
▁ink	-7499
▁kèn	-7500
▁mép	-7501
▁nếm	-7502
▁rán	-7503
▁rốt	-7504
▁spr	-7505
▁trú	-7506
ading	-7507
arian	-7508
bborn	-7509
ching	-7510
iding	-7511
izing	-7512
thusi	-7513
▁Thôi	-7514
▁anni	-7515
▁bush	-7516
▁chew	-7517
▁cree	-7518
▁dire	-7519
▁gamb	-7520
▁lược	-7521
▁mild	-7522
▁nhút	-7523
▁pens	-7524
▁port	-7525
▁rưỡi	-7526
▁sore	-7527
▁swam	-7528
▁tore	-7529
▁vinh	-7530
▁Điện	-7531
▁điếc	-7532
everal	-7533
▁10:00	-7534
▁Close	-7535
▁Thỉnh	-7536
▁accur	-7537
▁based	-7538
▁chuối	-7539
▁crops	-7540
▁crush	-7541
▁fully	-7542
▁guide	-7543
▁khoán	-7544
▁risks	-7545
▁stove	-7546
▁sunny	-7547
▁swims	-7548
▁urged	-7549
▁virus	-7550
▁Almost	-7551
▁Cookie	-7552
▁commit	-7553
▁decent	-7554
▁degree	-7555
▁dining	-7556
▁hammer	-7557
▁length	-7558
▁motion	-7559
▁pillow	-7560
▁points	-7561
▁racket	-7562
▁rented	-7563
▁unfair	-7564
▁Several	-7565
▁automob	-7566
▁charity	-7567
▁cheaper	-7568
▁divided	-7569
▁greeted	-7570
▁haircut	-7571
▁parties	-7572
▁popcorn	-7573
▁shouted	-7574
▁surgery	-7575
▁turning	-7576
▁Internet	-7577
▁Suddenly	-7578
▁disaster	-7579
▁engineer	-7580
▁nonsense	-7581
▁particip	-7582
▁positive	-7583
▁railroad	-7584
▁signific	-7585
▁stubborn	-7586
▁currently	-7587
▁promotion	-7588
▁published	-7589
▁qualified	-7590
▁resources	-7591
▁sentenced	-7592
▁strangers	-7593
▁unwilling	-7594
▁Washington	-7595
▁disappoint	-7596
▁washington	-7597
▁considering	-7598
▁consideration	-7599
Do	-7600
ik	-7601
đó	-7602
̣t	-7603
ẹo	-7604
ỉu	-7605
ỷu	-7606
cel	-7607
idy	-7608
law	-7609
▁Fo	-7610
▁Me	-7611
▁bã	-7612
▁kì	-7613
▁lờ	-7614
▁nề	-7615
coat	-7616
edic	-7617
ival	-7618
oops	-7619
plom	-7620
▁Say	-7621
▁Ten	-7622
▁cai	-7623
▁gri	-7624
▁hệt	-7625
▁pan	-7626
▁quỹ	-7627
▁xám	-7628
▁xăm	-7629
athon	-7630
attoo	-7631
shirt	-7632
ulate	-7633
▁Beth	-7634
▁Hand	-7635
▁Sing	-7636
▁beef	-7637
▁bowl	-7638
▁bướm	-7639
▁chem	-7640
▁chèo	-7641
▁clar	-7642
▁diễu	-7643
▁euro	-7644
▁fuss	-7645
▁gall	-7646
▁knee	-7647
▁mere	-7648
▁nhốt	-7649
▁nhựa	-7650
▁phổi	-7651
▁reve	-7652
▁spin	-7653
▁surf	-7654
▁thối	-7655
▁túng	-7656
▁west	-7657
actory	-7658
ground	-7659
prints	-7660
▁Being	-7661
▁chước	-7662
▁clerk	-7663
▁elbow	-7664
▁exhib	-7665
▁faces	-7666
▁faith	-7667
▁grave	-7668
▁oppos	-7669
▁panic	-7670
▁phanh	-7671
▁psych	-7672
▁revol	-7673
▁scary	-7674
▁screw	-7675
▁snack	-7676
▁staff	-7677
▁suits	-7678
▁Mayuko	-7679
▁appeal	-7680
▁assign	-7681
▁begged	-7682
▁bucket	-7683
▁choáng	-7684
▁diplom	-7685
▁driven	-7686
▁gained	-7687
▁handwr	-7688
▁mayuko	-7689
▁monkey	-7690
▁nature	-7691
▁pepper	-7692
▁scarce	-7693
▁seated	-7694
▁shared	-7695
▁snakes	-7696
▁supply	-7697
▁tattoo	-7698
▁terror	-7699
▁Britain	-7700
▁Judging	-7701
▁babysit	-7702
▁battery	-7703
▁consult	-7704
▁freedom	-7705
▁gunshot	-7706
▁honesty	-7707
▁located	-7708
▁opposed	-7709
▁picking	-7710
▁ringing	-7711
▁selfish	-7712
isticated	-7713
▁Whenever	-7714
▁appetite	-7715
▁arranged	-7716
▁directly	-7717
▁discount	-7718
▁dreaming	-7719
▁interpre	-7720
▁material	-7721
▁nowadays	-7722
▁previous	-7723
▁rejected	-7724
▁salesman	-7725
▁screamed	-7726
▁suffered	-7727
▁community	-7728
▁conscious	-7729
▁exchanged	-7730
▁permitted	-7731
▁screaming	-7732
▁shoulders	-7733
▁volunteer	-7734
▁cigarettes	-7735
▁foreigners	-7736
▁forgetting	-7737
▁incredible	-7738
▁appreciated	-7739
▁coincidence	-7740
▁competition	-7741
▁independent	-7742
họ	-7743
ẳn	-7744
▁ơ	-7745
ero	-7746
nal	-7747
ppy	-7748
rop	-7749
▁14	-7750
▁70	-7751
▁Là	-7752
▁dạ	-7753
▁rò	-7754
▁xí	-7755
▁ảo	-7756
▁ức	-7757
enry	-7758
ials	-7759
iber	-7760
inet	-7761
ingu	-7762
owed	-7763
rots	-7764
sing	-7765
▁Man	-7766
▁Rep	-7767
▁Whe	-7768
▁bùn	-7769
▁cài	-7770
▁fax	-7771
▁fol	-7772
▁hẳn	-7773
▁lấp	-7774
▁nén	-7775
▁nồi	-7776
▁sem	-7777
▁spy	-7778
▁vot	-7779
▁đúc	-7780
alled	-7781
anako	-7782
apore	-7783
clear	-7784
igner	-7785
itary	-7786
ugust	-7787
▁Cong	-7788
▁Hiện	-7789
▁Lucy	-7790
▁Soon	-7791
▁Yumi	-7792
▁bare	-7793
▁bong	-7794
▁crew	-7795
▁cure	-7796
▁data	-7797
▁gạch	-7798
▁hers	-7799
▁hiên	-7800
▁hook	-7801
▁huýt	-7802
▁kiềm	-7803
▁lướt	-7804
▁ngực	-7805
▁nhện	-7806
▁paul	-7807
▁pier	-7808
▁pray	-7809
▁prin	-7810
▁refu	-7811
▁roll	-7812
▁stab	-7813
▁tent	-7814
▁tùng	-7815
▁yumi	-7816
nology	-7817
rapped	-7818
render	-7819
▁1.000	-7820
▁Bible	-7821
▁Susan	-7822
▁Trông	-7823
▁bloss	-7824
▁deals	-7825
▁decor	-7826
▁duyệt	-7827
▁gifts	-7828
▁grows	-7829
▁khuỷu	-7830
▁naked	-7831
▁nhuộm	-7832
▁north	-7833
▁oblig	-7834
▁outdo	-7835
▁rescu	-7836
▁susan	-7837
▁vuông	-7838
▁youth	-7839
ividual	-7840
▁Laurie	-7841
▁altern	-7842
▁brazil	-7843
▁doubts	-7844
▁fridge	-7845
▁frustr	-7846
▁insane	-7847
▁insult	-7848
▁laurie	-7849
▁manner	-7850
▁nerves	-7851
▁silver	-7852
▁waiter	-7853
▁wooden	-7854
▁Station	-7855
▁Whether	-7856
▁barking	-7857
▁billion	-7858
▁candles	-7859
▁charges	-7860
▁closely	-7861
▁comment	-7862
▁journey	-7863
▁listens	-7864
▁measure	-7865
▁proceed	-7866
▁quarrel	-7867
▁quarter	-7868
▁records	-7869
▁sincere	-7870
▁wealthy	-7871
▁accompan	-7872
▁approved	-7873
▁bleeding	-7874
▁clothing	-7875
▁crossing	-7876
▁deceived	-7877
▁entering	-7878
▁examined	-7879
▁families	-7880
▁marathon	-7881
▁murdered	-7882
▁ordinary	-7883
▁original	-7884
▁property	-7885
▁security	-7886
▁transfer	-7887
▁according	-7888
▁attempted	-7889
▁confessed	-7890
▁essential	-7891
▁generally	-7892
▁surrender	-7893
▁treatment	-7894
▁personally	-7895
▁personality	-7896
▁disappointment	-7897
cl	-7898
ok	-7899
ợm	-7900
che	-7901
ipp	-7902
jam	-7903
oci	-7904
ows	-7905
rog	-7906
ếng	-7907
▁En	-7908
▁lê	-7909
▁mỏ	-7910
ales	-7911
elly	-7912
fers	-7913
iles	-7914
izes	-7915
lied	-7916
onse	-7917
tion	-7918
▁Add	-7919
▁Ang	-7920
▁Men	-7921
▁cúm	-7922
▁gầm	-7923
▁kìm	-7924
▁mốt	-7925
▁pau	-7926
▁rat	-7927
▁sam	-7928
▁tip	-7929
▁đan	-7930
Whose	-7931
arant	-7932
itzer	-7933
▁bent	-7934
▁blog	-7935
▁comb	-7936
▁dism	-7937
▁hoài	-7938
▁item	-7939
▁mộng	-7940
▁ngất	-7941
▁ngọc	-7942
▁nhãn	-7943
▁nuốt	-7944
▁pean	-7945
▁pipe	-7946
▁pure	-7947
▁sank	-7948
▁soph	-7949
▁tool	-7950
▁trap	-7951
▁vong	-7952
▁Đánh	-7953
icking	-7954
imming	-7955
ipment	-7956
▁World	-7957
▁aimed	-7958
▁chặng	-7959
▁dedic	-7960
▁depos	-7961
▁frequ	-7962
▁giếng	-7963
▁khung	-7964
▁labor	-7965
▁laund	-7966
▁nghìn	-7967
▁phẳng	-7968
▁poems	-7969
▁pride	-7970
▁serve	-7971
▁sides	-7972
▁steak	-7973
versary	-7974
▁Choose	-7975
▁amazed	-7976
▁branch	-7977
▁choàng	-7978
▁client	-7979
▁colors	-7980
▁defend	-7981
▁hiking	-7982
▁planet	-7983
▁receip	-7984
▁resemb	-7985
▁skills	-7986
▁tempor	-7987
▁affairs	-7988
▁disgust	-7989
▁guarant	-7990
▁numbers	-7991
▁praised	-7992
▁prefers	-7993
▁pronoun	-7994
▁regrets	-7995
▁shortly	-7996
▁swallow	-7997
▁typical	-7998
▁Actually	-7999
▁minister	-8000
▁necklace	-8001
▁official	-8002
▁presents	-8003
▁properly	-8004
▁religion	-8005
▁violence	-8006
▁candidate	-8007
▁challenge	-8008
▁delighted	-8009
▁equipment	-8010
▁invention	-8011
▁lightning	-8012
▁otherwise	-8013
▁postponed	-8014
▁accomplish	-8015
▁collection	-8016
▁compromise	-8017
▁practicing	-8018
▁remarkable	-8019
▁anniversary	-8020
▁handwriting	-8021
▁consequences	-8022
kn	-8023
ẹt	-8024
bur	-8025
imp	-8026
nes	-8027
omi	-8028
uya	-8029
ược	-8030
▁Ke	-8031
▁lô	-8032
▁ve	-8033
ansp	-8034
back	-8035
ches	-8036
days	-8037
itor	-8038
onna	-8039
tail	-8040
▁186	-8041
▁Vấn	-8042
▁bám	-8043
▁bầm	-8044
▁bắp	-8045
▁mos	-8046
▁sid	-8047
▁sầm	-8048
▁tẩy	-8049
▁vây	-8050
▁đun	-8051
aghet	-8052
cence	-8053
ology	-8054
unted	-8055
upied	-8056
wards	-8057
▁Dick	-8058
▁Ngày	-8059
▁buys	-8060
▁chấn	-8061
▁coin	-8062
▁cris	-8063
▁deaf	-8064
▁dele	-8065
▁exec	-8066
▁fake	-8067
▁gain	-8068
▁grap	-8069
▁horn	-8070
▁insp	-8071
▁lawn	-8072
▁liều	-8073
▁maid	-8074
▁neat	-8075
▁ngấy	-8076
▁ngụm	-8077
▁nồng	-8078
▁peel	-8079
▁phớt	-8080
▁rode	-8081
▁shoe	-8082
▁soap	-8083
▁thèm	-8084
▁thỉu	-8085
▁tune	-8086
▁twin	-8087
▁vĩnh	-8088
▁wand	-8089
cience	-8090
erally	-8091
injuku	-8092
otland	-8093
reathe	-8094
▁First	-8095
▁Great	-8096
▁Hello	-8097
▁Hotel	-8098
▁James	-8099
▁March	-8100
▁Right	-8101
▁Think	-8102
▁athle	-8103
▁benef	-8104
▁demon	-8105
▁essay	-8106
▁grade	-8107
▁jewel	-8108
▁khinh	-8109
▁naive	-8110
▁phộng	-8111
▁pills	-8112
▁pulse	-8113
▁resol	-8114
▁shift	-8115
▁waved	-8116
▁withd	-8117
aghetti	-8118
ousands	-8119
▁Anyone	-8120
▁Nagoya	-8121
▁Robert	-8122
▁arrest	-8123
▁faults	-8124
▁fortun	-8125
▁ghosts	-8126
▁grandp	-8127
▁nagoya	-8128
▁rabbit	-8129
▁sunset	-8130
▁troops	-8131
▁actions	-8132
▁becomes	-8133
▁butterf	-8134
▁citizen	-8135
▁conduct	-8136
▁customs	-8137
▁degrees	-8138
▁demands	-8139
▁discour	-8140
▁highest	-8141
▁journal	-8142
▁letting	-8143
▁longest	-8144
▁lottery	-8145
▁pianist	-8146
▁predict	-8147
▁require	-8148
▁rescued	-8149
▁skating	-8150
▁streets	-8151
▁champion	-8152
▁charming	-8153
▁citizens	-8154
▁consists	-8155
▁deadline	-8156
▁director	-8157
▁drowning	-8158
▁hopeless	-8159
▁imagined	-8160
▁internet	-8161
▁powerful	-8162
▁punctual	-8163
▁response	-8164
▁speakers	-8165
▁tourists	-8166
▁treasure	-8167
▁universe	-8168
▁weekends	-8169
▁Generally	-8170
▁Thousands	-8171
▁exception	-8172
▁incorrect	-8173
▁magazines	-8174
▁paintings	-8175
▁principal	-8176
▁automobile	-8177
▁conditions	-8178
▁individual	-8179
▁pretending	-8180
▁established	-8181
▁satisfactory	-8182
▁misunderstood	-8183
4.	-8184
6.	-8185
8.	-8186
ởm	-8187
jud	-8188
min	-8189
mit	-8190
▁cự	-8191
▁wa	-8192
▁xẻ	-8193
▁xổ	-8194
That	-8195
etic	-8196
five	-8197
imum	-8198
iven	-8199
mate	-8200
yard	-8201
▁Bar	-8202
▁Bữa	-8203
▁Hàn	-8204
▁Rec	-8205
▁bio	-8206
▁bun	-8207
▁dám	-8208
▁gội	-8209
▁jun	-8210
▁mex	-8211
▁mến	-8212
▁nảy	-8213
▁rot	-8214
▁rỗi	-8215
Where	-8216
agger	-8217
elled	-8218
ender	-8219
esome	-8220
shima	-8221
▁Hang	-8222
▁Love	-8223
▁Nhân	-8224
▁bass	-8225
▁drum	-8226
▁gang	-8227
▁grab	-8228
▁gray	-8229
▁imit	-8230
▁kick	-8231
▁kênh	-8232
▁lips	-8233
▁loạt	-8234
▁lucy	-8235
▁obst	-8236
▁phil	-8237
▁pink	-8238
▁soul	-8239
▁thơm	-8240
▁trán	-8241
issors	-8242
lympic	-8243
▁North	-8244
▁aston	-8245
▁buses	-8246
▁cared	-8247
▁debts	-8248
▁faint	-8249
▁holds	-8250
▁miser	-8251
▁nerve	-8252
▁nhàng	-8253
▁quyên	-8254
▁schol	-8255
▁sings	-8256
▁tense	-8257
▁thuần	-8258
▁toast	-8259
▁trưng	-8260
▁wiped	-8261
members	-8262
▁August	-8263
▁adults	-8264
▁associ	-8265
▁assure	-8266
▁bitten	-8267
▁candle	-8268
▁carbon	-8269
▁dumped	-8270
▁earned	-8271
▁farmer	-8272
▁growth	-8273
▁hunger	-8274
▁louder	-8275
▁modest	-8276
▁nights	-8277
▁online	-8278
▁overhe	-8279
▁ancient	-8280
▁awesome	-8281
▁awfully	-8282
▁bottles	-8283
▁breathe	-8284
▁cabinet	-8285
▁carrots	-8286
▁cheated	-8287
▁confirm	-8288
▁conserv	-8289
▁deliver	-8290
▁dislike	-8291
▁drawing	-8292
▁enthusi	-8293
▁fastest	-8294
▁haunted	-8295
▁laundry	-8296
▁passing	-8297
▁plastic	-8298
▁process	-8299
▁scenery	-8300
▁slammed	-8301
itzerland	-8302
▁Speaking	-8303
▁absorbed	-8304
▁acquaint	-8305
▁advanced	-8306
▁avoiding	-8307
▁curtains	-8308
▁defeated	-8309
▁opposite	-8310
▁password	-8311
▁patients	-8312
▁reminded	-8313
▁scissors	-8314
▁strongly	-8315
▁suitable	-8316
▁acknowled	-8317
▁attracted	-8318
▁celebrate	-8319
▁classical	-8320
▁dependent	-8321
▁interfere	-8322
▁objection	-8323
▁represent	-8324
▁approached	-8325
▁collecting	-8326
▁literature	-8327
▁prohibited	-8328
▁accompanied	-8329
▁communicate	-8330
▁recommended	-8331
▁significant	-8332
▁translation	-8333
▁sophisticated	-8334
ms	-8335
▁'	-8336
emp	-8337
ips	-8338
ley	-8339
wor	-8340
yal	-8341
zzy	-8342
▁Ab	-8343
▁Ba	-8344
▁Hu	-8345
▁cớ	-8346
▁hề	-8347
▁ôn	-8348
acle	-8349
ebru	-8350
etch	-8351
gers	-8352
inst	-8353
racy	-8354
writ	-8355
▁150	-8356
▁192	-8357
▁Cut	-8358
▁Ngo	-8359
▁Năm	-8360
▁Rom	-8361
▁Trò	-8362
▁Val	-8363
▁ank	-8364
▁awk	-8365
▁ber	-8366
▁búa	-8367
▁bịt	-8368
▁bừa	-8369
▁cáu	-8370
▁cúp	-8371
▁dứt	-8372
▁lén	-8373
▁mải	-8374
▁por	-8375
▁quỳ	-8376
▁rug	-8377
▁rèn	-8378
▁thê	-8379
▁toe	-8380
▁tím	-8381
▁tởm	-8382
▁đam	-8383
amada	-8384
istol	-8385
những	-8386
oline	-8387
osing	-8388
point	-8389
ublic	-8390
▁Port	-8391
▁Stud	-8392
▁Swed	-8393
▁Work	-8394
▁Year	-8395
▁asse	-8396
▁cart	-8397
▁chồn	-8398
▁crop	-8399
▁cảng	-8400
▁cống	-8401
▁fare	-8402
▁load	-8403
▁luộc	-8404
▁mall	-8405
▁onto	-8406
▁role	-8407
▁ruột	-8408
▁sees	-8409
▁slee	-8410
▁stun	-8411
▁trật	-8412
▁đinh	-8413
ession	-8414
thirty	-8415
▁Febru	-8416
▁Trước	-8417
▁bloom	-8418
▁chanh	-8419
▁contr	-8420
▁dates	-8421
▁dizzy	-8422
▁error	-8423
▁falls	-8424
▁handy	-8425
▁huyết	-8426
▁metal	-8427
▁mosqu	-8428
▁postc	-8429
▁prior	-8430
▁scarf	-8431
▁sixty	-8432
▁siêng	-8433
▁tempt	-8434
▁thumb	-8435
▁topic	-8436
▁triết	-8437
▁waist	-8438
working	-8439
▁Dinner	-8440
▁attrib	-8441
▁border	-8442
▁collap	-8443
▁compan	-8444
▁crisis	-8445
▁events	-8446
▁frozen	-8447
▁humili	-8448
▁instin	-8449
▁junior	-8450
▁mexico	-8451
▁pistol	-8452
▁recent	-8453
▁rising	-8454
▁rolled	-8455
▁steady	-8456
▁stress	-8457
▁transp	-8458
aughters	-8459
iroshima	-8460
▁awkward	-8461
▁beating	-8462
▁bowling	-8463
▁carries	-8464
▁charged	-8465
▁handled	-8466
▁painful	-8467
▁receipt	-8468
▁stabbed	-8469
▁swimmer	-8470
▁violent	-8471
▁February	-8472
▁Learning	-8473
▁Remember	-8474
▁Students	-8475
▁achieved	-8476
▁constant	-8477
▁forehead	-8478
▁messages	-8479
▁reported	-8480
▁resigned	-8481
▁semester	-8482
▁switched	-8483
▁throwing	-8484
▁underest	-8485
▁accompany	-8486
▁efficient	-8487
▁fortunate	-8488
▁innocence	-8489
▁spaghetti	-8490
▁suspected	-8491
▁assignment	-8492
▁conclusion	-8493
▁technology	-8494
▁alternative	-8495
▁cooperation	-8496
▁description	-8497
▁millionaire	-8498
▁volunteered	-8499
ca	-8500
yl	-8501
avy	-8502
bar	-8503
fth	-8504
ggy	-8505
ito	-8506
lli	-8507
▁Ak	-8508
▁Fl	-8509
▁Sĩ	-8510
▁ak	-8511
▁bế	-8512
▁cy	-8513
▁ip	-8514
▁nọ	-8515
▁xá	-8516
▁xả	-8517
▁ơi	-8518
ador	-8519
ague	-8520
mble	-8521
race	-8522
rian	-8523
rigu	-8524
sons	-8525
uled	-8526
ural	-8527
vâng	-8528
▁Ber	-8529
▁Jul	-8530
▁San	-8531
▁Str	-8532
▁Tim	-8533
▁Use	-8534
▁chr	-8535
▁eld	-8536
▁jul	-8537
▁lif	-8538
▁lip	-8539
▁lui	-8540
▁lắp	-8541
▁lẻo	-8542
▁mal	-8543
▁mob	-8544
▁ren	-8545
▁rif	-8546
▁rên	-8547
▁rực	-8548
▁súc	-8549
▁tag	-8550
▁trá	-8551
▁unl	-8552
▁ven	-8553
aging	-8554
anent	-8555
ctors	-8556
orted	-8557
osoph	-8558
phere	-8559
▁Arab	-8560
▁Bình	-8561
▁Chào	-8562
▁Cánh	-8563
▁Fred	-8564
▁Janu	-8565
▁Nara	-8566
▁fork	-8567
▁fred	-8568
▁hiếu	-8569
▁khỏa	-8570
▁khớp	-8571
▁kilo	-8572
▁lúng	-8573
▁màng	-8574
▁nara	-8575
▁nhịp	-8576
▁pays	-8577
▁prec	-8578
▁sits	-8579
▁spir	-8580
▁suối	-8581
▁thri	-8582
▁thưa	-8583
▁tiềm	-8584
▁váng	-8585
▁wage	-8586
▁đẳng	-8587
alking	-8588
ending	-8589
istent	-8590
▁Birds	-8591
▁Check	-8592
▁Grand	-8593
▁Young	-8594
▁armed	-8595
▁blown	-8596
▁bones	-8597
▁cakes	-8598
▁dealt	-8599
▁fewer	-8600
▁fifth	-8601
▁liber	-8602
▁meets	-8603
▁overs	-8604
▁prime	-8605
▁safer	-8606
▁shine	-8607
▁subur	-8608
▁thiêu	-8609
▁tires	-8610
▁truly	-8611
▁brilli	-8612
▁brings	-8613
▁claims	-8614
▁copies	-8615
▁design	-8616
▁infect	-8617
▁khoang	-8618
▁nghiệt	-8619
▁reform	-8620
▁relief	-8621
▁January	-8622
▁Shouldn	-8623
▁admired	-8624
▁aggress	-8625
▁balance	-8626
▁blowing	-8627
▁conceal	-8628
▁dismiss	-8629
▁exagger	-8630
▁flights	-8631
▁greatly	-8632
▁intrigu	-8633
▁leaders	-8634
▁limited	-8635
▁privacy	-8636
▁refresh	-8637
▁remarks	-8638
▁showing	-8639
▁trained	-8640
▁vitamin	-8641
▁whoever	-8642
ibilities	-8643
▁Recently	-8644
▁Swimming	-8645
▁affected	-8646
▁attached	-8647
▁cheerful	-8648
▁declared	-8649
▁declined	-8650
▁demonstr	-8651
▁district	-8652
▁forgiven	-8653
▁industry	-8654
▁laughter	-8655
▁military	-8656
▁outdoors	-8657
▁postpone	-8658
▁proposed	-8659
▁required	-8660
▁complaint	-8661
▁correctly	-8662
▁daughters	-8663
▁finishing	-8664
▁practical	-8665
▁resembles	-8666
▁searching	-8667
▁separated	-8668
▁directions	-8669
▁yourselves	-8670
▁approaching	-8671
▁celebrating	-8672
▁contributed	-8673
8,	-8674
Is	-8675
fl	-8676
fo	-8677
ậc	-8678
ịt	-8679
ams	-8680
igr	-8681
ock	-8682
rid	-8683
roe	-8684
tub	-8685
uri	-8686
urs	-8687
▁33	-8688
▁Br	-8689
▁hả	-8690
▁oh	-8691
cope	-8692
esus	-8693
fall	-8694
ford	-8695
geon	-8696
gypt	-8697
iety	-8698
made	-8699
oard	-8700
omas	-8701
omic	-8702
stit	-8703
ucky	-8704
utes	-8705
well	-8706
▁Ear	-8707
▁Eat	-8708
▁Ill	-8709
▁Pre	-8710
▁Tea	-8711
▁USA	-8712
▁Wed	-8713
▁ali	-8714
▁atm	-8715
▁bìa	-8716
▁bậc	-8717
▁dắt	-8718
▁dột	-8719
▁gọt	-8720
▁gục	-8721
▁múa	-8722
▁ped	-8723
▁pud	-8724
▁rew	-8725
▁rậm	-8726
▁shr	-8727
▁sir	-8728
▁ske	-8729
▁sạc	-8730
▁vít	-8731
▁vấp	-8732
▁vốn	-8733
ially	-8734
inate	-8735
jamas	-8736
licop	-8737
liver	-8738
orney	-8739
pting	-8740
▁7:30	-8741
▁8:00	-8742
▁8:30	-8743
▁Cats	-8744
▁Cách	-8745
▁Face	-8746
▁Mill	-8747
▁Mond	-8748
▁bark	-8749
▁bỉnh	-8750
▁coal	-8751
▁diệt	-8752
▁fate	-8753
▁guns	-8754
▁indo	-8755
▁junk	-8756
▁khao	-8757
▁laws	-8758
▁lion	-8759
▁muỗi	-8760
▁ngáy	-8761
▁ngợm	-8762
▁nhấc	-8763
▁root	-8764
▁shel	-8765
▁sigh	-8766
▁subs	-8767
▁tear	-8768
▁tước	-8769
▁Điển	-8770
igning	-8771
writer	-8772
▁Dương	-8773
▁Egypt	-8774
▁Linda	-8775
▁ambul	-8776
▁blond	-8777
▁broad	-8778
▁bướng	-8779
▁comic	-8780
▁cường	-8781
▁dated	-8782
▁exams	-8783
▁flour	-8784
▁gorge	-8785
▁khuấy	-8786
▁knees	-8787
▁linda	-8788
▁loses	-8789
▁minds	-8790
▁oppon	-8791
▁sidew	-8792
▁slipp	-8793
▁solid	-8794
▁spoon	-8795
▁squee	-8796
▁stare	-8797
▁steps	-8798
▁stiff	-8799
▁techn	-8800
▁thịnh	-8801
▁utter	-8802
▁walls	-8803
▁đương	-8804
ception	-8805
estival	-8806
lection	-8807
▁Greece	-8808
▁Wednes	-8809
▁aboard	-8810
▁affair	-8811
▁argued	-8812
▁astron	-8813
▁chairs	-8814
▁formed	-8815
▁grapes	-8816
▁ladies	-8817
▁loaded	-8818
▁phoned	-8819
▁prince	-8820
▁proced	-8821
▁profit	-8822
▁resort	-8823
▁sights	-8824
▁smokes	-8825
▁snowed	-8826
▁target	-8827
▁teleph	-8828
▁upside	-8829
▁visits	-8830
▁yelled	-8831
▁Luckily	-8832
▁Parents	-8833
▁achieve	-8834
▁bathtub	-8835
▁boiling	-8836
▁helicop	-8837
▁minimum	-8838
▁nuclear	-8839
▁observe	-8840
▁pajamas	-8841
▁passion	-8842
▁savings	-8843
▁seconds	-8844
▁section	-8845
▁sending	-8846
▁Anything	-8847
▁Congress	-8848
▁accurate	-8849
▁ambition	-8850
▁attorney	-8851
▁bankrupt	-8852
▁blossoms	-8853
▁doorbell	-8854
▁elephant	-8855
▁gorgeous	-8856
▁homeless	-8857
▁majority	-8858
▁murderer	-8859
▁promoted	-8860
▁Valentine	-8861
▁affection	-8862
▁attending	-8863
▁cooperate	-8864
▁gradually	-8865
▁ignorance	-8866
▁miserable	-8867
▁permanent	-8868
▁religious	-8869
▁remembers	-8870
▁requested	-8871
▁seventeen	-8872
▁temporary	-8873
▁terrified	-8874
▁expression	-8875
▁incredibly	-8876
▁throughout	-8877
▁Switzerland	-8878
▁conditioner	-8879
▁reluctantly	-8880
▁conservative	-8881
▁investigation	-8882
3.	-8883
ũa	-8884
̣c	-8885
ein	-8886
ody	-8887
ona	-8888
ulf	-8889
vey	-8890
ợng	-8891
▁El	-8892
▁Gu	-8893
▁ID	-8894
▁Or	-8895
▁Pa	-8896
▁Se	-8897
▁rỡ	-8898
▁tê	-8899
▁tụ	-8900
▁đệ	-8901
Will	-8902
ania	-8903
bits	-8904
cies	-8905
istr	-8906
moon	-8907
ores	-8908
rios	-8909
vors	-8910
▁Bức	-8911
▁Cập	-8912
▁Dav	-8913
▁Dis	-8914
▁Exp	-8915
▁Ham	-8916
▁Hit	-8917
▁Los	-8918
▁Mid	-8919
▁Mus	-8920
▁Mục	-8921
▁Nor	-8922
▁Rốt	-8923
▁Tur	-8924
▁aid	-8925
▁bee	-8926
▁bug	-8927
▁bóp	-8928
▁caf	-8929
▁cột	-8930
▁dom	-8931
▁dơi	-8932
▁khẽ	-8933
▁lux	-8934
▁mòn	-8935
▁nin	-8936
▁nét	-8937
▁rãi	-8938
▁scr	-8939
▁tap	-8940
▁thò	-8941
▁đũa	-8942
adium	-8943
endar	-8944
ommod	-8945
ugged	-8946
verty	-8947
xteen	-8948
▁East	-8949
▁Fill	-8950
▁Kinh	-8951
▁Pick	-8952
▁Save	-8953
▁Tues	-8954
▁Wood	-8955
▁bars	-8956
▁boil	-8957
▁buôn	-8958
▁cope	-8959
▁cups	-8960
▁east	-8961
▁forb	-8962
▁fuel	-8963
▁giục	-8964
▁hạng	-8965
▁iPad	-8966
▁ipad	-8967
▁kiêu	-8968
▁link	-8969
▁liqu	-8970
▁lùng	-8971
▁nick	-8972
▁owed	-8973
▁stro	-8974
▁tape	-8975
▁thai	-8976
▁torn	-8977
▁trơn	-8978
▁wink	-8979
ishing	-8980
lected	-8981
person	-8982
sticks	-8983
▁Drink	-8984
▁Esper	-8985
▁Sally	-8986
▁atmos	-8987
▁camer	-8988
▁coast	-8989
▁decre	-8990
▁disgu	-8991
▁fails	-8992
▁files	-8993
▁freak	-8994
▁inher	-8995
▁khẳng	-8996
▁loyal	-8997
▁porch	-8998
▁quang	-8999
▁rifle	-9000
▁sauce	-9001
▁shown	-9002
▁sting	-9003
▁toler	-9004
▁tower	-9005
▁trash	-9006
▁uneas	-9007
ificent	-9008
neyland	-9009
riosity	-9010
▁Making	-9011
▁applau	-9012
▁colder	-9013
▁export	-9014
▁fixing	-9015
▁fluent	-9016
▁jewels	-9017
▁khoanh	-9018
▁nhượng	-9019
▁recipe	-9020
▁region	-9021
▁remove	-9022
▁statue	-9023
▁stores	-9024
▁thoáng	-9025
▁tricks	-9026
▁voices	-9027
▁wisdom	-9028
▁Angeles	-9029
▁Frankly	-9030
▁Mondays	-9031
▁Neither	-9032
▁angeles	-9033
▁arrives	-9034
▁blocked	-9035
▁custody	-9036
▁defense	-9037
▁hurting	-9038
▁indoors	-9039
▁justice	-9040
▁leading	-9041
▁matches	-9042
▁mistook	-9043
▁musical	-9044
▁nghiêng	-9045
▁partner	-9046
▁perhaps	-9047
▁poverty	-9048
▁prescri	-9049
▁reality	-9050
▁replace	-9051
▁rewrite	-9052
▁solving	-9053
▁stadium	-9054
▁stretch	-9055
▁stunned	-9056
▁surface	-9057
▁victims	-9058
▁yelling	-9059
▁calendar	-9060
▁checking	-9061
▁contains	-9062
▁deserved	-9063
▁forecast	-9064
▁kilogram	-9065
▁mosquito	-9066
▁physical	-9067
▁precious	-9068
▁princess	-9069
▁repeated	-9070
▁roommate	-9071
▁Wednesday	-9072
▁ambulance	-9073
▁brilliant	-9074
▁cellphone	-9075
▁delivered	-9076
▁described	-9077
▁developed	-9078
▁honeymoon	-9079
▁influence	-9080
▁irritated	-9081
▁pollution	-9082
▁pronounce	-9083
▁sentences	-9084
▁someplace	-9085
▁California	-9086
▁atmosphere	-9087
▁california	-9088
▁constantly	-9089
▁frequently	-9090
▁impressive	-9091
▁production	-9092
▁magnificent	-9093
▁suggestions	-9094
▁grandparents	-9095
2.	-9096
có	-9097
ho	-9098
ũi	-9099
500	-9100
dka	-9101
ena	-9102
eno	-9103
for	-9104
ika	-9105
lim	-9106
ota	-9107
win	-9108
▁5%	-9109
▁60	-9110
▁80	-9111
▁Dù	-9112
▁dy	-9113
▁eo	-9114
▁nạ	-9115
▁rì	-9116
▁ớt	-9117
ades	-9118
anes	-9119
asso	-9120
berg	-9121
down	-9122
erly	-9123
esar	-9124
fire	-9125
load	-9126
ords	-9127
seas	-9128
▁Bel	-9129
▁Dri	-9130
▁Red	-9131
▁bru	-9132
▁cot	-9133
▁côi	-9134
▁dig	-9135
▁dug	-9136
▁fem	-9137
▁hel	-9138
▁heo	-9139
▁hyp	-9140
▁hàm	-9141
▁hái	-9142
▁jar	-9143
▁keo	-9144
▁lẻn	-9145
▁mas	-9146
▁mỉa	-9147
▁nag	-9148
▁ráp	-9149
▁tab	-9150
▁tit	-9151
▁vỉa	-9152
▁ếch	-9153
aches	-9154
comed	-9155
heart	-9156
known	-9157
oleon	-9158
onest	-9159
orthy	-9160
stead	-9161
umbus	-9162
unken	-9163
▁1960	-9164
▁1990	-9165
▁7:00	-9166
▁Beat	-9167
▁Ever	-9168
▁Five	-9169
▁Grab	-9170
▁Jiro	-9171
▁King	-9172
▁Mats	-9173
▁abol	-9174
▁acts	-9175
▁bone	-9176
▁cops	-9177
▁cuộn	-9178
▁dare	-9179
▁diag	-9180
▁giẫm	-9181
▁hoạn	-9182
▁jiro	-9183
▁kỉnh	-9184
▁lồng	-9185
▁mech	-9186
▁mánh	-9187
▁ngạo	-9188
▁nhăn	-9189
▁orph	-9190
▁pace	-9191
▁pear	-9192
▁phối	-9193
▁quặc	-9194
▁reck	-9195
▁stew	-9196
▁toes	-9197
▁trào	-9198
▁trêu	-9199
▁unre	-9200
▁vers	-9201
atform	-9202
eduled	-9203
enture	-9204
ombone	-9205
ometer	-9206
tained	-9207
▁Clean	-9208
▁Emily	-9209
▁Greek	-9210
▁Maria	-9211
▁Ngoài	-9212
▁Phòng	-9213
▁Roger	-9214
▁Santa	-9215
▁Speak	-9216
▁Stand	-9217
▁Thành	-9218
▁adapt	-9219
▁alert	-9220
▁arrog	-9221
▁basic	-9222
▁beans	-9223
▁bunch	-9224
▁cello	-9225
▁depri	-9226
▁ditch	-9227
▁esper	-9228
▁folks	-9229
▁greed	-9230
▁horiz	-9231
▁lacks	-9232
▁logic	-9233
▁maria	-9234
▁outra	-9235
▁peter	-9236
▁phông	-9237
▁puppy	-9238
▁scand	-9239
▁shave	-9240
▁skept	-9241
▁thoái	-9242
▁tuxed	-9243
▁vodka	-9244
▁wheat	-9245
instein	-9246
▁10.000	-9247
▁Korean	-9248
▁Russia	-9249
▁Tanaka	-9250
▁autumn	-9251
▁batter	-9252
▁breaks	-9253
▁bumped	-9254
▁collea	-9255
▁cotton	-9256
▁defeat	-9257
▁desert	-9258
▁eighty	-9259
▁fellow	-9260
▁fooled	-9261
▁forbid	-9262
▁horror	-9263
▁insist	-9264
▁landed	-9265
▁myster	-9266
▁permit	-9267
▁pretti	-9268
▁priest	-9269
▁proved	-9270
▁quarre	-9271
▁reward	-9272
▁robert	-9273
▁shirts	-9274
▁states	-9275
▁sticks	-9276
▁stream	-9277
▁tanaka	-9278
▁tasted	-9279
▁turkey	-9280
▁Pacific	-9281
▁Tuesday	-9282
▁compare	-9283
▁dresses	-9284
▁drunken	-9285
▁excused	-9286
▁expects	-9287
▁fainted	-9288
▁jewelry	-9289
▁massage	-9290
▁packing	-9291
▁planted	-9292
▁puzzled	-9293
▁sixteen	-9294
▁spilled	-9295
▁spoiled	-9296
▁suburbs	-9297
▁wrapped	-9298
▁Facebook	-9299
▁accommod	-9300
▁backyard	-9301
▁behaving	-9302
▁clarinet	-9303
▁coughing	-9304
▁customer	-9305
▁designed	-9306
▁distingu	-9307
▁festival	-9308
▁gambling	-9309
▁governor	-9310
▁meetings	-9311
▁memories	-9312
▁overcome	-9313
▁overseas	-9314
▁restroom	-9315
▁scarcely	-9316
▁separate	-9317
▁shooting	-9318
▁sympathy	-9319
▁terrific	-9320
▁trombone	-9321
▁welcomed	-9322
▁Esperanto	-9323
▁Francisco	-9324
▁companies	-9325
▁curiosity	-9326
▁emotional	-9327
▁esperanto	-9328
▁francisco	-9329
▁philosoph	-9330
▁potential	-9331
▁presented	-9332
▁receiving	-9333
▁reception	-9334
▁scheduled	-9335
▁Apparently	-9336
▁anticipate	-9337
▁chopsticks	-9338
▁distracted	-9339
▁increasing	-9340
▁scientists	-9341
▁necessarily	-9342
▁restaurants	-9343
▁accomplished	-9344
▁acknowledged	-9345
▁organization	-9346
9,	-9347
ox	-9348
tr	-9349
òm	-9350
ùm	-9351
Who	-9352
acu	-9353
dro	-9354
esa	-9355
ids	-9356
iev	-9357
õng	-9358
▁Hi	-9359
▁Te	-9360
▁ax	-9361
▁hà	-9362
▁kg	-9363
▁rè	-9364
▁úc	-9365
▁đà	-9366
▁đế	-9367
anas	-9368
anda	-9369
angh	-9370
anna	-9371
aste	-9372
fess	-9373
iece	-9374
kind	-9375
lley	-9376
mper	-9377
olic	-9378
oudy	-9379
quet	-9380
uyến	-9381
what	-9382
▁Boy	-9383
▁Col	-9384
▁Des	-9385
▁Had	-9386
▁Nap	-9387
▁Old	-9388
▁Sam	-9389
▁Spr	-9390
▁ant	-9391
▁apt	-9392
▁avo	-9393
▁fee	-9394
▁gãi	-9395
▁hói	-9396
▁mix	-9397
▁mộc	-9398
▁pal	-9399
▁reb	-9400
▁rụt	-9401
▁sax	-9402
▁sip	-9403
▁slo	-9404
▁vọt	-9405
▁xui	-9406
▁xáo	-9407
▁Đôi	-9408
▁đậm	-9409
▁đới	-9410
ander	-9411
aptop	-9412
armed	-9413
chair	-9414
eases	-9415
essed	-9416
thern	-9417
uries	-9418
water	-9419
▁6:00	-9420
▁Công	-9421
▁Trên	-9422
▁Walk	-9423
▁arch	-9424
▁bach	-9425
▁bald	-9426
▁barn	-9427
▁bịch	-9428
▁chéo	-9429
▁chục	-9430
▁corn	-9431
▁doub	-9432
▁exit	-9433
▁flor	-9434
▁grin	-9435
▁hike	-9436
▁hint	-9437
▁manh	-9438
▁mark	-9439
▁ngừa	-9440
▁nhộn	-9441
▁pets	-9442
▁phun	-9443
▁phím	-9444
▁repl	-9445
▁ripe	-9446
▁snee	-9447
▁thìa	-9448
▁wins	-9449
▁xích	-9450
▁xông	-9451
cation	-9452
coming	-9453
employ	-9454
eteria	-9455
imated	-9456
levant	-9457
ligent	-9458
napped	-9459
ursday	-9460
usions	-9461
▁1,000	-9462
▁About	-9463
▁Cathy	-9464
▁Light	-9465
▁chief	-9466
▁colds	-9467
▁creep	-9468
▁dread	-9469
▁dried	-9470
▁fried	-9471
▁funds	-9472
▁fussy	-9473
▁image	-9474
▁items	-9475
▁khuất	-9476
▁nails	-9477
▁phiêu	-9478
▁roads	-9479
▁roger	-9480
▁snake	-9481
▁thạch	-9482
▁vague	-9483
▁vương	-9484
▁wrist	-9485
inating	-9486
lexible	-9487
viously	-9488
▁Arabic	-9489
▁During	-9490
▁Hallow	-9491
▁Spring	-9492
▁Unless	-9493
▁accuse	-9494
▁beaten	-9495
▁behalf	-9496
▁belief	-9497
▁blouse	-9498
▁boiled	-9499
▁calcul	-9500
▁cloudy	-9501
▁counts	-9502
▁extent	-9503
▁fields	-9504
▁forces	-9505
▁glance	-9506
▁issues	-9507
▁laptop	-9508
▁locker	-9509
▁option	-9510
▁reduce	-9511
▁rumors	-9512
▁thrown	-9513
▁trusts	-9514
▁tuxedo	-9515
lleyball	-9516
▁Finally	-9517
▁Playing	-9518
▁avoided	-9519
▁behaved	-9520
▁contain	-9521
▁contemp	-9522
▁cousins	-9523
▁deposit	-9524
▁follows	-9525
▁harvest	-9526
▁lawyers	-9527
▁pencils	-9528
▁regards	-9529
▁reserve	-9530
▁scandal	-9531
▁scratch	-9532
▁shelter	-9533
▁smelled	-9534
▁tightly	-9535
▁tricked	-9536
▁unlucky	-9537
▁victory	-9538
▁Thursday	-9539
▁acquired	-9540
▁cocktail	-9541
▁comments	-9542
▁creative	-9543
▁doubtful	-9544
▁objected	-9545
▁platform	-9546
▁reserved	-9547
▁respects	-9548
▁sensible	-9549
▁shortage	-9550
▁software	-9551
▁somewhat	-9552
▁starving	-9553
▁strawber	-9554
▁thankful	-9555
▁Halloween	-9556
▁Roosevelt	-9557
▁Singapore	-9558
▁addressed	-9559
▁breathing	-9560
▁cafeteria	-9561
▁collapsed	-9562
▁collected	-9563
▁criticism	-9564
▁disappear	-9565
▁dismissed	-9566
▁expressed	-9567
▁foreigner	-9568
▁guarantee	-9569
▁kidnapped	-9570
▁materials	-9571
▁predicted	-9572
▁reluctant	-9573
▁roosevelt	-9574
▁secretive	-9575
▁thousands	-9576
▁helicopter	-9577
▁irrelevant	-9578
▁punishment	-9579
▁reconsider	-9580
▁typewriter	-9581
▁experienced	-9582
▁investigate	-9583
▁participate	-9584
▁accidentally	-9585
jo	-9586
la	-9587
nó	-9588
Ướ	-9589
ỏm	-9590
ari	-9591
aut	-9592
bag	-9593
eed	-9594
ogo	-9595
ram	-9596
see	-9597
tại	-9598
uch	-9599
Ước	-9600
▁$3	-9601
▁21	-9602
▁27	-9603
▁Po	-9604
▁củ	-9605
▁hẻ	-9606
▁ấp	-9607
asty	-9608
cles	-9609
enna	-9610
epte	-9611
hama	-9612
ille	-9613
kirt	-9614
kule	-9615
okow	-9616
pack	-9617
raft	-9618
reak	-9619
uded	-9620
uild	-9621
uous	-9622
▁10.	-9623
▁Ice	-9624
▁Joe	-9625
▁Mil	-9626
▁Mặt	-9627
▁Nar	-9628
▁Pat	-9629
▁Sao	-9630
▁Tuy	-9631
▁bul	-9632
▁cas	-9633
▁ghê	-9634
▁gũi	-9635
▁huệ	-9636
▁hắt	-9637
▁lon	-9638
▁léo	-9639
▁lót	-9640
▁mài	-9641
▁mãn	-9642
▁ngộ	-9643
▁nín	-9644
▁nạp	-9645
▁phé	-9646
▁rụi	-9647
▁sẹo	-9648
▁tro	-9649
▁voy	-9650
▁wid	-9651
▁woo	-9652
▁xẻo	-9653
▁đẫm	-9654
▁Ước	-9655
acity	-9656
alley	-9657
annel	-9658
ayama	-9659
cated	-9660
cript	-9661
ctive	-9662
eness	-9663
ieves	-9664
igger	-9665
irmed	-9666
istry	-9667
krain	-9668
sters	-9669
xford	-9670
▁Asia	-9671
▁Four	-9672
▁Half	-9673
▁Jill	-9674
▁Part	-9675
▁Seen	-9676
▁Thai	-9677
▁Then	-9678
▁Trời	-9679
▁cage	-9680
▁chol	-9681
▁code	-9682
▁dorm	-9683
▁envy	-9684
▁fits	-9685
▁flir	-9686
▁hoan	-9687
▁khan	-9688
▁khéo	-9689
▁khóe	-9690
▁kidn	-9691
▁ngẫu	-9692
▁ngửa	-9693
▁odds	-9694
▁outs	-9695
▁pump	-9696
▁quẩn	-9697
▁samp	-9698
▁shin	-9699
▁slip	-9700
▁thầy	-9701
▁tidy	-9702
▁tiny	-9703
▁trục	-9704
▁vách	-9705
▁đoan	-9706
cement	-9707
entive	-9708
kulele	-9709
ocracy	-9710
ophone	-9711
orters	-9712
urning	-9713
verted	-9714
worthy	-9715
▁10:30	-9716
▁2.000	-9717
▁Carol	-9718
▁Haven	-9719
▁Helen	-9720
▁Kelly	-9721
▁Septe	-9722
▁agent	-9723
▁analy	-9724
▁ankle	-9725
▁attic	-9726
▁awoke	-9727
▁carol	-9728
▁chuck	-9729
▁disli	-9730
▁focus	-9731
▁fries	-9732
▁homet	-9733
▁impol	-9734
▁invol	-9735
▁lemon	-9736
▁lường	-9737
▁meter	-9738
▁nhánh	-9739
▁queen	-9740
▁robot	-9741
▁shade	-9742
▁skate	-9743
▁sword	-9744
▁tests	-9745
▁timid	-9746
▁trace	-9747
▁votes	-9748
▁wreck	-9749
▁yokow	-9750
▁Chuyến	-9751
▁Health	-9752
▁Jessie	-9753
▁Narita	-9754
▁backed	-9755
▁betray	-9756
▁blocks	-9757
▁centim	-9758
▁checks	-9759
▁circle	-9760
▁errand	-9761
▁estate	-9762
▁female	-9763
▁formal	-9764
▁former	-9765
▁greedy	-9766
▁groups	-9767
▁heated	-9768
▁melted	-9769
▁messed	-9770
▁misses	-9771
▁mobile	-9772
▁narita	-9773
▁ninety	-9774
▁oxygen	-9775
▁parade	-9776
▁parcel	-9777
▁planes	-9778
▁praise	-9779
▁refuge	-9780
▁rested	-9781
▁review	-9782
▁ripped	-9783
▁rotten	-9784
▁screen	-9785
▁source	-9786
▁string	-9787
▁treats	-9788
▁uneasy	-9789
▁voyage	-9790
ordinary	-9791
▁Airport	-9792
▁Michael	-9793
▁Profess	-9794
▁William	-9795
▁anytime	-9796
▁appoint	-9797
▁bananas	-9798
▁boarded	-9799
▁created	-9800
▁decline	-9801
▁depress	-9802
▁effects	-9803
▁excuses	-9804
▁expense	-9805
▁forgave	-9806
▁guessed	-9807
▁horizon	-9808
▁imports	-9809
▁include	-9810
▁insects	-9811
▁interse	-9812
▁jumping	-9813
▁leaning	-9814
▁michael	-9815
▁operate	-9816
▁raising	-9817
▁sailing	-9818
▁shaking	-9819
▁shallow	-9820
▁slavery	-9821
▁snowman	-9822
▁trapped	-9823
▁travels	-9824
▁ukulele	-9825
▁whistle	-9826
▁worries	-9827
▁Napoleon	-9828
▁Yokohama	-9829
▁activity	-9830
▁belonged	-9831
▁bringing	-9832
▁deserted	-9833
▁employed	-9834
▁facebook	-9835
▁fountain	-9836
▁helpless	-9837
▁hometown	-9838
▁knocking	-9839
▁occupied	-9840
▁offended	-9841
▁overcoat	-9842
▁pathetic	-9843
▁rational	-9844
▁sidewalk	-9845
▁stopping	-9846
▁tomatoes	-9847
▁training	-9848
▁troubled	-9849
▁uniforms	-9850
▁yokoween	-9851
▁Jefferson	-9852
▁Obviously	-9853
▁September	-9854
▁advertise	-9855
▁alcoholic	-9856
▁associate	-9857
▁complains	-9858
▁jefferson	-9859
▁overheard	-9860
▁relatives	-9861
▁stretched	-9862
▁textbooks	-9863
▁valentine	-9864
▁acceptable	-9865
▁aggressive	-9866
▁astonished	-9867
▁blackboard	-9868
▁connection	-9869
▁criticized	-9870
▁frustrated	-9871
▁generation	-9872
▁humiliated	-9873
▁management	-9874
▁protection	-9875
▁temptation	-9876
▁volleyball	-9877
▁Shakespeare	-9878
▁conclusions	-9879
▁destination	-9880
▁differently	-9881
▁discouraged	-9882
▁distinguish	-9883
▁hardworking	-9884
▁interrupted	-9885
▁arrangements	-9886
▁negotiations	-9887
",	-9888
7,	-9889
bi	-9890
eo	-9891
hi	-9892
ij	-9893
yd	-9894
ộp	-9895
ụa	-9896
▁Ả	-9897
▁ủ	-9898
May	-9899
Why	-9900
arc	-9901
aru	-9902
asp	-9903
aus	-9904
ham	-9905
imb	-9906
isp	-9907
met	-9908
nob	-9909
oog	-9910
ube	-9911
ula	-9912
vis	-9913
zes	-9914
ênh	-9915
▁Bộ	-9916
▁dở	-9917
▁vớ	-9918
▁wo	-9919
▁Để	-9920
▁ốc	-9921
Vâng	-9922
arsh	-9923
brew	-9924
crif	-9925
exas	-9926
ican	-9927
ichi	-9928
rily	-9929
rows	-9930
uine	-9931
▁Buy	-9932
▁Hầu	-9933
▁Min	-9934
▁Như	-9935
▁Rem	-9936
▁Run	-9937
▁Rập	-9938
▁Tak	-9939
▁Tay	-9940
▁Thế	-9941
▁Thủ	-9942
▁Thứ	-9943
▁bôi	-9944
▁bơm	-9945
▁bẩm	-9946
▁chà	-9947
▁cào	-9948
▁cưa	-9949
▁der	-9950
▁dim	-9951
▁dốc	-9952
▁gân	-9953
▁joe	-9954
▁kẹp	-9955
▁lãi	-9956
▁nạt	-9957
▁nấm	-9958
▁nới	-9959
▁rẩy	-9960
▁thự	-9961
▁tát	-9962
acles	-9963
ardon	-9964
atisf	-9965
attle	-9966
eable	-9967
ental	-9968
eters	-9969
inals	-9970
onven	-9971
pered	-9972
while	-9973
▁Cont	-9974
▁Mars	-9975
▁Pull	-9976
▁Thẩm	-9977
▁Uống	-9978
▁Viet	-9979
▁Wasn	-9980
▁West	-9981
▁bake	-9982
▁begg	-9983
▁bina	-9984
▁chap	-9985
▁châm	-9986
▁chớp	-9987
▁dirt	-9988
▁dyed	-9989
▁grav	-9990
▁laun	-9991
▁menu	-9992
▁mort	-9993
▁ngắm	-9994
▁ninh	-9995
▁pork	-9996
▁situ	-9997
▁skip	-9998
▁ster	-9999
▁sảng	-10000
▁tank	-10001
▁toss	-10002
▁wire	-10003
▁xiếc	-10004
anghai	-10005
aughty	-10006
igence	-10007
igrant	-10008
istics	-10009
▁3.000	-10010
▁Brian	-10011
▁Happy	-10012
▁Harry	-10013
▁Korea	-10014
▁Start	-10015
▁admin	-10016
▁adopt	-10017
▁blink	-10018
▁brace	-10019
▁cheat	-10020
▁cliff	-10021
▁cooks	-10022
▁curry	-10023
▁duyên	-10024
▁faced	-10025
▁forms	-10026
▁harsh	-10027
▁humid	-10028
▁jimmy	-10029
▁mercy	-10030
▁motiv	-10031
▁parks	-10032
▁penny	-10033
▁purch	-10034
▁shore	-10035
▁spicy	-10036
▁spoil	-10037
▁steam	-10038
▁teles	-10039
▁trinh	-10040
▁verge	-10041
▁weeds	-10042
▁windy	-10043
▁woozy	-10044
assador	-10045
itement	-10046
lloween	-10047
lympics	-10048
usiness	-10049
▁Kyushu	-10050
▁Little	-10051
▁Sooner	-10052
▁Taking	-10053
▁Wouldn	-10054
▁barber	-10055
▁campus	-10056
▁canada	-10057
▁circus	-10058
▁create	-10059
▁debate	-10060
▁factor	-10061
▁flames	-10062
▁inches	-10063
▁kindly	-10064
▁kyushu	-10065
▁lifted	-10066
▁loving	-10067
▁manual	-10068
▁paused	-10069
▁prayed	-10070
▁prejud	-10071
▁prepar	-10072
▁runner	-10073
▁sacrif	-10074
▁sheets	-10075
▁signal	-10076
▁temple	-10077
▁trương	-10078
▁tunnel	-10079
▁weighs	-10080
appiness	-10081
▁Illness	-10082
▁Instead	-10083
▁Reading	-10084
▁Vietnam	-10085
▁Whoever	-10086
▁choices	-10087
▁closing	-10088
▁deceive	-10089
▁deepest	-10090
▁destroy	-10091
▁figures	-10092
▁flipped	-10093
▁genuine	-10094
▁handbag	-10095
▁harmful	-10096
▁hitting	-10097
▁insists	-10098
▁intends	-10099
▁majored	-10100
▁miracle	-10101
▁naughty	-10102
▁pudding	-10103
▁pulling	-10104
▁reports	-10105
▁skipped	-10106
▁somehow	-10107
▁spinach	-10108
▁spirits	-10109
▁version	-10110
▁wanting	-10111
▁william	-10112
▁Republic	-10113
▁bothered	-10114
▁crawling	-10115
▁critical	-10116
▁educated	-10117
▁emotions	-10118
▁eyesight	-10119
▁hundreds	-10120
▁imported	-10121
▁negative	-10122
▁notified	-10123
▁overtime	-10124
▁postcard	-10125
▁replaced	-10126
▁services	-10127
▁smoothly	-10128
▁specific	-10129
▁superior	-10130
▁treating	-10131
▁Canadians	-10132
▁admission	-10133
▁applauded	-10134
▁attentive	-10135
▁contacted	-10136
▁dedicated	-10137
▁forbidden	-10138
▁halloween	-10139
▁kilograms	-10140
▁regretted	-10141
▁returning	-10142
▁skeptical	-10143
▁telescope	-10144
▁uncertain	-10145
▁vegetable	-10146
▁apparently	-10147
▁disturbing	-10148
▁fascinated	-10149
▁medication	-10150
▁thoughtful	-10151
▁vegetarian	-10152
▁worthwhile	-10153
▁chairperson	-10154
▁interpreter	-10155
▁remembering	-10156
▁concentrating	-10157
▁congratulated	-10158
▁extraordinary	-10159
..	-10160
cr	-10161
rs	-10162
ua	-10163
za	-10164
úm	-10165
Are	-10166
abe	-10167
ami	-10168
bal	-10169
bes	-10170
clo	-10171
eor	-10172
gir	-10173
hel	-10174
hew	-10175
mel	-10176
oka	-10177
ral	-10178
raq	-10179
sis	-10180
urd	-10181
xas	-10182
ửng	-10183
▁36	-10184
▁91	-10185
▁Ta	-10186
▁Vi	-10187
▁cò	-10188
▁dê	-10189
▁ko	-10190
▁mỡ	-10191
▁tẻ	-10192
▁út	-10193
When	-10194
aped	-10195
ashi	-10196
cest	-10197
ckey	-10198
cted	-10199
ctic	-10200
ders	-10201
free	-10202
ilyn	-10203
inna	-10204
nedy	-10205
step	-10206
uits	-10207
uman	-10208
umes	-10209
▁120	-10210
▁184	-10211
▁20%	-10212
▁400	-10213
▁Bad	-10214
▁Bur	-10215
▁Dem	-10216
▁Khu	-10217
▁Mad	-10218
▁Mùa	-10219
▁Mắt	-10220
▁Rất	-10221
▁Six	-10222
▁Ste	-10223
▁bớt	-10224
▁cấu	-10225
▁cẩu	-10226
▁cục	-10227
▁dàn	-10228
▁eth	-10229
▁gre	-10230
▁gắt	-10231
▁hót	-10232
▁hẻm	-10233
▁lid	-10234
▁lít	-10235
▁lụa	-10236
▁mac	-10237
▁mah	-10238
▁mut	-10239
▁nep	-10240
▁nit	-10241
▁nĩa	-10242
▁pad	-10243
▁pes	-10244
▁ria	-10245
▁sin	-10246
▁sói	-10247
▁trữ	-10248
▁xót	-10249
▁xộn	-10250
▁yến	-10251
acing	-10252
artin	-10253
ategy	-10254
chúng	-10255
cribe	-10256
enter	-10257
going	-10258
guard	-10259
ijing	-10260
inded	-10261
lines	-10262
lling	-10263
oxide	-10264
quila	-10265
storm	-10266
uyama	-10267
▁1980	-10268
▁Food	-10269
▁Ford	-10270
▁Hàng	-10271
▁Kumi	-10272
▁Lake	-10273
▁Like	-10274
▁Move	-10275
▁Pass	-10276
▁Quit	-10277
▁Sato	-10278
▁Wind	-10279
▁abst	-10280
▁bart	-10281
▁cane	-10282
▁canh	-10283
▁cott	-10284
▁deer	-10285
▁diss	-10286
▁drag	-10287
▁fist	-10288
▁ford	-10289
▁khía	-10290
▁leaf	-10291
▁leak	-10292
▁loaf	-10293
▁lũng	-10294
▁meas	-10295
▁orch	-10296
▁phào	-10297
▁prim	-10298
▁purs	-10299
▁quận	-10300
▁rout	-10301
▁rụng	-10302
▁sarc	-10303
▁sato	-10304
▁stir	-10305
▁sững	-10306
▁wrap	-10307
handed	-10308
inting	-10309
▁David	-10310
▁Enjoy	-10311
▁Jimmy	-10312
▁Quite	-10313
▁Texas	-10314
▁areas	-10315
▁banjo	-10316
▁boats	-10317
▁brian	-10318
▁burns	-10319
▁chain	-10320
▁chris	-10321
▁confl	-10322
▁dolls	-10323
▁drama	-10324
▁evacu	-10325
▁flies	-10326
▁harry	-10327
▁heels	-10328
▁hilar	-10329
▁holes	-10330
▁james	-10331
▁loser	-10332
▁moral	-10333
▁muỗng	-10334
▁nasty	-10335
▁nhiếp	-10336
▁owned	-10337
▁phích	-10338
▁pregn	-10339
▁rocks	-10340
▁seeds	-10341
▁sheet	-10342
▁snows	-10343
▁sober	-10344
▁swept	-10345
▁therm	-10346
▁title	-10347
▁trial	-10348
▁trump	-10349
▁tròng	-10350
▁types	-10351
▁unmar	-10352
esterol	-10353
igrants	-10354
llywood	-10355
▁10,000	-10356
▁ancest	-10357
▁atomic	-10358
▁bachel	-10359
▁baking	-10360
▁ballet	-10361
▁blonde	-10362
▁brakes	-10363
▁campai	-10364
▁chased	-10365
▁creepy	-10366
▁duties	-10367
▁gently	-10368
▁hunter	-10369
▁kitten	-10370
▁makeup	-10371
▁merely	-10372
▁nghênh	-10373
▁orphan	-10374
▁owners	-10375
▁recall	-10376
▁sewing	-10377
▁shaken	-10378
▁shaved	-10379
▁theirs	-10380
▁towels	-10381
▁volume	-10382
ulations	-10383
▁Doctors	-10384
▁Johnson	-10385
▁Mexican	-10386
▁abandon	-10387
▁amusing	-10388
▁angrily	-10389
▁archite	-10390
▁bedtime	-10391
▁brushed	-10392
▁causing	-10393
▁clicked	-10394
▁clients	-10395
▁cricket	-10396
▁despise	-10397
▁earring	-10398
▁elderly	-10399
▁existed	-10400
▁exposed	-10401
▁farther	-10402
▁grammar	-10403
▁heading	-10404
▁humming	-10405
▁imitate	-10406
▁intense	-10407
▁lending	-10408
▁lowered	-10409
▁physics	-10410
▁precise	-10411
▁refuses	-10412
▁richest	-10413
▁surgeon	-10414
▁tempted	-10415
▁trigger	-10416
▁variety	-10417
fortunate	-10418
istration	-10419
▁Compared	-10420
▁Nowadays	-10421
▁choosing	-10422
▁deprived	-10423
▁diligent	-10424
▁diseases	-10425
▁exploded	-10426
▁flirting	-10427
▁gasoline	-10428
▁ignoring	-10429
▁impolite	-10430
▁normally	-10431
▁overlook	-10432
▁politely	-10433
▁prettier	-10434
▁shouting	-10435
▁sickness	-10436
▁startled	-10437
▁strategy	-10438
▁subjects	-10439
▁teenager	-10440
▁thrilled	-10441
▁troubles	-10442
▁unemploy	-10443
▁wandered	-10444
▁weakness	-10445
▁youngest	-10446
▁Professor	-10447
▁Saturdays	-10448
▁abilities	-10449
▁believing	-10450
▁chemistry	-10451
▁confusing	-10452
▁gentlemen	-10453
▁hilarious	-10454
▁immediate	-10455
▁improving	-10456
▁overnight	-10457
▁policemen	-10458
▁procedure	-10459
▁respected	-10460
▁saxophone	-10461
▁signature	-10462
▁supported	-10463
▁villagers	-10464
▁activities	-10465
▁attributed	-10466
▁excitement	-10467
▁explaining	-10468
▁journalist	-10469
▁permitting	-10470
▁questioned	-10471
▁regardless	-10472
▁thoroughly	-10473
▁volunteers	-10474
▁anticipated	-10475
▁businessman	-10476
▁cholesterol	-10477
▁competitive	-10478
▁experiences	-10479
▁fascinating	-10480
▁shakespeare	-10481
▁transferred	-10482
▁unfortunate	-10483
▁announcement	-10484
▁underestimate	-10485
.?	-10486
0,	-10487
4,	-10488
BI	-10489
cô	-10490
oe	-10491
ât	-10492
▁а	-10493
Did	-10494
Not	-10495
ban	-10496
cet	-10497
ffe	-10498
has	-10499
hic	-10500
hin	-10501
iar	-10502
ige	-10503
mic	-10504
por	-10505
ria	-10506
thy	-10507
udy	-10508
und	-10509
war	-10510
ệch	-10511
▁26	-10512
▁35	-10513
▁Ap	-10514
▁Cr	-10515
▁Cá	-10516
▁Hà	-10517
▁II	-10518
▁Ra	-10519
▁bạ	-10520
▁bọ	-10521
▁dẻ	-10522
▁ep	-10523
▁hố	-10524
▁ở	-10525
anji	-10526
ansl	-10527
bies	-10528
cher	-10529
erce	-10530
fact	-10531
four	-10532
imid	-10533
name	-10534
rate	-10535
ugal	-10536
▁Ant	-10537
▁Atl	-10538
▁Aut	-10539
▁Cửa	-10540
▁Den	-10541
▁FBI	-10542
▁Gia	-10543
▁Hội	-10544
▁Kho	-10545
▁Mac	-10546
▁Mat	-10547
▁Nao	-10548
▁Pay	-10549
▁Ret	-10550
▁Roy	-10551
▁Sue	-10552
▁Sum	-10553
▁Tra	-10554
▁Tòa	-10555
▁Wil	-10556
▁bén	-10557
▁câm	-10558
▁cốt	-10559
▁cồn	-10560
▁cụt	-10561
▁fle	-10562
▁gin	-10563
▁gớm	-10564
▁két	-10565
▁loo	-10566
▁lôi	-10567
▁mug	-10568
▁mâu	-10569
▁mạt	-10570
▁net	-10571
▁náu	-10572
▁que	-10573
▁rud	-10574
▁rùa	-10575
▁sue	-10576
▁tak	-10577
▁ted	-10578
▁tul	-10579
▁tuệ	-10580
▁wil	-10581
▁xay	-10582
▁xoa	-10583
▁xắn	-10584
▁đắm	-10585
Thank	-10586
Would	-10587
apted	-10588
ashim	-10589
check	-10590
cking	-10591
gment	-10592
iders	-10593
inton	-10594
istan	-10595
ooked	-10596
owers	-10597
owing	-10598
tingu	-10599
umiko	-10600
▁Anne	-10601
▁Boys	-10602
▁Flor	-10603
▁Gold	-10604
▁Hong	-10605
▁Hung	-10606
▁Kong	-10607
▁Rich	-10608
▁Supp	-10609
▁Talk	-10610
▁beth	-10611
▁buồm	-10612
▁chen	-10613
▁chổi	-10614
▁clue	-10615
▁cola	-10616
▁cành	-10617
▁damp	-10618
▁fled	-10619
▁frog	-10620
▁gara	-10621
▁gear	-10622
▁goss	-10623
▁grat	-10624
▁inex	-10625
▁inqu	-10626
▁intr	-10627
▁khái	-10628
▁lánh	-10629
▁lượn	-10630
▁mask	-10631
▁mush	-10632
▁ngáp	-10633
▁ngứa	-10634
▁nude	-10635
▁pour	-10636
▁raft	-10637
▁rust	-10638
▁seas	-10639
▁sets	-10640
▁silk	-10641
▁suôn	-10642
▁sưng	-10643
▁toét	-10644
▁viêm	-10645
aneous	-10646
incing	-10647
itated	-10648
itious	-10649
mbling	-10650
minded	-10651
ormous	-10652
ounced	-10653
pocket	-10654
utions	-10655
▁2,000	-10656
▁Black	-10657
▁Chàng	-10658
▁Green	-10659
▁Henry	-10660
▁Moder	-10661
▁Ocean	-10662
▁River	-10663
▁Study	-10664
▁Teach	-10665
▁Trave	-10666
▁Words	-10667
▁advis	-10668
▁alley	-10669
▁banks	-10670
▁bluff	-10671
▁boast	-10672
▁bribe	-10673
▁brick	-10674
▁burnt	-10675
▁displ	-10676
▁flute	-10677
▁frown	-10678
▁gains	-10679
▁glimp	-10680
▁heads	-10681
▁hears	-10682
▁henry	-10683
▁indic	-10684
▁joint	-10685
▁leads	-10686
▁mixed	-10687
▁opens	-10688
▁overd	-10689
▁pairs	-10690
▁paran	-10691
▁range	-10692
▁rates	-10693
▁renew	-10694
▁ruins	-10695
▁scale	-10696
▁ships	-10697
▁signs	-10698
▁spect	-10699
▁stink	-10700
▁sweep	-10701
▁texas	-10702
▁theft	-10703
▁thung	-10704
▁thuẫn	-10705
▁tiger	-10706
▁trips	-10707
▁valid	-10708
▁wings	-10709
athetic	-10710
respect	-10711
▁Allies	-10712
▁Except	-10713
▁Fortun	-10714
▁Middle	-10715
▁Miller	-10716
▁Winter	-10717
▁absurd	-10718
▁agrees	-10719
▁beggar	-10720
▁blames	-10721
▁booked	-10722
▁dashed	-10723
▁execut	-10724
▁faucet	-10725
▁fierce	-10726
▁grocer	-10727
▁heater	-10728
▁hotels	-10729
▁injury	-10730
▁jessie	-10731
▁laughs	-10732
▁needle	-10733
▁plates	-10734
▁remote	-10735
▁robber	-10736
▁shoved	-10737
▁skinny	-10738
▁thread	-10739
▁Anybody	-10740
▁Beijing	-10741
▁Florida	-10742
▁Promise	-10743
▁Science	-10744
▁adapted	-10745
▁athlete	-10746
▁balloon	-10747
▁biology	-10748
▁cameras	-10749
▁closest	-10750
▁compass	-10751
▁cottage	-10752
▁crawled	-10753
▁exhaust	-10754
▁extingu	-10755
▁farmers	-10756
▁feeding	-10757
▁flooded	-10758
▁florida	-10759
▁forgets	-10760
▁grandch	-10761
▁intimid	-10762
▁landing	-10763
▁mailbox	-10764
▁methods	-10765
▁moments	-10766
▁museums	-10767
▁obliged	-10768
▁olympic	-10769
▁painter	-10770
▁peanuts	-10771
▁produce	-10772
▁propose	-10773
▁publish	-10774
▁pushing	-10775
▁release	-10776
▁shining	-10777
▁shuttle	-10778
▁slapped	-10779
▁smashed	-10780
▁stuffed	-10781
▁substit	-10782
▁tequila	-10783
▁thunder	-10784
▁tourist	-10785
▁trumpet	-10786
▁visitor	-10787
▁whiskey	-10788
▁Business	-10789
▁Scotland	-10790
▁approval	-10791
▁bracelet	-10792
▁campaign	-10793
▁catching	-10794
▁conflict	-10795
▁deciding	-10796
▁discover	-10797
▁earrings	-10798
▁enormous	-10799
▁expelled	-10800
▁farewell	-10801
▁freezing	-10802
▁inconven	-10803
▁knitting	-10804
▁lipstick	-10805
▁location	-10806
▁machines	-10807
▁maintain	-10808
▁measures	-10809
▁memorize	-10810
▁mushroom	-10811
▁observed	-10812
▁opponent	-10813
▁programs	-10814
▁quarters	-10815
▁quitting	-10816
▁refugees	-10817
▁relaxing	-10818
▁restless	-10819
▁resulted	-10820
▁rudeness	-10821
▁scholars	-10822
▁secretly	-10823
▁severely	-10824
▁silently	-10825
▁spelling	-10826
▁sticking	-10827
▁surround	-10828
▁withdraw	-10829
▁backwards	-10830
▁convicted	-10831
▁economics	-10832
▁entertain	-10833
▁hesitated	-10834
▁instincts	-10835
▁interests	-10836
▁intrigued	-10837
▁nervously	-10838
▁offensive	-10839
▁paperwork	-10840
▁practiced	-10841
▁protected	-10842
▁protested	-10843
▁survivors	-10844
▁unmarried	-10845
▁whispered	-10846
▁Australian	-10847
▁belongings	-10848
▁exhibition	-10849
▁immigrants	-10850
▁maintained	-10851
▁microphone	-10852
▁protective	-10853
▁retirement	-10854
▁telephoned	-10855
▁Fortunately	-10856
▁advertising	-10857
▁hospitality	-10858
▁politicians	-10859
▁acquaintance	-10860
▁congratulate	-10861
▁enthusiastic	-10862
▁intelligence	-10863
▁interrupting	-10864
▁intersection	-10865
▁representative	-10866
da	-10867
Can	-10868
ado	-10869
asm	-10870
boe	-10871
cco	-10872
ene	-10873
hem	-10874
ode	-10875
uba	-10876
vid	-10877
▁1.	-10878
▁23	-10879
▁45	-10880
▁90	-10881
▁Ow	-10882
▁cm	-10883
▁dí	-10884
▁lơ	-10885
▁nơ	-10886
▁rộ	-10887
▁rủ	-10888
▁sờ	-10889
▁tạ	-10890
▁ya	-10891
▁ầm	-10892
abet	-10893
abor	-10894
ails	-10895
aned	-10896
aren	-10897
bara	-10898
bert	-10899
burg	-10900
erap	-10901
food	-10902
ique	-10903
jong	-10904
keep	-10905
lept	-10906
lers	-10907
llen	-10908
ngle	-10909
nuts	-10910
oped	-10911
rase	-10912
resp	-10913
swer	-10914
utch	-10915
verb	-10916
wife	-10917
yaki	-10918
zard	-10919
▁180	-10920
▁190	-10921
▁191	-10922
▁Ben	-10923
▁Cam	-10924
▁Cor	-10925
▁Emp	-10926
▁Hải	-10927
▁Hỏi	-10928
▁Mas	-10929
▁Nag	-10930
▁Ros	-10931
▁Sec	-10932
▁Sen	-10933
▁Ted	-10934
▁Tit	-10935
▁Tóc	-10936
▁amp	-10937
▁bon	-10938
▁bum	-10939
▁bộn	-10940
▁dỏm	-10941
▁fbi	-10942
▁gum	-10943
▁gặt	-10944
▁hàn	-10945
▁hốt	-10946
▁kìa	-10947
▁lun	-10948
▁nga	-10949
▁nhở	-10950
▁plu	-10951
▁rúc	-10952
▁sấm	-10953
▁thổ	-10954
▁tia	-10955
▁toa	-10956
▁toi	-10957
▁uốn	-10958
▁wag	-10959
▁wig	-10960
▁xao	-10961
▁đai	-10962
abuki	-10963
amoto	-10964
arded	-10965
arwin	-10966
asaki	-10967
asive	-10968
brush	-10969
endid	-10970
erent	-10971
essim	-10972
etime	-10973
house	-10974
ibuya	-10975
idges	-10976
immed	-10977
inent	-10978
ocrat	-10979
oover	-10980
rated	-10981
ships	-10982
steps	-10983
uming	-10984
venue	-10985
ville	-10986
▁9:00	-10987
▁Bank	-10988
▁Cath	-10989
▁Char	-10990
▁Chúa	-10991
▁Desp	-10992
▁Dogs	-10993
▁Lisa	-10994
▁Long	-10995
▁Sign	-10996
▁Wake	-10997
▁Wall	-10998
▁beng	-10999
▁bold	-11000
▁bổng	-11001
▁crad	-11002
▁dang	-11003
▁dear	-11004
▁dial	-11005
▁diều	-11006
▁duỗi	-11007
▁fulf	-11008
▁hood	-11009
▁jury	-11010
▁khơi	-11011
▁khốc	-11012
▁manu	-11013
▁melt	-11014
▁mice	-11015
▁ngặt	-11016
▁niêm	-11017
▁oboe	-11018
▁pole	-11019
▁pony	-11020
▁rehe	-11021
▁shad	-11022
▁thác	-11023
▁thép	-11024
▁unne	-11025
▁wool	-11026
▁zero	-11027
▁Đông	-11028
athers	-11029
ficial	-11030
graphy	-11031
kraine	-11032
minute	-11033
orical	-11034
rowave	-11035
▁Count	-11036
▁Cross	-11037
▁Daddy	-11038
▁Earth	-11039
▁Keiko	-11040
▁Music	-11041
▁Throw	-11042
▁Under	-11043
▁abuse	-11044
▁blush	-11045
▁brake	-11046
▁bride	-11047
▁canoe	-11048
▁cases	-11049
▁chược	-11050
▁drift	-11051
▁exped	-11052
▁ghiếc	-11053
▁goals	-11054
▁gonna	-11055
▁guilt	-11056
▁kanji	-11057
▁keiko	-11058
▁khoan	-11059
▁medal	-11060
▁muddy	-11061
▁nghẹt	-11062
▁ngoạc	-11063
▁ngùng	-11064
▁nhược	-11065
▁print	-11066
▁quant	-11067
▁quãng	-11068
▁risky	-11069
▁roast	-11070
▁rugby	-11071
▁sorts	-11072
▁triều	-11073
▁union	-11074
▁unple	-11075
▁vehic	-11076
asayama	-11077
cessary	-11078
gentina	-11079
iration	-11080
▁Answer	-11081
▁Change	-11082
▁Chuyện	-11083
▁Eating	-11084
▁Follow	-11085
▁Hanako	-11086
▁Hilton	-11087
▁Hitler	-11088
▁Indian	-11089
▁Seeing	-11090
▁Thomas	-11091
▁Thượng	-11092
▁Wilson	-11093
▁accord	-11094
▁addict	-11095
▁aliens	-11096
▁babies	-11097
▁burger	-11098
▁carved	-11099
▁casual	-11100
▁cheeks	-11101
▁cooler	-11102
▁cowboy	-11103
▁devast	-11104
▁exceed	-11105
▁extend	-11106
▁facing	-11107
▁fatter	-11108
▁freeze	-11109
▁gallon	-11110
▁golfer	-11111
▁gossip	-11112
▁guards	-11113
▁hanako	-11114
▁heaven	-11115
▁helmet	-11116
▁hilton	-11117
▁jungle	-11118
▁karate	-11119
▁killer	-11120
▁luxury	-11121
▁mostly	-11122
▁nephew	-11123
▁nguyền	-11124
▁nguệch	-11125
▁origin	-11126
▁parted	-11127
▁peanut	-11128
▁pessim	-11129
▁prompt	-11130
▁rubber	-11131
▁secure	-11132
▁seized	-11133
▁sensed	-11134
▁sleeve	-11135
▁smiles	-11136
▁sorrow	-11137
▁spider	-11138
▁summit	-11139
▁tigers	-11140
▁tossed	-11141
▁unique	-11142
▁weaker	-11143
▁wilson	-11144
▁worthy	-11145
▁wounds	-11146
inations	-11147
lexander	-11148
▁Beatles	-11149
▁Everest	-11150
▁Finland	-11151
▁Indians	-11152
▁Strange	-11153
▁benefit	-11154
▁besides	-11155
▁bridges	-11156
▁chimney	-11157
▁clapped	-11158
▁cleaner	-11159
▁confuse	-11160
▁crushed	-11161
▁cutting	-11162
▁dangers	-11163
▁deliber	-11164
▁digging	-11165
▁dioxide	-11166
▁dispute	-11167
▁element	-11168
▁exports	-11169
▁fiction	-11170
▁filling	-11171
▁freezer	-11172
▁glimpse	-11173
▁grammat	-11174
▁halfway	-11175
▁heating	-11176
▁impulse	-11177
▁kidnapp	-11178
▁liberal	-11179
▁nations	-11180
▁profits	-11181
▁refrain	-11182
▁robbery	-11183
▁shaving	-11184
▁sinking	-11185
▁suffers	-11186
▁talents	-11187
▁thieves	-11188
▁Jacksons	-11189
▁Portugal	-11190
▁Shanghai	-11191
▁Shinjuku	-11192
▁addicted	-11193
▁appealed	-11194
▁articles	-11195
▁assigned	-11196
▁bicycles	-11197
▁boarding	-11198
▁capacity	-11199
▁darkness	-11200
▁delicate	-11201
▁discreet	-11202
▁flexible	-11203
▁grounded	-11204
▁happiest	-11205
▁hardware	-11206
▁homesick	-11207
▁identify	-11208
▁ignorant	-11209
▁immature	-11210
▁included	-11211
▁injuries	-11212
▁inspired	-11213
▁insulted	-11214
▁inviting	-11215
▁motioned	-11216
▁movement	-11217
▁offering	-11218
▁paranoid	-11219
▁peaceful	-11220
▁pregnant	-11221
▁produced	-11222
▁regarded	-11223
▁shinjuku	-11224
▁slippery	-11225
▁speeches	-11226
▁splendid	-11227
▁watering	-11228
▁adventure	-11229
▁ambitious	-11230
▁butterfly	-11231
▁confirmed	-11232
▁decorated	-11233
▁determine	-11234
▁disguised	-11235
▁encourage	-11236
▁existence	-11237
▁footsteps	-11238
▁furnished	-11239
▁gathering	-11240
▁groceries	-11241
▁housework	-11242
▁inflation	-11243
▁inherited	-11244
▁microwave	-11245
▁negotiate	-11246
▁overslept	-11247
▁performed	-11248
▁promising	-11249
▁proofread	-11250
▁refreshed	-11251
▁regularly	-11252
▁sarcastic	-11253
▁slightest	-11254
▁struggled	-11255
▁suspended	-11256
▁talkative	-11257
▁teenagers	-11258
▁whichever	-11259
▁worthless	-11260
▁ambassador	-11261
▁babysitter	-11262
▁background	-11263
▁expedition	-11264
▁instrument	-11265
▁intentions	-11266
▁peacefully	-11267
▁persistent	-11268
▁pickpocket	-11269
▁profession	-11270
▁unpleasant	-11271
▁accommodate	-11272
▁compartment	-11273
▁countryside	-11274
▁differences	-11275
▁interpreted	-11276
▁questioning	-11277
▁stomachache	-11278
▁thermometer	-11279
▁traditional	-11280
▁unnecessary	-11281
▁considerable	-11282
▁dictionaries	-11283
▁fingerprints	-11284
▁prescription	-11285
▁reservations	-11286
▁International	-11287
▁opportunities	-11288
▁possibilities	-11289
".	-11290
5%	-11291
7.	-11292
FO	-11293
tz	-11294
ui	-11295
ơu	-11296
Let	-11297
alo	-11298
asy	-11299
atr	-11300
err	-11301
ira	-11302
iểm	-11303
khi	-11304
oed	-11305
off	-11306
ran	-11307
rey	-11308
ums	-11309
urt	-11310
ật	-11311
▁$2	-11312
▁Hồ	-11313
▁Kể	-11314
▁La	-11315
▁Lý	-11316
▁Mã	-11317
▁Từ	-11318
▁rh	-11319
▁rể	-11320
▁Áo	-11321
▁ưa	-11322
abit	-11323
aker	-11324
avor	-11325
edge	-11326
ette	-11327
evit	-11328
gues	-11329
hold	-11330
illa	-11331
ipes	-11332
mare	-11333
mark	-11334
mers	-11335
ngee	-11336
obey	-11337
omin	-11338
ping	-11339
sive	-11340
▁10%	-11341
▁Chủ	-11342
▁Cẩn	-11343
▁Edu	-11344
▁Fat	-11345
▁Hak	-11346
▁Mal	-11347
▁Nik	-11348
▁Nơi	-11349
▁Que	-11350
▁Rio	-11351
▁Sad	-11352
▁Ser	-11353
▁Sữa	-11354
▁Ter	-11355
▁Too	-11356
▁UFO	-11357
▁Vẫn	-11358
▁Vậy	-11359
▁Wel	-11360
▁bin	-11361
▁boo	-11362
▁băm	-11363
▁bập	-11364
▁cav	-11365
▁cốp	-11366
▁cựu	-11367
▁dãy	-11368
▁fab	-11369
▁gan	-11370
▁god	-11371
▁gót	-11372
▁hen	-11373
▁hển	-11374
▁hổn	-11375
▁idi	-11376
▁mes	-11377
▁mọt	-11378
▁nic	-11379
▁nik	-11380
▁nut	-11381
▁nêu	-11382
▁nôi	-11383
▁rap	-11384
▁ray	-11385
▁rio	-11386
▁rât	-11387
▁rìu	-11388
▁tôm	-11389
▁tỉa	-11390
▁vul	-11391
▁đãi	-11392
abled	-11393
aming	-11394
ampoo	-11395
atory	-11396
aware	-11397
aysia	-11398
bling	-11399
cling	-11400
eliev	-11401
estic	-11402
fight	-11403
gates	-11404
itled	-11405
lands	-11406
onica	-11407
▁Chân	-11408
▁City	-11409
▁Drop	-11410
▁Feel	-11411
▁Hard	-11412
▁Inca	-11413
▁Jeff	-11414
▁Kans	-11415
▁Lend	-11416
▁Mark	-11417
▁Mong	-11418
▁Must	-11419
▁Mười	-11420
▁Nove	-11421
▁Shin	-11422
▁alph	-11423
▁alto	-11424
▁ants	-11425
▁banh	-11426
▁bees	-11427
▁chảo	-11428
▁coma	-11429
▁cuts	-11430
▁dict	-11431
▁duff	-11432
▁dull	-11433
▁gest	-11434
▁harb	-11435
▁heal	-11436
▁hãng	-11437
▁hươu	-11438
▁isol	-11439
▁jeff	-11440
▁jerk	-11441
▁lets	-11442
▁lisa	-11443
▁liền	-11444
▁musc	-11445
▁một	-11446
▁ngạt	-11447
▁nhồi	-11448
▁numb	-11449
▁outf	-11450
▁phác	-11451
▁phái	-11452
▁phẫn	-11453
▁plug	-11454
▁reun	-11455
▁snea	-11456
▁sườn	-11457
▁tack	-11458
▁thể	-11459
▁tiêm	-11460
▁tone	-11461
▁untr	-11462
▁vacu	-11463
▁việt	-11464
▁volc	-11465
▁vươn	-11466
▁yoko	-11467
▁Điểm	-11468
▁Đồng	-11469
action	-11470
irties	-11471
nament	-11472
ourned	-11473
ousers	-11474
placed	-11475
rictly	-11476
▁House	-11477
▁Jesus	-11478
▁arrow	-11479
▁balls	-11480
▁beers	-11481
▁chips	-11482
▁comed	-11483
▁compl	-11484
▁cured	-11485
▁dough	-11486
▁drawn	-11487
▁float	-11488
▁forth	-11489
▁grace	-11490
▁hydro	-11491
▁hypoc	-11492
▁khiết	-11493
▁label	-11494
▁loanh	-11495
▁marks	-11496
▁nhiễu	-11497
▁noted	-11498
▁outst	-11499
▁perse	-11500
▁phước	-11501
▁repay	-11502
▁rings	-11503
▁shuff	-11504
▁slice	-11505
▁snugg	-11506
▁spont	-11507
▁stain	-11508
▁sướng	-11509
▁teens	-11510
▁thiền	-11511
▁unrel	-11512
▁vượng	-11513
▁wages	-11514
▁wanna	-11515
▁waves	-11516
▁winds	-11517
▁wrest	-11518
▁xuồng	-11519
imately	-11520
inished	-11521
respond	-11522
umption	-11523
▁Berlin	-11524
▁Friend	-11525
▁Sweden	-11526
▁Thames	-11527
▁Yamada	-11528
▁banana	-11529
▁berlin	-11530
▁bungee	-11531
▁busier	-11532
▁cattle	-11533
▁cradle	-11534
▁darker	-11535
▁emphas	-11536
▁habits	-11537
▁hockey	-11538
▁inevit	-11539
▁khuyết	-11540
▁knives	-11541
▁legend	-11542
▁observ	-11543
▁oppose	-11544
▁rubbed	-11545
▁sample	-11546
▁satell	-11547
▁scored	-11548
▁senior	-11549
▁slower	-11550
▁snacks	-11551
▁strang	-11552
▁studio	-11553
▁tables	-11554
▁therap	-11555
▁toothp	-11556
▁valley	-11557
▁widely	-11558
▁yamada	-11559
atisfied	-11560
ifferent	-11561
▁Believe	-11562
▁Channel	-11563
▁Despite	-11564
▁Nations	-11565
▁Swedish	-11566
▁Welcome	-11567
▁affects	-11568
▁amounts	-11569
▁bathing	-11570
▁blaming	-11571
▁blushed	-11572
▁cancell	-11573
▁cheered	-11574
▁cracked	-11575
▁crowbar	-11576
▁disobey	-11577
▁drivers	-11578
▁experts	-11579
▁focused	-11580
▁fooling	-11581
▁greater	-11582
▁hamster	-11583
▁happily	-11584
▁hardest	-11585
▁heavier	-11586
▁joining	-11587
▁lighter	-11588
▁logical	-11589
▁manages	-11590
▁mansion	-11591
▁monster	-11592
▁pierced	-11593
▁possess	-11594
▁punched	-11595
▁railway	-11596
▁rehears	-11597
▁repairs	-11598
▁returns	-11599
▁sailors	-11600
▁seventy	-11601
▁shampoo	-11602
▁snoring	-11603
▁sources	-11604
▁starved	-11605
▁trading	-11606
▁utterly	-11607
▁European	-11608
▁November	-11609
▁Strictly	-11610
▁Wherever	-11611
▁accusing	-11612
▁adjusted	-11613
▁alphabet	-11614
▁amounted	-11615
▁athletic	-11616
▁backpack	-11617
▁beginner	-11618
▁blankets	-11619
▁bluffing	-11620
▁breathed	-11621
▁chemical	-11622
▁childish	-11623
▁chuckled	-11624
▁concerts	-11625
▁employee	-11626
▁evacuate	-11627
▁function	-11628
▁handling	-11629
▁honestly	-11630
▁hostages	-11631
▁inclined	-11632
▁includes	-11633
▁judgment	-11634
▁launched	-11635
▁lifetime	-11636
▁magician	-11637
▁manufact	-11638
▁marrying	-11639
▁mechanic	-11640
▁mustache	-11641
▁narrowly	-11642
▁novelist	-11643
▁produces	-11644
▁raincoat	-11645
▁reaction	-11646
▁relevant	-11647
▁scotland	-11648
▁squeezed	-11649
▁stressed	-11650
▁supplied	-11651
▁tendency	-11652
▁tolerate	-11653
▁trousers	-11654
▁unbeliev	-11655
▁upcoming	-11656
▁withdrew	-11657
▁Europeans	-11658
▁Happiness	-11659
▁Hiroshima	-11660
▁abolished	-11661
▁ancestors	-11662
▁assembled	-11663
▁classmate	-11664
▁concealed	-11665
▁connected	-11666
▁criminals	-11667
▁discovery	-11668
▁dishonest	-11669
▁exercises	-11670
▁factories	-11671
▁forgetful	-11672
▁gratitude	-11673
▁hiroshima	-11674
▁misplaced	-11675
▁nightmare	-11676
▁objective	-11677
▁relations	-11678
▁Englishman	-11679
▁accountant	-11680
▁controlled	-11681
▁correspond	-11682
▁disrespect	-11683
▁exercising	-11684
▁footprints	-11685
▁inevitable	-11686
▁investment	-11687
▁opposition	-11688
▁persuasive	-11689
▁philosophy	-11690
▁resolution	-11691
▁separately	-11692
▁speechless	-11693
▁struggling	-11694
▁Mathematics	-11695
▁arrangement	-11696
▁centimeters	-11697
▁convenience	-11698
▁cooperative	-11699
▁improvement	-11700
▁outstanding	-11701
▁resignation	-11702
▁scholarship	-11703
▁spontaneous	-11704
▁sympathetic	-11705
▁translating	-11706
▁trustworthy	-11707
▁appointments	-11708
▁photographer	-11709
▁grandchildren	-11710
▁investigating	-11711
-1	-11712
1,	-11713
ae	-11714
bl	-11715
ơm	-11716
▁0	-11717
▁ồ	-11718
ais	-11719
amu	-11720
aud	-11721
cia	-11722
cảm	-11723
eat	-11724
eba	-11725
ela	-11726
eva	-11727
gam	-11728
iel	-11729
omy	-11730
ono	-11731
reg	-11732
ros	-11733
rot	-11734
sts	-11735
ths	-11736
▁1,	-11737
▁31	-11738
▁Ca	-11739
▁Mc	-11740
▁Mi	-11741
▁Ms	-11742
▁bệ	-11743
▁sỉ	-11744
▁võ	-11745
▁xỉ	-11746
▁xứ	-11747
▁ây	-11748
:30.	-11749
agne	-11750
alty	-11751
aoke	-11752
aulo	-11753
bble	-11754
boat	-11755
cony	-11756
cycl	-11757
enny	-11758
etro	-11759
gium	-11760
iana	-11761
inos	-11762
kish	-11763
lord	-11764
nged	-11765
ntil	-11766
oles	-11767
omez	-11768
ques	-11769
rait	-11770
thes	-11771
tied	-11772
unci	-11773
usse	-11774
zart	-11775
zuki	-11776
▁123	-11777
▁160	-11778
▁177	-11779
▁179	-11780
▁181	-11781
▁189	-11782
▁250	-11783
▁Bud	-11784
▁CDs	-11785
▁Dep	-11786
▁Ele	-11787
▁Hồi	-11788
▁Lee	-11789
▁Lời	-11790
▁Ngh	-11791
▁Set	-11792
▁Sil	-11793
▁Toy	-11794
▁Trẻ	-11795
▁Vui	-11796
▁bóc	-11797
▁cày	-11798
▁cối	-11799
▁cụm	-11800
▁củi	-11801
▁daz	-11802
▁hak	-11803
▁hấu	-11804
▁hụt	-11805
▁ine	-11806
▁jan	-11807
▁kén	-11808
▁lap	-11809
▁lũy	-11810
▁lầy	-11811
▁mưu	-11812
▁mịn	-11813
▁nod	-11814
▁nấc	-11815
▁pam	-11816
▁pir	-11817
▁poo	-11818
▁rin	-11819
▁rip	-11820
▁rủa	-11821
▁sed	-11822
▁sâm	-11823
▁tặc	-11824
▁tỏi	-11825
▁upd	-11826
▁vet	-11827
▁voc	-11828
▁vác	-11829
▁vẹt	-11830
▁đặn	-11831
▁đệm	-11832
abeth	-11833
acked	-11834
amped	-11835
appro	-11836
arten	-11837
bbing	-11838
enses	-11839
estra	-11840
ggled	-11841
inson	-11842
lfare	-11843
lying	-11844
ordan	-11845
piece	-11846
proof	-11847
quate	-11848
raced	-11849
ulars	-11850
▁2003	-11851
▁Bell	-11852
▁Book	-11853
▁Bánh	-11854
▁Cold	-11855
▁Deal	-11856
▁Dece	-11857
▁Fore	-11858
▁Hill	-11859
▁Okin	-11860
▁Phản	-11861
▁Rain	-11862
▁Roll	-11863
▁auto	-11864
▁buzz	-11865
▁cert	-11866
▁chốt	-11867
▁chộp	-11868
▁cows	-11869
▁còng	-11870
▁diêm	-11871
▁diệu	-11872
▁dram	-11873
▁eyeb	-11874
▁giễu	-11875
▁goog	-11876
▁grip	-11877
▁gull	-11878
▁hack	-11879
▁hypo	-11880
▁hăng	-11881
▁jeep	-11882
▁khâu	-11883
▁khốn	-11884
▁lăng	-11885
▁lưới	-11886
▁lửng	-11887
▁mult	-11888
▁navy	-11889
▁nest	-11890
▁okin	-11891
▁pepp	-11892
▁phơi	-11893
▁plot	-11894
▁quát	-11895
▁quạt	-11896
▁rank	-11897
▁rear	-11898
▁riot	-11899
▁rồng	-11900
▁sach	-11901
▁sack	-11902
▁site	-11903
▁skis	-11904
▁slim	-11905
▁soda	-11906
▁subm	-11907
▁subt	-11908
▁sủng	-11909
▁thắc	-11910
▁tick	-11911
▁tide	-11912
▁trop	-11913
▁tâng	-11914
▁vest	-11915
▁yach	-11916
active	-11917
alling	-11918
atoeba	-11919
etchup	-11920
headed	-11921
idents	-11922
iously	-11923
iroshi	-11924
pering	-11925
phones	-11926
shield	-11927
ulture	-11928
vation	-11929
▁11:00	-11930
▁3,000	-11931
▁Apart	-11932
▁Asian	-11933
▁Break	-11934
▁Drive	-11935
▁Event	-11936
▁Fresh	-11937
▁Khuôn	-11938
▁Paulo	-11939
▁Scott	-11940
▁Tears	-11941
▁Trust	-11942
▁Union	-11943
▁Until	-11944
▁bowed	-11945
▁cease	-11946
▁chinh	-11947
▁chích	-11948
▁coats	-11949
▁crawl	-11950
▁downs	-11951
▁draft	-11952
▁drops	-11953
▁drums	-11954
▁eater	-11955
▁euros	-11956
▁fairy	-11957
▁farms	-11958
▁froze	-11959
▁glove	-11960
▁hatch	-11961
▁helen	-11962
▁huynh	-11963
▁ideal	-11964
▁inexp	-11965
▁khoái	-11966
▁mương	-11967
▁nghẹn	-11968
▁ngước	-11969
▁overe	-11970
▁paulo	-11971
▁pharm	-11972
▁raced	-11973
▁races	-11974
▁restr	-11975
▁risen	-11976
▁scold	-11977
▁shark	-11978
▁slack	-11979
▁slave	-11980
▁stool	-11981
▁thủng	-11982
▁thừng	-11983
▁trait	-11984
▁wiser	-11985
amiliar	-11986
arrison	-11987
attered	-11988
itution	-11989
izabeth	-11990
uilding	-11991
verance	-11992
▁Always	-11993
▁Battle	-11994
▁Easter	-11995
▁Living	-11996
▁Monroe	-11997
▁Oliver	-11998
▁Return	-11999
▁Transl	-12000
▁abrupt	-12001
▁abused	-12002
▁agency	-12003
▁brains	-12004
▁brandy	-12005
▁cellar	-12006
▁chewed	-12007
▁collar	-12008
▁colony	-12009
▁commer	-12010
▁compar	-12011
▁condem	-12012
▁covers	-12013
▁duffel	-12014
▁encycl	-12015
▁excess	-12016
▁feared	-12017
▁fourth	-12018
▁fruits	-12019
▁golden	-12020
▁hunted	-12021
▁invent	-12022
▁kimono	-12023
▁limits	-12024
▁manila	-12025
▁mature	-12026
▁monroe	-12027
▁offend	-12028
▁oliver	-12029
▁outfit	-12030
▁pacing	-12031
▁parent	-12032
▁passes	-12033
▁polish	-12034
▁poorly	-12035
▁refund	-12036
▁sailed	-12037
▁series	-12038
▁serves	-12039
▁shovel	-12040
▁skirts	-12041
▁smoked	-12042
▁spouse	-12043
▁stingy	-12044
▁stones	-12045
▁survey	-12046
▁truồng	-12047
▁typing	-12048
▁underw	-12049
▁unsure	-12050
▁utmost	-12051
▁vacuum	-12052
▁washes	-12053
▁waving	-12054
abitants	-12055
atically	-12056
ergarten	-12057
interest	-12058
▁Certain	-12059
▁General	-12060
▁Getting	-12061
▁Iceland	-12062
▁Olympic	-12063
▁Traffic	-12064
▁Turkish	-12065
▁antique	-12066
▁balcony	-12067
▁bassoon	-12068
▁compete	-12069
▁consent	-12070
▁costume	-12071
▁couples	-12072
▁deleted	-12073
▁desired	-12074
▁donated	-12075
▁edition	-12076
▁endowed	-12077
▁fireman	-12078
▁founded	-12079
▁frowned	-12080
▁grounds	-12081
▁inspect	-12082
▁instant	-12083
▁ironing	-12084
▁islands	-12085
▁karaoke	-12086
▁ketchup	-12087
▁largely	-12088
▁loyalty	-12089
▁mailman	-12090
▁muscles	-12091
▁needing	-12092
▁paramed	-12093
▁penalty	-12094
▁pleaded	-12095
▁privile	-12096
▁prosper	-12097
▁proverb	-12098
▁psychic	-12099
▁reacted	-12100
▁reduced	-12101
▁reunion	-12102
▁scholar	-12103
▁seventh	-12104
▁singers	-12105
▁species	-12106
▁spiders	-12107
▁spotted	-12108
▁stirred	-12109
▁symptom	-12110
▁teasing	-12111
▁toaster	-12112
▁tripped	-12113
▁unaware	-12114
▁univers	-12115
▁vending	-12116
▁warming	-12117
▁welfare	-12118
unciation	-12119
▁Consider	-12120
▁December	-12121
▁Olympics	-12122
▁accounts	-12123
▁arrogant	-12124
▁bachelor	-12125
▁certific	-12126
▁composed	-12127
▁conserve	-12128
▁contrary	-12129
▁cultural	-12130
▁delivery	-12131
▁earliest	-12132
▁escaping	-12133
▁estimate	-12134
▁fabulous	-12135
▁hangover	-12136
▁millions	-12137
▁overwhel	-12138
▁paycheck	-12139
▁poisoned	-12140
▁pressing	-12141
▁priority	-12142
▁reckless	-12143
▁recovery	-12144
▁referred	-12145
▁reporter	-12146
▁revealed	-12147
▁speeding	-12148
▁strictly	-12149
▁thirties	-12150
▁tropical	-12151
▁Education	-12152
▁accordion	-12153
▁architect	-12154
▁bartender	-12155
▁cancelled	-12156
▁consulted	-12157
▁defendant	-12158
▁elsewhere	-12159
▁engineers	-12160
▁enjoyable	-12161
▁executive	-12162
▁fireplace	-12163
▁gardening	-12164
▁healthier	-12165
▁including	-12166
▁infection	-12167
▁interpret	-12168
▁privately	-12169
▁recession	-12170
▁recording	-12171
▁referring	-12172
▁repairing	-12173
▁scratched	-12174
▁swallowed	-12175
▁whistling	-12176
▁willingly	-12177
▁Disneyland	-12178
▁Eventually	-12179
▁characters	-12180
▁compliment	-12181
▁conscience	-12182
▁contribute	-12183
▁diplomatic	-12184
▁disgusting	-12185
▁enthusiasm	-12186
▁graduating	-12187
▁graduation	-12188
▁mysterious	-12189
▁reflection	-12190
▁strawberry	-12191
▁substitute	-12192
▁terrorists	-12193
▁windshield	-12194
▁appreciates	-12195
▁butterflies	-12196
▁girlfriends	-12197
▁photographs	-12198
▁championship	-12199
▁conditioning	-12200
▁hospitalized	-12201
▁kindergarten	-12202
▁preparations	-12203
▁surprisingly	-12204
▁unexpectedly	-12205
▁communication	-12206
▁pronunciation	-12207
%.	-12208
2,	-12209
IA	-12210
So	-12211
gi	-12212
sa	-12213
sm	-12214
ta	-12215
êt	-12216
ùn	-12217
Bạn	-12218
amm	-12219
aws	-12220
dri	-12221
eye	-12222
gin	-12223
hãy	-12224
pot	-12225
pow	-12226
reh	-12227
rim	-12228
thm	-12229
ups	-12230
you	-12231
ễng	-12232
▁28	-12233
▁48	-12234
▁65	-12235
▁Cơ	-12236
▁Gh	-12237
▁Ko	-12238
▁Lo	-12239
▁Up	-12240
▁bẹ	-12241
▁cỗ	-12242
▁kề	-12243
▁lọ	-12244
▁mạ	-12245
▁vú	-12246
▁xạ	-12247
▁âu	-12248
aron	-12249
azon	-12250
cake	-12251
cond	-12252
dies	-12253
fish	-12254
foot	-12255
hone	-12256
icit	-12257
iner	-12258
itty	-12259
kery	-12260
knob	-12261
leen	-12262
mbol	-12263
nock	-12264
onia	-12265
oons	-12266
opin	-12267
outs	-12268
oven	-12269
rial	-12270
rise	-12271
ront	-12272
ties	-12273
ture	-12274
uông	-12275
wash	-12276
▁800	-12277
▁Amy	-12278
▁Bab	-12279
▁CIA	-12280
▁Emi	-12281
▁Eve	-12282
▁Gas	-12283
▁Hum	-12284
▁Lad	-12285
▁Nhĩ	-12286
▁Oil	-12287
▁Pea	-12288
▁Pic	-12289
▁Sel	-12290
▁Thổ	-12291
▁Ven	-12292
▁Với	-12293
▁Wow	-12294
▁Yes	-12295
▁ain	-12296
▁dép	-12297
▁emi	-12298
▁enl	-12299
▁gai	-12300
▁gay	-12301
▁góa	-12302
▁hic	-12303
▁hut	-12304
▁icy	-12305
▁jet	-12306
▁laz	-12307
▁lây	-12308
▁lọc	-12309
▁mẹo	-12310
▁nom	-12311
▁nần	-12312
▁pee	-12313
▁pho	-12314
▁phì	-12315
▁pry	-12316
▁rac	-12317
▁rao	-12318
▁ruy	-12319
▁rập	-12320
▁sẫm	-12321
▁sập	-12322
▁tub	-12323
▁túp	-12324
▁tạt	-12325
▁xửa	-12326
▁yan	-12327
▁yog	-12328
▁zip	-12329
▁đứt	-12330
akura	-12331
allel	-12332
bacco	-12333
cloth	-12334
eller	-12335
ipper	-12336
itter	-12337
kirts	-12338
lette	-12339
nical	-12340
oning	-12341
organ	-12342
orked	-12343
react	-12344
shine	-12345
table	-12346
uding	-12347
uting	-12348
vated	-12349
▁100.	-12350
▁Aust	-12351
▁Comm	-12352
▁Finn	-12353
▁Foot	-12354
▁Fort	-12355
▁High	-12356
▁Jean	-12357
▁Joan	-12358
▁Kiss	-12359
▁Lang	-12360
▁Liệu	-12361
▁Mass	-12362
▁Meet	-12363
▁Ngọn	-12364
▁Nice	-12365
▁Phục	-12366
▁Rice	-12367
▁Sand	-12368
▁Step	-12369
▁Thịt	-12370
▁Thực	-12371
▁Trái	-12372
▁Tình	-12373
▁anne	-12374
▁brew	-12375
▁bund	-12376
▁bàng	-12377
▁bành	-12378
▁calo	-12379
▁cant	-12380
▁caut	-12381
▁chĩa	-12382
▁chầm	-12383
▁clip	-12384
▁disk	-12385
▁dược	-12386
▁excl	-12387
▁fans	-12388
▁ghép	-12389
▁goat	-12390
▁grud	-12391
▁guts	-12392
▁gánh	-12393
▁hunt	-12394
▁idle	-12395
▁khập	-12396
▁knot	-12397
▁liếm	-12398
▁lõng	-12399
▁male	-12400
▁mini	-12401
▁miện	-12402
▁mole	-12403
▁ngâm	-12404
▁ngầu	-12405
▁ngẫm	-12406
▁ngục	-12407
▁ngụy	-12408
▁nhàn	-12409
▁nhàu	-12410
▁nhòm	-12411
▁nhói	-12412
▁pant	-12413
▁peas	-12414
▁pies	-12415
▁prem	-12416
▁rack	-12417
▁relo	-12418
▁ribb	-12419
▁sadd	-12420
▁scam	-12421
▁scru	-12422
▁slid	-12423
▁soil	-12424
▁soạn	-12425
▁spec	-12426
▁stag	-12427
▁sumo	-12428
▁sunk	-12429
▁sũng	-12430
▁sừng	-12431
▁tale	-12432
▁tons	-12433
▁trif	-12434
▁trội	-12435
▁tuốc	-12436
▁tạng	-12437
▁unit	-12438
▁urge	-12439
▁virt	-12440
▁worm	-12441
▁yawn	-12442
▁điêu	-12443
▁đãng	-12444
blings	-12445
ciable	-12446
driver	-12447
estern	-12448
inging	-12449
inosau	-12450
ipping	-12451
lights	-12452
ndreds	-12453
priced	-12454
screen	-12455
▁6:30.	-12456
▁Allow	-12457
▁Going	-12458
▁Grant	-12459
▁Kenji	-12460
▁Large	-12461
▁Learn	-12462
▁Naoko	-12463
▁Party	-12464
▁Polit	-12465
▁Queen	-12466
▁Raise	-12467
▁Sleep	-12468
▁Sport	-12469
▁Steve	-12470
▁Swiss	-12471
▁Tower	-12472
▁abund	-12473
▁admir	-12474
▁angel	-12475
▁audio	-12476
▁backs	-12477
▁barbe	-12478
▁bears	-12479
▁binoc	-12480
▁brass	-12481
▁camel	-12482
▁chill	-12483
▁clubs	-12484
▁crude	-12485
▁dozed	-12486
▁endea	-12487
▁films	-12488
▁fined	-12489
▁flown	-12490
▁frost	-12491
▁gross	-12492
▁hangs	-12493
▁hunch	-12494
▁huyện	-12495
▁initi	-12496
▁inval	-12497
▁jesus	-12498
▁kenji	-12499
▁knelt	-12500
▁locks	-12501
▁lungs	-12502
▁media	-12503
▁messy	-12504
▁naoko	-12505
▁natur	-12506
▁nause	-12507
▁overt	-12508
▁patch	-12509
▁pearl	-12510
▁picky	-12511
▁recon	-12512
▁remed	-12513
▁rises	-12514
▁ruled	-12515
▁santa	-12516
▁scott	-12517
▁shops	-12518
▁sneak	-12519
▁sniff	-12520
▁solar	-12521
▁spade	-12522
▁stake	-12523
▁teams	-12524
▁tenth	-12525
▁thiển	-12526
▁thính	-12527
▁twent	-12528
▁vivid	-12529
▁wakes	-12530
▁waltz	-12531
▁whale	-12532
▁woken	-12533
▁yield	-12534
ability	-12535
inative	-12536
ologist	-12537
renched	-12538
roaches	-12539
▁$1,000	-12540
▁Amazon	-12541
▁Caesar	-12542
▁Chopin	-12543
▁Chuông	-12544
▁Forget	-12545
▁Hamlet	-12546
▁Khoảnh	-12547
▁Selena	-12548
▁Toyota	-12549
▁allies	-12550
▁bakery	-12551
▁beings	-12552
▁biased	-12553
▁blinds	-12554
▁chopin	-12555
▁closes	-12556
▁dances	-12557
▁destin	-12558
▁destru	-12559
▁diving	-12560
▁dormit	-12561
▁ending	-12562
▁exists	-12563
▁flavor	-12564
▁garlic	-12565
▁global	-12566
▁iPhone	-12567
▁iphone	-12568
▁kabuki	-12569
▁khiễng	-12570
▁liquor	-12571
▁mainly	-12572
▁miller	-12573
▁mugged	-12574
▁notify	-12575
▁partly	-12576
▁placed	-12577
▁porter	-12578
▁relied	-12579
▁richer	-12580
▁risked	-12581
▁shaves	-12582
▁softly	-12583
▁sprang	-12584
▁stable	-12585
▁starve	-12586
▁status	-12587
▁sweets	-12588
▁symbol	-12589
▁tapped	-12590
▁thuổng	-12591
▁toyota	-12592
▁tracks	-12593
▁vision	-12594
▁warmly	-12595
▁wicked	-12596
▁winner	-12597
ortation	-12598
▁Another	-12599
▁Between	-12600
▁Charles	-12601
▁Explain	-12602
▁Express	-12603
▁Okinawa	-12604
▁Picasso	-12605
▁Titanic	-12606
▁Walking	-12607
▁airmail	-12608
▁alarmed	-12609
▁butcher	-12610
▁charles	-12611
▁chopped	-12612
▁compens	-12613
▁compreh	-12614
▁contrad	-12615
▁convict	-12616
▁counted	-12617
▁desires	-12618
▁distant	-12619
▁distrib	-12620
▁drifted	-12621
▁emerged	-12622
▁emptied	-12623
▁enabled	-12624
▁expires	-12625
▁freaked	-12626
▁fulfill	-12627
▁gravity	-12628
▁grinned	-12629
▁highway	-12630
▁illustr	-12631
▁imposed	-12632
▁involve	-12633
▁johnson	-12634
▁justify	-12635
▁liberty	-12636
▁mahjong	-12637
▁mankind	-12638
▁monthly	-12639
▁objects	-12640
▁okinawa	-12641
▁outrage	-12642
▁pattern	-12643
▁payment	-12644
▁picasso	-12645
▁pitcher	-12646
▁primary	-12647
▁printed	-12648
▁printer	-12649
▁rabbits	-12650
▁relieve	-12651
▁resting	-12652
▁ruining	-12653
▁schools	-12654
▁servant	-12655
▁setting	-12656
▁sleeves	-12657
▁sunrise	-12658
▁sympath	-12659
▁toolbox	-12660
▁trailer	-12661
▁weighed	-12662
▁Columbus	-12663
▁Drinking	-12664
▁Einstein	-12665
▁Hundreds	-12666
▁agitated	-12667
▁columbus	-12668
▁competed	-12669
▁designer	-12670
▁detailed	-12671
▁diamonds	-12672
▁diplomat	-12673
▁disgrace	-12674
▁domestic	-12675
▁doorknob	-12676
▁drenched	-12677
▁driveway	-12678
▁einstein	-12679
▁entitled	-12680
▁faithful	-12681
▁identity	-12682
▁landlord	-12683
▁majoring	-12684
▁nickname	-12685
▁outraged	-12686
▁overhead	-12687
▁partners	-12688
▁purchase	-12689
▁quantity	-12690
▁siblings	-12691
▁standard	-12692
▁steadily	-12693
▁struggle	-12694
▁sunlight	-12695
▁telegram	-12696
▁vanished	-12697
▁vitamins	-12698
▁waitress	-12699
▁Matsuyama	-12700
▁Traveling	-12701
▁attendant	-12702
▁batteries	-12703
▁blackmail	-12704
▁broadcast	-12705
▁cardboard	-12706
▁carpenter	-12707
▁colleague	-12708
▁competent	-12709
▁condemned	-12710
▁contented	-12711
▁continent	-12712
▁corrected	-12713
▁democracy	-12714
▁disagreed	-12715
▁disgusted	-12716
▁elephants	-12717
▁graduates	-12718
▁guitarist	-12719
▁harmonica	-12720
▁hospitals	-12721
▁installed	-12722
▁instantly	-12723
▁motivated	-12724
▁naturally	-12725
▁neglected	-12726
▁notebooks	-12727
▁obstinate	-12728
▁occasions	-12729
▁officials	-12730
▁orchestra	-12731
▁overreact	-12732
▁passenger	-12733
▁practices	-12734
▁privilege	-12735
▁resigning	-12736
▁singapore	-12737
▁snowstorm	-12738
▁subscribe	-12739
▁sunscreen	-12740
▁surprises	-12741
▁suspicion	-12742
▁technical	-12743
▁technique	-12744
▁toothache	-12745
▁travelers	-12746
▁valuables	-12747
▁advantages	-12748
▁afterwards	-12749
▁altogether	-12750
▁binoculars	-12751
▁celebrated	-12752
▁colleagues	-12753
▁commission	-12754
▁comparison	-12755
▁controvers	-12756
▁convincing	-12757
▁decreasing	-12758
▁dependable	-12759
▁devastated	-12760
▁disneyland	-12761
▁instructor	-12762
▁mosquitoes	-12763
▁popularity	-12764
▁recovering	-12765
▁scientific	-12766
▁toothbrush	-12767
▁toothpaste	-12768
▁tournament	-12769
▁unfinished	-12770
▁uninterest	-12771
▁unreliable	-12772
▁wheelchair	-12773
▁whispering	-12774
▁certificate	-12775
▁consumption	-12776
▁earthquakes	-12777
▁inexpensive	-12778
▁inhabitants	-12779
▁inspiration	-12780
▁masterpiece	-12781
▁proposition	-12782
▁screwdriver	-12783
▁threatening	-12784
▁concentrated	-12785
▁dissatisfied	-12786
▁successfully	-12787
▁surroundings	-12788
▁unbelievable	-12789
▁volunteering	-12790
▁consciousness	-12791
▁administration	-12792
.,	-12793
3,	-12794
5,	-12795
50	-12796
:4	-12797
mo	-12798
of	-12799
oh	-12800
wa	-12801
yo	-12802
̣n	-12803
aku	-12804
bel	-12805
bia	-12806
bul	-12807
car	-12808
cho	-12809
cod	-12810
dam	-12811
eit	-12812
gia	-12813
hop	-12814
izu	-12815
los	-12816
lph	-12817
mes	-12818
occ	-12819
ray	-12820
rol	-12821
sle	-12822
tha	-12823
the	-12824
ugu	-12825
uka	-12826
uke	-12827
xin	-12828
xon	-12829
ềng	-12830
▁2,	-12831
▁3,	-12832
▁5.	-12833
▁7.	-12834
▁Ac	-12835
▁Bồ	-12836
▁Ed	-12837
▁MP	-12838
▁Mu	-12839
▁Na	-12840
▁Sl	-12841
▁bẻ	-12842
▁dỡ	-12843
▁lè	-12844
▁mp	-12845
▁mr	-12846
▁vá	-12847
▁vả	-12848
▁xi	-12849
▁êm	-12850
▁đè	-12851
aine	-12852
aint	-12853
alan	-12854
arin	-12855
arts	-12856
atto	-12857
bers	-12858
bove	-12859
burn	-12860
cery	-12861
cuff	-12862
edly	-12863
edro	-12864
enda	-12865
endo	-12866
ends	-12867
fing	-12868
fume	-12869
gawa	-12870
ggle	-12871
helf	-12872
hole	-12873
hour	-12874
ieth	-12875
imal	-12876
inct	-12877
inea	-12878
inko	-12879
irth	-12880
ixon	-12881
keda	-12882
kins	-12883
loqu	-12884
lted	-12885
meal	-12886
oses	-12887
osis	-12888
otes	-12889
renh	-12890
rics	-12891
roph	-12892
seph	-12893
shed	-12894
stop	-12895
text	-12896
uchi	-12897
uyền	-12898
worm	-12899
ylum	-12900
yoko	-12901
zens	-12902
▁185	-12903
▁333	-12904
▁Alp	-12905
▁Bas	-12906
▁Chi	-12907
▁Còn	-12908
▁Cực	-12909
▁Dan	-12910
▁Ghế	-12911
▁Hóa	-12912
▁Mah	-12913
▁Med	-12914
▁Mel	-12915
▁Rab	-12916
▁Rel	-12917
▁Sea	-12918
▁Ski	-12919
▁Sky	-12920
▁Squ	-12921
▁Sur	-12922
▁Sáu	-12923
▁São	-12924
▁Sức	-12925
▁Túi	-12926
▁Vis	-12927
▁Yam	-12928
▁aer	-12929
▁alt	-12930
▁ari	-12931
▁bew	-12932
▁bọc	-12933
▁cia	-12934
▁coc	-12935
▁càu	-12936
▁cằn	-12937
▁dav	-12938
▁dod	-12939
▁dải	-12940
▁fug	-12941
▁gal	-12942
▁ghề	-12943
▁gut	-12944
▁héo	-12945
▁ing	-12946
▁lee	-12947
▁lem	-12948
▁lút	-12949
▁lột	-12950
▁mui	-12951
▁mồi	-12952
▁mứt	-12953
▁nhủ	-12954
▁nức	-12955
▁quạ	-12956
▁quỷ	-12957
▁rôi	-12958
▁sáp	-12959
▁são	-12960
▁sấu	-12961
▁sụt	-12962
▁tad	-12963
▁tam	-12964
▁trọ	-12965
▁ufo	-12966
▁ult	-12967
▁vóc	-12968
▁vùi	-12969
▁vơi	-12970
▁vất	-12971
▁yam	-12972
▁Đào	-12973
▁Đội	-12974
▁đòn	-12975
▁đươ	-12976
▁đản	-12977
agawa	-12978
anded	-12979
angle	-12980
bbled	-12981
craft	-12982
dream	-12983
erman	-12984
eself	-12985
icill	-12986
ighth	-12987
ilipp	-12988
inley	-12989
isure	-12990
lined	-12991
olves	-12992
onald	-12993
onsid	-12994
oster	-12995
oused	-12996
overs	-12997
pporo	-12998
raham	-12999
rical	-13000
scope	-13001
spons	-13002
tight	-13003
unged	-13004
visor	-13005
works	-13006
▁$300	-13007
▁1939	-13008
▁3:00	-13009
▁4:00	-13010
▁5:00	-13011
▁911.	-13012
▁Anna	-13013
▁Beau	-13014
▁Bệnh	-13015
▁Cuba	-13016
▁Draw	-13017
▁Fish	-13018
▁Giáo	-13019
▁Hope	-13020
▁Iron	-13021
▁Kato	-13022
▁Lack	-13023
▁Milk	-13024
▁Mona	-13025
▁Nhìn	-13026
▁Over	-13027
▁Phil	-13028
▁Phải	-13029
▁Sach	-13030
▁Sapp	-13031
▁Sure	-13032
▁Tele	-13033
▁Ueno	-13034
▁Viên	-13035
▁Việt	-13036
▁airs	-13037
▁appe	-13038
▁babb	-13039
▁beds	-13040
▁blaz	-13041
▁bore	-13042
▁buck	-13043
▁bury	-13044
▁butt	-13045
▁cher	-13046
▁chẩn	-13047
▁chốc	-13048
▁coke	-13049
▁cúng	-13050
▁desc	-13051
▁dies	-13052
▁dine	-13053
▁dive	-13054
▁dove	-13055
▁duck	-13056
▁fert	-13057
▁flab	-13058
▁flun	-13059
▁folk	-13060
▁ghim	-13061
▁hats	-13062
▁kang	-13063
▁lame	-13064
▁melo	-13065
▁ment	-13066
▁muôn	-13067
▁ngài	-13068
▁ngủi	-13069
▁nhức	-13070
▁pawn	-13071
▁pile	-13072
▁pros	-13073
▁quấn	-13074
▁quấy	-13075
▁rage	-13076
▁rats	-13077
▁rewr	-13078
▁scri	-13079
▁seek	-13080
▁sock	-13081
▁summ	-13082
▁toạc	-13083
▁trân	-13084
▁trùm	-13085
▁tông	-13086
▁ueno	-13087
▁unav	-13088
▁unim	-13089
▁vani	-13090
▁vuốt	-13091
▁vịnh	-13092
▁vồng	-13093
▁wave	-13094
▁xoáy	-13095
▁đoái	-13096
ailand	-13097
artial	-13098
celona	-13099
chiatr	-13100
elling	-13101
elsius	-13102
entral	-13103
entric	-13104
eorgia	-13105
errari	-13106
etroit	-13107
gammon	-13108
ifying	-13109
izuoka	-13110
kiyaki	-13111
lessly	-13112
phants	-13113
reland	-13114
ricane	-13115
roatia	-13116
ronted	-13117
ternal	-13118
uguese	-13119
ulsive	-13120
vested	-13121
▁7:00.	-13122
▁Above	-13123
▁Akiko	-13124
▁Civil	-13125
▁Claus	-13126
▁Clear	-13127
▁Cover	-13128
▁Death	-13129
▁Doing	-13130
▁Dutch	-13131
▁Elect	-13132
▁Games	-13133
▁Guess	-13134
▁Hyogo	-13135
▁Kathy	-13136
▁Langu	-13137
▁Nhưng	-13138
▁Nixon	-13139
▁Peace	-13140
▁State	-13141
▁Stick	-13142
▁Stock	-13143
▁Susie	-13144
▁Thống	-13145
▁akiko	-13146
▁ashes	-13147
▁bacon	-13148
▁basis	-13149
▁belts	-13150
▁bikin	-13151
▁bites	-13152
▁blues	-13153
▁boils	-13154
▁bombs	-13155
▁broom	-13156
▁cathy	-13157
▁cents	-13158
▁chalk	-13159
▁chiêm	-13160
▁conqu	-13161
▁crank	-13162
▁crept	-13163
▁cries	-13164
▁crown	-13165
▁deter	-13166
▁diagn	-13167
▁distr	-13168
▁eaves	-13169
▁eloqu	-13170
▁flows	-13171
▁gazed	-13172
▁horns	-13173
▁huyền	-13174
▁hyogo	-13175
▁medit	-13176
▁mortg	-13177
▁mower	-13178
▁needn	-13179
▁newly	-13180
▁ngoạn	-13181
▁nhúng	-13182
▁nixon	-13183
▁occup	-13184
▁orbit	-13185
▁overc	-13186
▁pamph	-13187
▁pause	-13188
▁pleas	-13189
▁quote	-13190
▁quàng	-13191
▁reass	-13192
▁rusty	-13193
▁saint	-13194
▁shell	-13195
▁shots	-13196
▁simpl	-13197
▁siren	-13198
▁smugg	-13199
▁spill	-13200
▁steve	-13201
▁susie	-13202
▁towns	-13203
▁uncon	-13204
▁witty	-13205
andarin	-13206
assette	-13207
etition	-13208
forests	-13209
icillin	-13210
nerable	-13211
portion	-13212
renheit	-13213
warming	-13214
▁Anyway	-13215
▁Flight	-13216
▁Hebrew	-13217
▁Johnny	-13218
▁Kansas	-13219
▁Marika	-13220
▁Modern	-13221
▁Norway	-13222
▁Oxford	-13223
▁Physic	-13224
▁Police	-13225
▁Scient	-13226
▁Sendai	-13227
▁Summer	-13228
▁Teresa	-13229
▁Venice	-13230
▁adding	-13231
▁approx	-13232
▁asylum	-13233
▁banged	-13234
▁biting	-13235
▁breast	-13236
▁bundle	-13237
▁burden	-13238
▁chores	-13239
▁creeps	-13240
▁crimes	-13241
▁detect	-13242
▁dialed	-13243
▁dispos	-13244
▁donuts	-13245
▁editor	-13246
▁eighth	-13247
▁endure	-13248
▁expose	-13249
▁finals	-13250
▁floors	-13251
▁harbor	-13252
▁idiots	-13253
▁impact	-13254
▁indeed	-13255
▁insect	-13256
▁liking	-13257
▁lyrics	-13258
▁margar	-13259
▁marika	-13260
▁mutual	-13261
▁nicely	-13262
▁noises	-13263
▁norway	-13264
▁onions	-13265
▁overly	-13266
▁oxford	-13267
▁palace	-13268
▁pardon	-13269
▁posted	-13270
▁preocc	-13271
▁purple	-13272
▁raises	-13273
▁rebels	-13274
▁resent	-13275
▁reveal	-13276
▁ribbon	-13277
▁rivers	-13278
▁rocket	-13279
▁scares	-13280
▁sendai	-13281
▁shares	-13282
▁slices	-13283
▁stocks	-13284
▁tackle	-13285
▁teresa	-13286
▁thomas	-13287
▁thumbs	-13288
▁topics	-13289
▁unbear	-13290
▁unkind	-13291
▁vacant	-13292
▁warmed	-13293
▁wheels	-13294
▁workah	-13295
asonable	-13296
inosaurs	-13297
▁Austria	-13298
▁Central	-13299
▁Croatia	-13300
▁Detroit	-13301
▁Finding	-13302
▁Finnish	-13303
▁Germans	-13304
▁Kennedy	-13305
▁Marilyn	-13306
▁Romania	-13307
▁Sapporo	-13308
▁Somehow	-13309
▁Windows	-13310
▁assured	-13311
▁begging	-13312
▁bruises	-13313
▁busiest	-13314
▁caution	-13315
▁cocaine	-13316
▁corrupt	-13317
▁courses	-13318
▁cycling	-13319
▁denying	-13320
▁destiny	-13321
▁differs	-13322
▁doorway	-13323
▁doubted	-13324
▁dragged	-13325
▁dresser	-13326
▁eagerly	-13327
▁folding	-13328
▁grocery	-13329
▁handles	-13330
▁heights	-13331
▁inappro	-13332
▁install	-13333
▁leisure	-13334
▁monkeys	-13335
▁neglect	-13336
▁oneself	-13337
▁passage	-13338
▁perfume	-13339
▁replied	-13340
▁resolve	-13341
▁resumed	-13342
▁retreat	-13343
▁sapporo	-13344
▁seaside	-13345
▁squeeze	-13346
▁stating	-13347
▁temples	-13348
▁tempura	-13349
▁tension	-13350
▁testify	-13351
▁thinner	-13352
▁tobacco	-13353
▁tuition	-13354
▁undergo	-13355
▁unknown	-13356
▁vanilla	-13357
▁volcano	-13358
▁warrant	-13359
▁wonders	-13360
sponsible	-13361
▁Catholic	-13362
▁Football	-13363
▁Marriage	-13364
▁Thailand	-13365
▁abundant	-13366
▁admiring	-13367
▁apparent	-13368
▁babbling	-13369
▁balanced	-13370
▁bookcase	-13371
▁cheering	-13372
▁chickens	-13373
▁clearing	-13374
▁concerns	-13375
▁daydream	-13376
▁definite	-13377
▁disappro	-13378
▁disliked	-13379
▁dislikes	-13380
▁download	-13381
▁equipped	-13382
▁executed	-13383
▁eyebrows	-13384
▁firewood	-13385
▁fugitive	-13386
▁gardener	-13387
▁hammered	-13388
▁handcuff	-13389
▁harmless	-13390
▁isolated	-13391
▁mustered	-13392
▁nauseous	-13393
▁optimist	-13394
▁organize	-13395
▁parallel	-13396
▁pharmacy	-13397
▁pretends	-13398
▁realizes	-13399
▁recorded	-13400
▁restrain	-13401
▁slippers	-13402
▁snuggled	-13403
▁sprained	-13404
▁sunshine	-13405
▁survival	-13406
▁suspects	-13407
▁sweating	-13408
▁swimsuit	-13409
▁touching	-13410
▁traveler	-13411
▁twenties	-13412
▁violated	-13413
▁watermel	-13414
girlfriend	-13415
▁Elephants	-13416
▁allergies	-13417
▁allowance	-13418
▁announcer	-13419
▁arrogance	-13420
▁astronaut	-13421
▁ballpoint	-13422
▁beginners	-13423
▁bookshelf	-13424
▁champagne	-13425
▁compelled	-13426
▁delegates	-13427
▁disobeyed	-13428
▁displayed	-13429
▁energetic	-13430
▁establish	-13431
▁estimated	-13432
▁flattered	-13433
▁genuinely	-13434
▁horseback	-13435
▁household	-13436
▁identical	-13437
▁lunchtime	-13438
▁moonlight	-13439
▁mysteries	-13440
▁patiently	-13441
▁poisonous	-13442
▁psychiatr	-13443
▁railroads	-13444
▁sacrifice	-13445
▁specialty	-13446
▁standards	-13447
▁submitted	-13448
▁therapist	-13449
▁violinist	-13450
▁witnesses	-13451
▁Portuguese	-13452
▁Republican	-13453
▁Scientists	-13454
▁backgammon	-13455
▁bankruptcy	-13456
▁candidates	-13457
▁cautiously	-13458
▁confronted	-13459
▁depressing	-13460
▁elementary	-13461
▁encycloped	-13462
▁exaggerate	-13463
▁kidnappers	-13464
▁microscope	-13465
▁officially	-13466
▁playground	-13467
▁principles	-13468
▁protecting	-13469
▁psychology	-13470
▁quarreling	-13471
▁registered	-13472
▁relatively	-13473
▁revolution	-13474
▁secondhand	-13475
▁situations	-13476
▁supervisor	-13477
▁supporters	-13478
▁sweetheart	-13479
▁tablecloth	-13480
▁translator	-13481
▁unemployed	-13482
▁unfamiliar	-13483
▁beautifully	-13484
▁considerate	-13485
▁financially	-13486
▁frustrating	-13487
▁nationality	-13488
▁pessimistic	-13489
▁practically	-13490
▁preoccupied	-13491
▁surrendered	-13492
▁deliberately	-13493
▁examinations	-13494
▁independence	-13495
▁measurements	-13496
▁occasionally	-13497
▁participated	-13498
▁perseverance	-13499
▁suspiciously	-13500
▁unreasonable	-13501
▁inappropriate	-13502
▁irresponsible	-13503
-8	-13504
:2	-13505
CR	-13506
EO	-13507
He	-13508
Nh	-13509
dh	-13510
ga	-13511
ya	-13512
ẽn	-13513
▁/	-13514
acc	-13515
alt	-13516
bro	-13517
cup	-13518
cus	-13519
eme	-13520
esy	-13521
hyd	-13522
ils	-13523
inu	-13524
iop	-13525
làm	-13526
ngu	-13527
non	-13528
oma	-13529
oni	-13530
owa	-13531
put	-13532
rip	-13533
uel	-13534
ugs	-13535
usk	-13536
đây	-13537
▁29	-13538
▁3.	-13539
▁4.	-13540
▁AI	-13541
▁Im	-13542
▁Kẻ	-13543
▁Lũ	-13544
▁Ti	-13545
▁Ty	-13546
▁Wr	-13547
▁gồ	-13548
▁hô	-13549
▁lự	-13550
▁nỉ	-13551
▁ts	-13552
▁uy	-13553
▁đê	-13554
Tube	-13555
abul	-13556
andy	-13557
aori	-13558
apor	-13559
char	-13560
cure	-13561
eder	-13562
ghan	-13563
hine	-13564
hoku	-13565
icky	-13566
ifth	-13567
igue	-13568
kers	-13569
lant	-13570
long	-13571
olas	-13572
oner	-13573
opes	-13574
oral	-13575
ourt	-13576
pple	-13577
quar	-13578
rier	-13579
ruce	-13580
tube	-13581
turn	-13582
umpy	-13583
▁$10	-13584
▁Ana	-13585
▁Bes	-13586
▁Bàn	-13587
▁Bưu	-13588
▁CEO	-13589
▁Căn	-13590
▁Del	-13591
▁Div	-13592
▁Eth	-13593
▁Gir	-13594
▁Giữ	-13595
▁Gọi	-13596
▁Học	-13597
▁Kit	-13598
▁Lie	-13599
▁Lớp	-13600
▁Out	-13601
▁Sir	-13602
▁Thẻ	-13603
▁Tri	-13604
▁VCR	-13605
▁Van	-13606
▁Vào	-13607
▁Win	-13608
▁ade	-13609
▁ana	-13610
▁anx	-13611
▁blu	-13612
▁bền	-13613
▁bọt	-13614
▁cem	-13615
▁ceo	-13616
▁cúc	-13617
▁cẩm	-13618
▁dan	-13619
▁dye	-13620
▁dĩa	-13621
▁ecc	-13622
▁fry	-13623
▁gor	-13624
▁hàu	-13625
▁hán	-13626
▁hạc	-13627
▁inn	-13628
▁jay	-13629
▁jog	-13630
▁ket	-13631
▁khe	-13632
▁lốc	-13633
▁mus	-13634
▁mẩu	-13635
▁mặn	-13636
▁nhã	-13637
▁nhí	-13638
▁nốt	-13639
▁oat	-13640
▁phu	-13641
▁rod	-13642
▁roy	-13643
▁rìa	-13644
▁rơm	-13645
▁swo	-13646
▁sấy	-13647
▁thệ	-13648
▁tóm	-13649
▁vcr	-13650
▁vẹo	-13651
▁vịt	-13652
▁vụn	-13653
▁xôi	-13654
▁Đàn	-13655
▁Đưa	-13656
▁Đầu	-13657
▁Đến	-13658
▁Đợi	-13659
▁đày	-13660
▁đùi	-13661
▁đút	-13662
▁đạm	-13663
aders	-13664
auffe	-13665
bbies	-13666
dling	-13667
eaten	-13668
eroom	-13669
erted	-13670
field	-13671
genic	-13672
icies	-13673
inium	-13674
ishes	-13675
iters	-13676
itors	-13677
mates	-13678
ously	-13679
quang	-13680
reeze	-13681
ridor	-13682
stand	-13683
tible	-13684
usive	-13685
uters	-13686
▁$100	-13687
▁1950	-13688
▁1970	-13689
▁Alps	-13690
▁Boil	-13691
▁Burr	-13692
▁Bush	-13693
▁Coll	-13694
▁Cows	-13695
▁Càng	-13696
▁Farm	-13697
▁Fast	-13698
▁Hist	-13699
▁Iraq	-13700
▁Keio	-13701
▁Know	-13702
▁Land	-13703
▁Line	-13704
▁Lots	-13705
▁Meat	-13706
▁Need	-13707
▁Phần	-13708
▁Play	-13709
▁Pole	-13710
▁Prep	-13711
▁Quần	-13712
▁Sold	-13713
▁Stat	-13714
▁Very	-13715
▁Yosh	-13716
▁ache	-13717
▁bolt	-13718
▁bond	-13719
▁budd	-13720
▁chói	-13721
▁chợp	-13722
▁chợt	-13723
▁chửi	-13724
▁clin	-13725
▁deck	-13726
▁fabr	-13727
▁flea	-13728
▁fuse	-13729
▁gira	-13730
▁guid	-13731
▁gỏng	-13732
▁hens	-13733
▁hách	-13734
▁iraq	-13735
▁itch	-13736
▁jill	-13737
▁keio	-13738
▁khay	-13739
▁khôi	-13740
▁laps	-13741
▁lump	-13742
▁mamm	-13743
▁miệt	-13744
▁ngán	-13745
▁ngậm	-13746
▁nhằm	-13747
▁nhột	-13748
▁nitp	-13749
▁nàng	-13750
▁obno	-13751
▁obsc	-13752
▁panc	-13753
▁peso	-13754
▁phật	-13755
▁pige	-13756
▁pigs	-13757
▁prud	-13758
▁quẫn	-13759
▁rash	-13760
▁robe	-13761
▁rạng	-13762
▁scan	-13763
▁sett	-13764
▁sexy	-13765
▁shed	-13766
▁solo	-13767
▁sành	-13768
▁tanh	-13769
▁thun	-13770
▁thâm	-13771
▁thét	-13772
▁thốt	-13773
▁ties	-13774
▁trát	-13775
▁trút	-13776
▁tube	-13777
▁verd	-13778
▁vựng	-13779
▁xẻng	-13780
▁yosh	-13781
▁đung	-13782
▁đàng	-13783
Please	-13784
ademic	-13785
agious	-13786
allows	-13787
arians	-13788
estyle	-13789
igrate	-13790
length	-13791
liness	-13792
namite	-13793
orders	-13794
resist	-13795
thesis	-13796
ulting	-13797
urable	-13798
ysters	-13799
▁Adams	-13800
▁Among	-13801
▁Books	-13802
▁Bread	-13803
▁Buddh	-13804
▁Court	-13805
▁Exact	-13806
▁Lions	-13807
▁Looks	-13808
▁Nhiệm	-13809
▁Nikko	-13810
▁Paper	-13811
▁Pedro	-13812
▁Roman	-13813
▁Small	-13814
▁Weren	-13815
▁accum	-13816
▁adams	-13817
▁advoc	-13818
▁aloud	-13819
▁award	-13820
▁barks	-13821
▁bells	-13822
▁betty	-13823
▁blast	-13824
▁bleed	-13825
▁bless	-13826
▁bossy	-13827
▁bucks	-13828
▁buyer	-13829
▁charm	-13830
▁chuộc	-13831
▁colon	-13832
▁curve	-13833
▁dense	-13834
▁emily	-13835
▁enfor	-13836
▁faded	-13837
▁fears	-13838
▁feeds	-13839
▁filed	-13840
▁flick	-13841
▁flust	-13842
▁frame	-13843
▁grain	-13844
▁grams	-13845
▁grant	-13846
▁grasp	-13847
▁grind	-13848
▁hasty	-13849
▁knuck	-13850
▁liars	-13851
▁lined	-13852
▁manip	-13853
▁manus	-13854
▁melts	-13855
▁merch	-13856
▁moody	-13857
▁motel	-13858
▁nguội	-13859
▁nikko	-13860
▁packs	-13861
▁parag	-13862
▁pengu	-13863
▁pesos	-13864
▁phiến	-13865
▁posed	-13866
▁quáng	-13867
▁rides	-13868
▁route	-13869
▁shoel	-13870
▁slope	-13871
▁slump	-13872
▁spong	-13873
▁squir	-13874
▁stern	-13875
▁surve	-13876
▁swing	-13877
▁swore	-13878
▁tales	-13879
▁tango	-13880
▁thich	-13881
▁thorn	-13882
▁thật	-13883
▁tulip	-13884
▁unfor	-13885
▁unite	-13886
▁urban	-13887
▁witch	-13888
▁wrink	-13889
▁yacht	-13890
▁yards	-13891
▁được	-13892
abulary	-13893
auffeur	-13894
erences	-13895
irstyle	-13896
iscated	-13897
ligence	-13898
ocratic	-13899
oidable	-13900
ointing	-13901
olution	-13902
reeable	-13903
thmetic	-13904
▁20,000	-13905
▁20.000	-13906
▁Afghan	-13907
▁Autumn	-13908
▁Avenue	-13909
▁Better	-13910
▁Divide	-13911
▁Empire	-13912
▁Giants	-13913
▁Honest	-13914
▁Juliet	-13915
▁Martin	-13916
▁Pardon	-13917
▁Person	-13918
▁Remove	-13919
▁Soccer	-13920
▁Sports	-13921
▁Thuyền	-13922
▁Truman	-13923
▁Turkey	-13924
▁Vienna	-13925
▁Within	-13926
▁adores	-13927
▁agenda	-13928
▁annual	-13929
▁assert	-13930
▁banker	-13931
▁barked	-13932
▁boasts	-13933
▁bodies	-13934
▁bushes	-13935
▁calmly	-13936
▁cereal	-13937
▁choked	-13938
▁christ	-13939
▁contam	-13940
▁defect	-13941
▁desper	-13942
▁device	-13943
▁digest	-13944
▁discip	-13945
▁disple	-13946
▁elbows	-13947
▁elders	-13948
▁encoun	-13949
▁fasten	-13950
▁filthy	-13951
▁flatly	-13952
▁gazing	-13953
▁gladly	-13954
▁grudge	-13955
▁grumpy	-13956
▁hanged	-13957
▁hatred	-13958
▁hebrew	-13959
▁hiring	-13960
▁incomp	-13961
▁indisp	-13962
▁inning	-13963
▁ironed	-13964
▁issued	-13965
▁johnny	-13966
▁juliet	-13967
▁kettle	-13968
▁khoáng	-13969
▁khuynh	-13970
▁kisser	-13971
▁learns	-13972
▁losses	-13973
▁marked	-13974
▁martin	-13975
▁mechan	-13976
▁multip	-13977
▁neatly	-13978
▁nghiến	-13979
▁nghếch	-13980
▁obeyed	-13981
▁parlor	-13982
▁pedest	-13983
▁peeled	-13984
▁phrase	-13985
▁pickup	-13986
▁profic	-13987
▁racing	-13988
▁rebell	-13989
▁remedy	-13990
▁resume	-13991
▁roller	-13992
▁sailor	-13993
▁scheme	-13994
▁scores	-13995
▁sealed	-13996
▁shiver	-13997
▁shorth	-13998
▁sincer	-13999
▁sketch	-14000
▁sloppy	-14001
▁sneaky	-14002
▁soaked	-14003
▁soared	-14004
▁stinks	-14005
▁strain	-14006
▁surely	-14007
▁tender	-14008
▁territ	-14009
▁traged	-14010
▁tricky	-14011
▁tucked	-14012
▁typist	-14013
▁unreal	-14014
▁venice	-14015
▁vienna	-14016
▁waking	-14017
▁whales	-14018
▁wisely	-14019
▁yogurt	-14020
▁zipper	-14021
election	-14022
friendly	-14023
izations	-14024
perience	-14025
tificial	-14026
▁Besides	-14027
▁Celsius	-14028
▁Clinton	-14029
▁Compare	-14030
▁Correct	-14031
▁Foreign	-14032
▁Rabbits	-14033
▁Richard	-14034
▁Sachiko	-14035
▁Taninna	-14036
▁Ukraine	-14037
▁Weather	-14038
▁YouTube	-14039
▁appeals	-14040
▁attacks	-14041
▁bandage	-14042
▁banquet	-14043
▁beaches	-14044
▁bedside	-14045
▁blinded	-14046
▁briefly	-14047
▁bullets	-14048
▁buttons	-14049
▁cartoon	-14050
▁catches	-14051
▁complim	-14052
▁coughed	-14053
▁cynical	-14054
▁damages	-14055
▁despite	-14056
▁discrim	-14057
▁drastic	-14058
▁drought	-14059
▁drugged	-14060
▁errands	-14061
▁examine	-14062
▁exhibit	-14063
▁experim	-14064
▁finance	-14065
▁formula	-14066
▁gallery	-14067
▁giggled	-14068
▁groaned	-14069
▁handful	-14070
▁hatchet	-14071
▁hobbies	-14072
▁honored	-14073
▁however	-14074
▁insults	-14075
▁intrude	-14076
▁lightly	-14077
▁longing	-14078
▁lunatic	-14079
▁marched	-14080
▁melting	-14081
▁messing	-14082
▁mustard	-14083
▁nonstop	-14084
▁oatmeal	-14085
▁partial	-14086
▁peppers	-14087
▁pigeons	-14088
▁pitched	-14089
▁plunged	-14090
▁puzzles	-14091
▁quicker	-14092
▁rainbow	-14093
▁readily	-14094
▁romance	-14095
▁roughly	-14096
▁routine	-14097
▁sachiko	-14098
▁screams	-14099
▁seafood	-14100
▁seeking	-14101
▁serving	-14102
▁shifted	-14103
▁signing	-14104
▁surfing	-14105
▁swollen	-14106
▁taninna	-14107
▁touches	-14108
▁turtles	-14109
▁visible	-14110
▁watered	-14111
▁writers	-14112
▁youtube	-14113
boyfriend	-14114
ification	-14115
▁Hamilton	-14116
▁Mandarin	-14117
▁Millions	-14118
▁Soldiers	-14119
▁Teachers	-14120
▁adequate	-14121
▁analysis	-14122
▁applause	-14123
▁armchair	-14124
▁audition	-14125
▁barbecue	-14126
▁barefoot	-14127
▁blocking	-14128
▁brushing	-14129
▁calories	-14130
▁campfire	-14131
▁cassette	-14132
▁chapters	-14133
▁checkers	-14134
▁contents	-14135
▁corridor	-14136
▁courtesy	-14137
▁deterior	-14138
▁dictator	-14139
▁disguise	-14140
▁disposal	-14141
▁embraced	-14142
▁everyday	-14143
▁explored	-14144
▁fastened	-14145
▁floating	-14146
▁frighten	-14147
▁guidance	-14148
▁gullible	-14149
▁gunshots	-14150
▁hamilton	-14151
▁hesitant	-14152
▁interfer	-14153
▁jacksons	-14154
▁keyboard	-14155
▁lemonade	-14156
▁measured	-14157
▁mentally	-14158
▁obsessed	-14159
▁officers	-14160
▁pamphlet	-14161
▁pancakes	-14162
▁panicked	-14163
▁planting	-14164
▁policies	-14165
▁polluted	-14166
▁portrait	-14167
▁recorder	-14168
▁regained	-14169
▁resolved	-14170
▁servants	-14171
▁shuffled	-14172
▁situated	-14173
▁snowfall	-14174
▁sociable	-14175
▁splashed	-14176
▁stepping	-14177
▁stripped	-14178
▁stumbled	-14179
▁succeeds	-14180
▁sukiyaki	-14181
▁symptoms	-14182
▁terminal	-14183
▁theories	-14184
▁truthful	-14185
▁unfolded	-14186
▁vehicles	-14187
▁whistled	-14188
▁Accidents	-14189
▁Breakfast	-14190
▁Computers	-14191
▁Lightning	-14192
▁accepting	-14193
▁arguments	-14194
▁brightest	-14195
▁chauffeur	-14196
▁conceited	-14197
▁conducted	-14198
▁considers	-14199
▁criticize	-14200
▁deposited	-14201
▁distances	-14202
▁dormitory	-14203
▁eccentric	-14204
▁favorable	-14205
▁flustered	-14206
▁hairstyle	-14207
▁horrified	-14208
▁housewife	-14209
▁imagining	-14210
▁irritates	-14211
▁lifestyle	-14212
▁memorized	-14213
▁obnoxious	-14214
▁opponents	-14215
▁personnel	-14216
▁postcards	-14217
▁principle	-14218
▁realistic	-14219
▁remaining	-14220
▁repeating	-14221
▁reporters	-14222
▁responded	-14223
▁satellite	-14224
▁scribbled	-14225
▁sensation	-14226
▁strangely	-14227
▁strongest	-14228
▁surviving	-14229
▁terrorist	-14230
▁underwear	-14231
▁additional	-14232
▁advertised	-14233
▁attributes	-14234
▁beforehand	-14235
▁calculated	-14236
▁calculator	-14237
▁contagious	-14238
▁decorating	-14239
▁depression	-14240
▁detectives	-14241
▁developing	-14242
▁distraught	-14243
▁exceptions	-14244
▁extinguish	-14245
▁hamburgers	-14246
▁hypothesis	-14247
▁identified	-14248
▁interfered	-14249
▁intriguing	-14250
▁irritating	-14251
▁manuscript	-14252
▁objections	-14253
▁obligation	-14254
▁penicillin	-14255
▁photogenic	-14256
▁pleasantly	-14257
▁prescribed	-14258
▁productive	-14259
▁programmer	-14260
▁proportion	-14261
▁unfriendly	-14262
▁vocabulary	-14263
▁vulnerable	-14264
▁workaholic	-14265
▁Afghanistan	-14266
▁accumulated	-14267
▁acknowledge	-14268
▁apologizing	-14269
▁appearances	-14270
▁circulation	-14271
▁cockroaches	-14272
▁combination	-14273
▁confiscated	-14274
▁consequence	-14275
▁development	-14276
▁educational	-14277
▁encouraging	-14278
▁frightening	-14279
▁influential	-14280
▁interviewed	-14281
▁introverted	-14282
▁meaningless	-14283
▁overwhelmed	-14284
▁rainforests	-14285
▁represented	-14286
▁unavoidable	-14287
▁achievements	-14288
▁contributing	-14289
▁demonstrated	-14290
▁presentation	-14291
▁satisfaction	-14292
▁strawberries	-14293
▁translations	-14294
▁approximately	-14295
▁demonstration	-14296
▁disappointing	-14297
▁disrespectful	-14298
▁environmental	-14299
▁grammatically	-14300
▁inconvenience	-14301
▁materialistic	-14302
▁relationships	-14303
▁uninteresting	-14304
▁recommendation	-14305
▁underestimated	-14306
-2	-14307
6,	-14308
73	-14309
80	-14310
DS	-14311
NA	-14312
hu	-14313
nn	-14314
pa	-14315
zu	-14316
óe	-14317
̉i	-14318
▁ư	-14319
▁ả	-14320
▁ợ	-14321
...	-14322
ahi	-14323
ald	-14324
ali	-14325
ann	-14326
bre	-14327
bây	-14328
dad	-14329
eem	-14330
eer	-14331
fty	-14332
hor	-14333
ini	-14334
lla	-14335
lut	-14336
mấy	-14337
nia	-14338
oes	-14339
ora	-14340
osc	-14341
oul	-14342
rup	-14343
scr	-14344
top	-14345
tys	-14346
uda	-14347
ugi	-14348
usa	-14349
xic	-14350
ệc	-14351
ện	-14352
ẩng	-14353
▁37	-14354
▁42	-14355
▁46	-14356
▁5,	-14357
▁54	-14358
▁8.	-14359
▁Ao	-14360
▁Ni	-14361
▁Nu	-14362
▁Nữ	-14363
▁Ok	-14364
▁bỉ	-14365
▁cộ	-14366
▁dw	-14367
▁dế	-14368
▁ge	-14369
▁gỉ	-14370
▁mụ	-14371
▁na	-14372
▁ol	-14373
▁pi	-14374
▁py	-14375
▁Ôi	-14376
▁át	-14377
▁óc	-14378
▁ảm	-14379
ablo	-14380
adiv	-14381
agan	-14382
agic	-14383
agle	-14384
agon	-14385
akit	-14386
alls	-14387
andt	-14388
ante	-14389
aolo	-14390
arah	-14391
arcy	-14392
aria	-14393
aroo	-14394
asha	-14395
atra	-14396
ault	-14397
aust	-14398
avez	-14399
axed	-14400
belt	-14401
bird	-14402
bour	-14403
brid	-14404
chan	-14405
club	-14406
conf	-14407
coni	-14408
cred	-14409
dney	-14410
doll	-14411
door	-14412
eath	-14413
ecul	-14414
ella	-14415
ereo	-14416
etag	-14417
etts	-14418
inue	-14419
iped	-14420
isen	-14421
jack	-14422
liam	-14423
llie	-14424
lutz	-14425
mond	-14426
ntan	-14427
odel	-14428
olin	-14429
olst	-14430
omeo	-14431
onym	-14432
orse	-14433
ples	-14434
qual	-14435
rael	-14436
rene	-14437
rete	-14438
rill	-14439
rior	-14440
rito	-14441
robe	-14442
roid	-14443
roll	-14444
rose	-14445
samu	-14446
scar	-14447
shop	-14448
shot	-14449
soft	-14450
star	-14451
thma	-14452
trip	-14453
uing	-14454
urai	-14455
usal	-14456
vino	-14457
▁110	-14458
▁155	-14459
▁182	-14460
▁70%	-14461
▁Adm	-14462
▁Big	-14463
▁Bên	-14464
▁Bốn	-14465
▁Cat	-14466
▁Cám	-14467
▁Cần	-14468
▁DNA	-14469
▁Dou	-14470
▁Dry	-14471
▁Due	-14472
▁Emb	-14473
▁Far	-14474
▁Fur	-14475
▁Gal	-14476
▁Hun	-14477
▁Hán	-14478
▁Ign	-14479
▁Imp	-14480
▁Ito	-14481
▁Jac	-14482
▁Jan	-14483
▁Leg	-14484
▁Lou	-14485
▁Mer	-14486
▁Mot	-14487
▁Mur	-14488
▁Màu	-14489
▁Mấy	-14490
▁Phụ	-14491
▁Rea	-14492
▁Res	-14493
▁Syd	-14494
▁Thu	-14495
▁Tối	-14496
▁USB	-14497
▁Vài	-14498
▁Váy	-14499
▁byg	-14500
▁dạn	-14501
▁dứa	-14502
▁fel	-14503
▁giở	-14504
▁gán	-14505
▁gốm	-14506
▁hùm	-14507
▁jaw	-14508
▁kếp	-14509
▁lob	-14510
▁lod	-14511
▁lẩm	-14512
▁lậu	-14513
▁lẽo	-14514
▁mop	-14515
▁mou	-14516
▁mow	-14517
▁mốc	-14518
▁neo	-14519
▁ngơ	-14520
▁nhị	-14521
▁núm	-14522
▁nếp	-14523
▁nớt	-14524
▁oak	-14525
▁ome	-14526
▁pod	-14527
▁pup	-14528
▁ram	-14529
▁rám	-14530
▁sảo	-14531
▁sồi	-14532
▁tas	-14533
▁thọ	-14534
▁tăm	-14535
▁tấc	-14536
▁tựa	-14537
▁tựu	-14538
▁via	-14539
▁véo	-14540
▁Đặt	-14541
▁đên	-14542
achus	-14543
adder	-14544
ament	-14545
andas	-14546
ansen	-14547
apped	-14548
archy	-14549
arius	-14550
arked	-14551
arted	-14552
asion	-14553
asted	-14554
athan	-14555
cedes	-14556
chiro	-14557
cuted	-14558
dered	-14559
ensed	-14560
erals	-14561
etian	-14562
ffiti	-14563
gered	-14564
ggles	-14565
gular	-14566
hashi	-14567
iance	-14568
iased	-14569
icial	-14570
iddle	-14571
iffel	-14572
ifies	-14573
ikoku	-14574
imals	-14575
isenh	-14576
isode	-14577
ivity	-14578
izawa	-14579
izoph	-14580
izumi	-14581
leans	-14582
mouth	-14583
neath	-14584
ogawa	-14585
osher	-14586
otein	-14587
otted	-14588
pects	-14589
ppies	-14590
reast	-14591
rency	-14592
ricia	-14593
sened	-14594
ument	-14595
uniko	-14596
usely	-14597
vable	-14598
venir	-14599
watch	-14600
▁1865	-14601
▁1903	-14602
▁1930	-14603
▁1933	-14604
▁1940	-14605
▁1945	-14606
▁1972	-14607
▁1987	-14608
▁1989	-14609
▁1992	-14610
▁1995	-14611
▁1997	-14612
▁2010	-14613
▁2:00	-14614
▁5:30	-14615
▁Beer	-14616
▁Cars	-14617
▁Diet	-14618
▁Fear	-14619
▁Fift	-14620
▁Fire	-14621
▁Gate	-14622
▁Giấc	-14623
▁Hide	-14624
▁Huấn	-14625
▁Imag	-14626
▁Khói	-14627
▁Kitô	-14628
▁Liên	-14629
▁Lock	-14630
▁Luis	-14631
▁Meas	-14632
▁News	-14633
▁Nick	-14634
▁Nile	-14635
▁Polk	-14636
▁Pret	-14637
▁Rock	-14638
▁Stri	-14639
▁Thưa	-14640
▁adam	-14641
▁adds	-14642
▁ador	-14643
▁anth	-14644
▁arth	-14645
▁axit	-14646
▁boun	-14647
▁cafe	-14648
▁cans	-14649
▁chip	-14650
▁chui	-14651
▁chạp	-14652
▁clut	-14653
▁coco	-14654
▁crut	-14655
▁cuba	-14656
▁eleg	-14657
▁eval	-14658
▁fame	-14659
▁fees	-14660
▁flin	-14661
▁foul	-14662
▁gieo	-14663
▁gown	-14664
▁halt	-14665
▁hash	-14666
▁hits	-14667
▁hong	-14668
▁hott	-14669
▁hắng	-14670
▁hổng	-14671
▁itub	-14672
▁jayw	-14673
▁jogs	-14674
▁khứu	-14675
▁kite	-14676
▁knit	-14677
▁knob	-14678
▁kong	-14679
▁limo	-14680
▁lisp	-14681
▁luis	-14682
▁mand	-14683
▁ming	-14684
▁miso	-14685
▁mãnh	-14686
▁ngợp	-14687
▁nhào	-14688
▁nhọn	-14689
▁ninj	-14690
▁núng	-14691
▁nạng	-14692
▁obed	-14693
▁outl	-14694
▁pach	-14695
▁phen	-14696
▁pint	-14697
▁plus	-14698
▁pose	-14699
▁prev	-14700
▁radi	-14701
▁rand	-14702
▁recy	-14703
▁reno	-14704
▁rong	-14705
▁rách	-14706
▁rùng	-14707
▁siết	-14708
▁skyd	-14709
▁slit	-14710
▁snap	-14711
▁snob	-14712
▁span	-14713
▁spit	-14714
▁sued	-14715
▁swig	-14716
▁tact	-14717
▁tame	-14718
▁tamp	-14719
▁thau	-14720
▁thấm	-14721
▁tips	-14722
▁tipt	-14723
▁tray	-14724
▁trâu	-14725
▁tuba	-14726
▁táng	-14727
▁unac	-14728
▁unhe	-14729
▁unpl	-14730
▁unsu	-14731
▁user	-14732
▁vacc	-14733
▁vice	-14734
▁vạch	-14735
▁vụng	-14736
▁weed	-14737
▁whip	-14738
▁wolf	-14739
▁xoăn	-14740
▁xuôi	-14741
▁zomb	-14742
▁đụng	-14743
abouts	-14744
acular	-14745
amaica	-14746
anshin	-14747
ashimi	-14748
atched	-14749
boards	-14750
bourne	-14751
bridge	-14752
burger	-14753
dollar	-14754
encies	-14755
ercise	-14756
icious	-14757
ignant	-14758
iotics	-14759
isters	-14760
keeper	-14761
leenex	-14762
lphins	-14763
oodles	-14764
orothy	-14765
ouched	-14766
ourbon	-14767
overty	-14768
plexed	-14769
rophob	-14770
seeing	-14771
senger	-14772
tering	-14773
ussell	-14774
washed	-14775
washer	-14776
▁1939.	-14777
▁1945.	-14778
▁1960.	-14779
▁2013.	-14780
▁2:30,	-14781
▁3:30.	-14782
▁Antar	-14783
▁Apple	-14784
▁Bruce	-14785
▁Chuck	-14786
▁Coast	-14787
▁Fifth	-14788
▁Flash	-14789
▁Giọng	-14790
▁Inter	-14791
▁Karen	-14792
▁Knock	-14793
▁Laura	-14794
▁Lucky	-14795
▁Mario	-14796
▁Ngừng	-14797
▁Nobel	-14798
▁Obama	-14799
▁Perry	-14800
▁Press	-14801
▁Prime	-14802
▁Royal	-14803
▁Smoke	-14804
▁Stars	-14805
▁Taste	-14806
▁Times	-14807
▁Tracy	-14808
▁Years	-14809
▁accus	-14810
▁alleg	-14811
▁alter	-14812
▁angle	-14813
▁arise	-14814
▁arose	-14815
▁await	-14816
▁bakes	-14817
▁beats	-14818
▁belly	-14819
▁bonus	-14820
▁boxer	-14821
▁chart	-14822
▁choke	-14823
▁chuồn	-14824
▁claus	-14825
▁consp	-14826
▁curse	-14827
▁dared	-14828
▁dazed	-14829
▁delus	-14830
▁depth	-14831
▁desks	-14832
▁drain	-14833
▁drill	-14834
▁dwell	-14835
▁eagle	-14836
▁exten	-14837
▁extre	-14838
▁flame	-14839
▁flirt	-14840
▁fraud	-14841
▁giang	-14842
▁giông	-14843
▁gover	-14844
▁grief	-14845
▁haiku	-14846
▁hedge	-14847
▁hills	-14848
▁hitch	-14849
▁index	-14850
▁ineff	-14851
▁infer	-14852
▁integ	-14853
▁karen	-14854
▁khuân	-14855
▁klutz	-14856
▁lasts	-14857
▁laura	-14858
▁lingu	-14859
▁lions	-14860
▁liver	-14861
▁loads	-14862
▁madly	-14863
▁mario	-14864
▁mince	-14865
▁moist	-14866
▁moves	-14867
▁nghẽn	-14868
▁ngoãn	-14869
▁ngoặt	-14870
▁ngẩng	-14871
▁nhích	-14872
▁nhũng	-14873
▁nicer	-14874
▁niềng	-14875
▁notep	-14876
▁obama	-14877
▁pains	-14878
▁pecul	-14879
▁penet	-14880
▁pinea	-14881
▁pipes	-14882
▁pushy	-14883
▁quart	-14884
▁radar	-14885
▁riser	-14886
▁rural	-14887
▁ruộng	-14888
▁sails	-14889
▁salty	-14890
▁sizes	-14891
▁smack	-14892
▁steel	-14893
▁steep	-14894
▁subst	-14895
▁sworn	-14896
▁tails	-14897
▁thình	-14898
▁timer	-14899
▁tonic	-14900
▁tribe	-14901
▁unpre	-14902
▁vices	-14903
▁views	-14904
▁viếng	-14905
▁vouch	-14906
▁widow	-14907
▁xưởng	-14908
aborate	-14909
akistan	-14910
akitori	-14911
amakura	-14912
amental	-14913
astered	-14914
berries	-14915
charged	-14916
fashion	-14917
icholas	-14918
ildered	-14919
ivalent	-14920
liament	-14921
otional	-14922
oulette	-14923
parable	-14924
pective	-14925
redient	-14926
smoking	-14927
sterdam	-14928
tysburg	-14929
▁Babies	-14930
▁Berber	-14931
▁Bridge	-14932
▁Coffee	-14933
▁Corpor	-14934
▁Darwin	-14935
▁Disney	-14936
▁Fasten	-14937
▁Govern	-14938
▁Hakone	-14939
▁Hoover	-14940
▁Ladies	-14941
▁Milton	-14942
▁Monica	-14943
▁Muslim	-14944
▁Nature	-14945
▁Sandra	-14946
▁Second	-14947
▁Skiing	-14948
▁Square	-14949
▁Sydney	-14950
▁Twenty	-14951
▁actors	-14952
▁actual	-14953
▁admits	-14954
▁alibis	-14955
▁annoys	-14956
▁anonym	-14957
▁assass	-14958
▁asthma	-14959
▁banned	-14960
▁bikini	-14961
▁biling	-14962
▁braces	-14963
▁breeze	-14964
▁bruise	-14965
▁caesar	-14966
▁calmed	-14967
▁caviar	-14968
▁chilly	-14969
▁chuộng	-14970
▁chướng	-14971
▁claust	-14972
▁clocks	-14973
▁comics	-14974
▁compos	-14975
▁convey	-14976
▁corpor	-14977
▁crocod	-14978
▁darwin	-14979
▁dealer	-14980
▁detest	-14981
▁discon	-14982
▁dragon	-14983
▁ducked	-14984
▁essays	-14985
▁ethnic	-14986
▁explor	-14987
▁firmly	-14988
▁floats	-14989
▁floods	-14990
▁framed	-14991
▁freaky	-14992
▁greasy	-14993
▁guinea	-14994
▁hakone	-14995
▁hearty	-14996
▁heroes	-14997
▁hinted	-14998
▁histor	-14999
▁hoover	-15000
▁humans	-15001
▁hybrid	-15002
▁hyster	-15003
▁impose	-15004
▁insens	-15005
▁intent	-15006
▁judged	-15007
▁landsc	-15008
▁lemons	-15009
▁levels	-15010
▁licked	-15011
▁liquid	-15012
▁listed	-15013
▁loaves	-15014
▁majors	-15015
▁marvel	-15016
▁mashed	-15017
▁milder	-15018
▁milton	-15019
▁monica	-15020
▁motive	-15021
▁muscle	-15022
▁napkin	-15023
▁newcom	-15024
▁ngượng	-15025
▁opener	-15026
▁overfl	-15027
▁paraly	-15028
▁parrot	-15029
▁pigeon	-15030
▁pirate	-15031
▁poetry	-15032
▁powers	-15033
▁prayer	-15034
▁premon	-15035
▁pumped	-15036
▁qualms	-15037
▁racial	-15038
▁reader	-15039
▁reckon	-15040
▁rental	-15041
▁rinsed	-15042
▁server	-15043
▁shadow	-15044
▁sighed	-15045
▁sipped	-15046
▁slaves	-15047
▁sneeze	-15048
▁splash	-15049
▁spoons	-15050
▁spying	-15051
▁stereo	-15052
▁stored	-15053
▁stuffy	-15054
▁suited	-15055
▁suntan	-15056
▁sydney	-15057
▁talker	-15058
▁tariff	-15059
▁tested	-15060
▁thesis	-15061
▁throne	-15062
▁tulips	-15063
▁undert	-15064
▁undone	-15065
▁unlock	-15066
▁untidy	-15067
▁upload	-15068
▁values	-15069
▁voting	-15070
▁yanked	-15071
boarding	-15072
ceptable	-15073
daughter	-15074
inkansen	-15075
izophren	-15076
speaking	-15077
▁300.000	-15078
▁African	-15079
▁Animals	-15080
▁Atlanta	-15081
▁Barbara	-15082
▁Clearly	-15083
▁Congrat	-15084
▁Exactly	-15085
▁Farmers	-15086
▁Friends	-15087
▁Hawking	-15088
▁Honesty	-15089
▁Indones	-15090
▁Kissing	-15091
▁Poverty	-15092
▁Prepare	-15093
▁Shibuya	-15094
▁Silence	-15095
▁Someday	-15096
▁Success	-15097
▁Workers	-15098
▁abreast	-15099
▁absorbs	-15100
▁anxiety	-15101
▁barbara	-15102
▁behaves	-15103
▁beliefs	-15104
▁beneath	-15105
▁blessed	-15106
▁borders	-15107
▁borrows	-15108
▁bounced	-15109
▁bravely	-15110
▁bravery	-15111
▁bullied	-15112
▁burrito	-15113
▁bygones	-15114
▁chapter	-15115
▁chewing	-15116
▁concept	-15117
▁conform	-15118
▁context	-15119
▁council	-15120
▁dealers	-15121
▁debated	-15122
▁decency	-15123
▁deficit	-15124
▁diagram	-15125
▁doubled	-15126
▁drawers	-15127
▁emotion	-15128
▁enables	-15129
▁engines	-15130
▁episode	-15131
▁explode	-15132
▁failing	-15133
▁fingern	-15134
▁finicky	-15135
▁firemen	-15136
▁fitness	-15137
▁flatter	-15138
▁floated	-15139
▁frankly	-15140
▁freezes	-15141
▁gaining	-15142
▁goggles	-15143
▁grandma	-15144
▁hopeful	-15145
▁illiter	-15146
▁immense	-15147
▁kennedy	-15148
▁learner	-15149
▁legally	-15150
▁mailing	-15151
▁mourned	-15152
▁nametag	-15153
▁nodding	-15154
▁outlook	-15155
▁pastime	-15156
▁pension	-15157
▁planets	-15158
▁plugged	-15159
▁plumber	-15160
▁prudent	-15161
▁pumpkin	-15162
▁radical	-15163
▁refusal	-15164
▁retires	-15165
▁revenge	-15166
▁rewrote	-15167
▁robbers	-15168
▁romania	-15169
▁samurai	-15170
▁sashimi	-15171
▁satisfy	-15172
▁scraped	-15173
▁seasons	-15174
▁sharpen	-15175
▁sharply	-15176
▁shelves	-15177
▁shibuya	-15178
▁skilled	-15179
▁soundly	-15180
▁stalled	-15181
▁strikes	-15182
▁swamped	-15183
▁threats	-15184
▁tragedy	-15185
▁traitor	-15186
▁treason	-15187
▁trimmed	-15188
▁twisted	-15189
▁unarmed	-15190
▁venture	-15191
▁verdict	-15192
▁winters	-15193
achusetts	-15194
adivarius	-15195
fashioned	-15196
ilippines	-15197
isenhower	-15198
nderstorm	-15199
stitution	-15200
▁Actinium	-15201
▁Airlines	-15202
▁Building	-15203
▁Continue	-15204
▁Exercise	-15205
▁Language	-15206
▁Malaysia	-15207
▁Minister	-15208
▁Needless	-15209
▁Sasayama	-15210
▁Studying	-15211
▁Supplies	-15212
▁adorable	-15213
▁agreeing	-15214
▁although	-15215
▁altitude	-15216
▁antiques	-15217
▁assisted	-15218
▁assuming	-15219
▁backward	-15220
▁bitterly	-15221
▁blessing	-15222
▁blushing	-15223
▁bragging	-15224
▁branches	-15225
▁brightly	-15226
▁brownies	-15227
▁confined	-15228
▁consumes	-15229
▁contempt	-15230
▁covering	-15231
▁creature	-15232
▁crouched	-15233
▁crutches	-15234
▁currency	-15235
▁deceased	-15236
▁defended	-15237
▁departed	-15238
▁dramatic	-15239
▁dreadful	-15240
▁dropping	-15241
▁electron	-15242
▁elements	-15243
▁excluded	-15244
▁extended	-15245
▁external	-15246
▁feverish	-15247
▁frequent	-15248
▁gracious	-15249
▁graffiti	-15250
▁guessing	-15251
▁homemade	-15252
▁homeroom	-15253
▁humanity	-15254
▁husbands	-15255
▁implying	-15256
▁incompet	-15257
▁indicate	-15258
▁initials	-15259
▁insecure	-15260
▁instinct	-15261
▁intently	-15262
▁interrog	-15263
▁interven	-15264
▁invaders	-15265
▁invested	-15266
▁irresist	-15267
▁kangaroo	-15268
▁likeable	-15269
▁mandolin	-15270
▁meanings	-15271
▁miracles	-15272
▁moderate	-15273
▁monument	-15274
▁mortgage	-15275
▁northern	-15276
▁noticing	-15277
▁operated	-15278
▁outgoing	-15279
▁pachinko	-15280
▁peculiar	-15281
▁phenomen	-15282
▁pointing	-15283
▁printing	-15284
▁provides	-15285
▁reaching	-15286
▁reconsid	-15287
▁refilled	-15288
▁requests	-15289
▁resource	-15290
▁rewarded	-15291
▁sailboat	-15292
▁sasayama	-15293
▁scolding	-15294
▁seatbelt	-15295
▁shortcut	-15296
▁showered	-15297
▁signaled	-15298
▁smallest	-15299
▁southern	-15300
▁souvenir	-15301
▁stations	-15302
▁suggests	-15303
▁summoned	-15304
▁suppress	-15305
▁survivor	-15306
▁swimmers	-15307
▁unbiased	-15308
▁venetian	-15309
▁vocation	-15310
▁workshop	-15311
▁Alexander	-15312
▁Argentina	-15313
▁Christian	-15314
▁Democracy	-15315
▁Hollywood	-15316
[...]
