<unk>	0
<s>	0
</s>	0
▁t	-0
ng	-1
▁c	-2
▁đ	-3
nh	-4
▁v	-5
▁th	-6
▁l	-7
▁ch	-8
▁h	-9
▁m	-10
▁b	-11
▁k	-12
▁n	-13
▁tr	-14
▁s	-15
▁nh	-16
▁kh	-17
▁g	-18
▁ng	-19
▁và	-20
▁là	-21
ông	-22
▁p	-23
▁ph	-24
▁d	-25
▁T	-26
ác	-27
ủa	-28
▁của	-29
ên	-30
▁C	-31
▁gi	-32
ột	-33
ượ	-34
ôi	-35
▁r	-36
iệ	-37
▁một	-38
iế	-39
▁có	-40
ườ	-41
ới	-42
ược	-43
qu	-44
▁N	-45
▁qu	-46
an	-47
▁được	-48
ong	-49
ại	-50
▁không	-51
▁các	-52
ất	-53
ày	-54
uy	-55
▁đã	-56
▁1	-57
▁x	-58
▁tôi	-59
ười	-60
▁trong	-61
▁M	-62
on	-63
▁B	-64
anh	-65
ăm	-66
▁người	-67
▁S	-68
▁cho	-69
▁ta	-70
▁H	-71
úng	-72
▁với	-73
iên	-74
iề	-75
ình	-76
ân	-77
▁đó	-78
▁nó	-79
▁năm	-80
▁A	-81
ch	-82
▁Đ	-83
ải	-84
ần	-85
▁V	-86
ai	-87
ành	-88
ững	-89
▁ngh	-90
▁ở	-91
ây	-92
..	-93
ay	-94
ấy	-95
▁như	-96
▁này	-97
ao	-98
in	-99
▁thể	-100
iều	-101
uố	-102
▁những	-103
er	-104
ến	-105
▁K	-106
▁Ch	-107
ầu	-108
▁2	-109
▁họ	-110
▁L	-111
ang	-112
▁vào	-113
au	-114
ar	-115
▁(	-116
ướ	-117
▁P	-118
▁sẽ	-119
áng	-120
▁anh	-121
iết	-122
▁ra	-123
iể	-124
ết	-125
ươ	-126
▁chúng	-127
▁đến	-128
iện	-129
▁từ	-130
ật	-131
▁để	-132
inh	-133
▁làm	-134
ực	-135
▁khi	-136
▁độ	-137
ái	-138
oà	-139
▁Th	-140
ính	-141
ản	-142
am	-143
ạn	-144
ường	-145
ằng	-146
ương	-147
▁cả	-148
ời	-149
ống	-150
ận	-151
ước	-152
▁sự	-153
ức	-154
iến	-155
en	-156
▁phải	-157
át	-158
ơn	-159
▁về	-160
▁Nh	-161
▁thành	-162
▁Tôi	-163
ung	-164
ùng	-165
▁G	-166
▁đầu	-167
ập	-168
ào	-169
▁-	-170
▁Tr	-171
00	-172
▁D	-173
al	-174
em	-175
▁ông	-176
or	-177
▁mà	-178
âu	-179
▁19	-180
▁"	-181
iệc	-182
▁lại	-183
▁gì	-184
ũng	-185
▁bị	-186
ộc	-187
ối	-188
▁tại	-189
▁tháng	-190
▁thế	-191
▁con	-192
▁cô	-193
▁đi	-194
▁nói	-195
▁việc	-196
▁chuy	-197
▁ho	-198
▁cũng	-199
...	-200
▁biết	-201
▁R	-202
▁ngày	-203
ia	-204
uộc	-205
▁khác	-206
▁trên	-207
ồi	-208
es	-209
ài	-210
▁số	-211
ặc	-212
ổi	-213
▁nhà	-214
▁công	-215
▁chỉ	-216
eo	-217
áo	-218
▁đây	-219
▁hơn	-220
àng	-221
▁đị	-222
▁Anh	-223
ơi	-224
ọi	-225
▁học	-226
ục	-227
el	-228
ăng	-229
▁chính	-230
▁Kh	-231
▁đang	-232
▁tiế	-233
òn	-234
uốn	-235
▁điều	-236
ền	-237
ích	-238
▁nghĩ	-239
ắt	-240
▁nhất	-241
ữa	-242
ốc	-243
ậu	-244
at	-245
ăn	-246
▁sau	-247
▁Ng	-248
im	-249
ội	-250
án	-251
▁nhiều	-252
ưa	-253
ắc	-254
is	-255
▁gia	-256
ậy	-257
ếu	-258
oàn	-259
iệu	-260
▁bạn	-261
▁thứ	-262
▁thấy	-263
iê	-264
ện	-265
ạo	-266
úc	-267
ảo	-268
▁Ph	-269
▁rằng	-270
▁cách	-271
▁mình	-272
▁E	-273
ởi	-274
▁động	-275
▁muốn	-276
▁dụ	-277
ồng	-278
▁quan	-279
▁ấy	-280
▁hiện	-281
▁thu	-282
▁nào	-283
âm	-284
ắn	-285
▁còn	-286
▁vì	-287
▁I	-288
▁quy	-289
ánh	-290
▁nhưng	-291
ôn	-292
▁đề	-293
ặt	-294
▁20	-295
áp	-296
ượng	-297
ảng	-298
ẫn	-299
il	-300
▁em	-301
as	-302
▁sao	-303
ol	-304
òng	-305
▁F	-306
ởng	-307
ưởng	-308
ứng	-309
iệt	-310
▁do	-311
▁phát	-312
us	-313
▁rồi	-314
it	-315
▁thực	-316
▁J	-317
▁Và	-318
▁cùng	-319
▁sử	-320
▁thời	-321
▁dụng	-322
ạt	-323
▁cái	-324
▁cuộc	-325
▁y	-326
▁theo	-327
▁rất	-328
▁thì	-329
▁Q	-330
iểu	-331
▁nhân	-332
ấp	-333
ic	-334
▁W	-335
▁hai	-336
▁lo	-337
▁3	-338
▁hành	-339
▁bộ	-340
▁định	-341
iển	-342
ấn	-343
uất	-344
▁tới	-345
▁bởi	-346
ấu	-347
▁kho	-348
et	-349
▁hình	-350
▁trước	-351
▁giờ	-352
iểm	-353
▁lớ	-354
oài	-355
ưng	-356
▁Chúng	-357
▁bản	-358
ợp	-359
▁nhận	-360
os	-361
iễ	-362
▁giới	-363
ịch	-364
▁bao	-365
▁bằng	-366
ur	-367
▁tự	-368
▁chuyện	-369
▁viên	-370
▁201	-371
ạc	-372
▁hợp	-373
ỏi	-374
▁cậu	-375
om	-376
▁cần	-377
▁qua	-378
▁bắt	-379
▁vậy	-380
▁chiến	-381
▁nước	-382
▁lớn	-383
▁sinh	-384
▁xuất	-385
▁trở	-386
▁Nó	-387
▁Các	-388
▁dự	-389
▁phần	-390
▁tên	-391
ạng	-392
ìm	-393
▁cứ	-394
▁lên	-395
▁quốc	-396
▁đồng	-397
ọng	-398
áy	-399
▁lu	-400
▁nên	-401
▁lý	-402
▁200	-403
▁kết	-404
▁tiên	-405
▁bà	-406
▁tiếp	-407
ad	-408
▁phí	-409
iệm	-410
▁sống	-411
iền	-412
ộng	-413
ốt	-414
iễn	-415
▁vị	-416
uốc	-417
▁hoặc	-418
ách	-419
▁O	-420
▁hàng	-421
▁trình	-422
▁tìm	-423
▁gọi	-424
ỗi	-425
▁trường	-426
▁thường	-427
▁mới	-428
▁tuy	-429
▁tu	-430
▁cơ	-431
ển	-432
▁giải	-433
▁Nhưng	-434
▁tạo	-435
▁hay	-436
id	-437
▁Một	-438
▁tin	-439
▁nữa	-440
ọn	-441
▁lập	-442
▁tổ	-443
▁quân	-444
iệp	-445
▁tính	-446
ồn	-447
▁thống	-448
▁Không	-449
le	-450
▁tế	-451
ừng	-452
▁Trong	-453
▁khu	-454
▁vật	-455
▁Có	-456
▁vụ	-457
▁Gi	-458
▁thông	-459
▁đại	-460
óa	-461
▁Ô	-462
ot	-463
▁4	-464
and	-465
▁5	-466
▁hội	-467
▁nhau	-468
▁lượng	-469
▁tiếng	-470
▁nhiên	-471
▁dân	-472
▁chủ	-473
▁máy	-474
iêu	-475
▁chiế	-476
êu	-477
▁lần	-478
óng	-479
▁mọi	-480
út	-481
).	-482
▁ý	-483
▁gian	-484
ám	-485
▁đối	-486
▁hệ	-487
▁Ông	-488
ảnh	-489
▁sản	-490
▁toàn	-491
▁đâu	-492
un	-493
ạnh	-494
uối	-495
ệnh	-496
àn	-497
hi	-498
▁phía	-499
▁nơi	-500
▁mặt	-501
▁bố	-502
uyền	-503
▁nếu	-504
ảy	-505
▁tất	-506
▁năng	-507
ua	-508
▁đổi	-509
▁bảo	-510
▁đường	-511
▁quá	-512
▁diễn	-513
▁X	-514
▁vẫn	-515
ắng	-516
re	-517
▁Cô	-518
▁loại	-519
ra	-520
▁tốt	-521
▁thay	-522
▁lực	-523
▁trị	-524
▁đội	-525
um	-526
▁U	-527
▁ai	-528
áu	-529
▁tâm	-530
▁Ho	-531
ửa	-532
▁cao	-533
ồm	-534
▁liên	-535
▁trung	-536
),	-537
▁hóa	-538
▁cầu	-539
▁chức	-540
ưới	-541
▁chuyển	-542
▁điểm	-543
▁thức	-544
▁thích	-545
▁tác	-546
uyên	-547
▁gồm	-548
▁quyền	-549
êm	-550
ìn	-551
▁sĩ	-552
ro	-553
ặp	-554
▁Y	-555
▁thật	-556
▁tranh	-557
th	-558
▁chưa	-559
úp	-560
▁thiết	-561
▁cảm	-562
▁biệt	-563
ãy	-564
▁Quốc	-565
ẳng	-566
▁bất	-567
▁6	-568
▁trọng	-569
▁chứ	-570
àu	-571
▁báo	-572
▁nay	-573
▁đấy	-574
▁cấp	-575
▁cứu	-576
ing	-577
ướng	-578
▁cuối	-579
▁thị	-580
ẩn	-581
▁đưa	-582
▁ảnh	-583
ép	-584
▁thủ	-585
▁yêu	-586
▁phố	-587
ag	-588
▁bỏ	-589
▁giả	-590
▁chết	-591
▁giữa	-592
▁vực	-593
▁phân	-594
▁tập	-595
▁bay	-596
ter	-597
▁phim	-598
▁câu	-599
▁lúc	-600
ak	-601
ầm	-602
▁.	-603
▁đo	-604
▁tình	-605
▁10	-606
▁7	-607
ẩm	-608
▁Sau	-609
▁nghiệp	-610
▁chơi	-611
ạm	-612
▁Nếu	-613
ạch	-614
▁18	-615
òa	-616
▁nghĩa	-617
▁khoảng	-618
uống	-619
▁thuật	-620
ac	-621
▁phòng	-622
▁tiền	-623
▁kế	-624
▁Trung	-625
▁giáo	-626
▁hiệu	-627
ằm	-628
▁ăn	-629
▁bên	-630
▁giúp	-631
▁tham	-632
ed	-633
▁ba	-634
▁đều	-635
▁gần	-636
▁tay	-637
óm	-638
▁hết	-639
▁đánh	-640
▁vấn	-641
ul	-642
▁địa	-643
▁ngoài	-644
▁đặc	-645
▁sáng	-646
▁hoạt	-647
▁Mỹ	-648
▁nhìn	-649
▁khỏi	-650
▁tương	-651
▁hắn	-652
▁chất	-653
▁nhỏ	-654
▁9	-655
▁kỳ	-656
▁truyền	-657
▁xem	-658
▁triển	-659
▁từng	-660
▁thôi	-661
▁so	-662
ir	-663
▁nữ	-664
▁mất	-665
▁phương	-666
ig	-667
▁8	-668
▁phụ	-669
▁pháp	-670
ưu	-671
▁St	-672
▁biến	-673
▁Qu	-674
▁thuộc	-675
ợi	-676
▁sát	-677
▁đất	-678
▁gặp	-679
▁tàu	-680
▁kinh	-681
▁Em	-682
▁liệu	-683
ét	-684
▁chị	-685
▁giống	-686
▁trí	-687
ắm	-688
oại	-689
▁điện	-690
▁Năm	-691
▁giá	-692
uyện	-693
▁Họ	-694
▁Đó	-695
▁hoàn	-696
▁Đây	-697
ab	-698
▁nghe	-699
▁văn	-700
▁chu	-701
▁bình	-702
▁Những	-703
▁sách	-704
▁dưới	-705
▁đấu	-706
ie	-707
▁chiếc	-708
▁dịch	-709
▁tưởng	-710
▁dẫn	-711
▁vài	-712
▁đạo	-713
▁mẹ	-714
▁Hoa	-715
▁mô	-716
▁Mar	-717
▁lời	-718
▁đơn	-719
▁tử	-720
▁dùng	-721
▁nhạc	-722
▁Con	-723
ừa	-724
ion	-725
▁vùng	-726
▁quả	-727
▁thương	-728
▁mang	-729
▁Nam	-730
▁trẻ	-731
▁xác	-732
▁Al	-733
▁ngay	-734
▁chế	-735
▁lã	-736
ạy	-737
ou	-738
▁xe	-739
▁đặt	-740
▁Vào	-741
▁bệnh	-742
ít	-743
▁tư	-744
▁199	-745
óc	-746
▁tiến	-747
od	-748
▁12	-749
▁quyết	-750
▁ứng	-751
▁nhóm	-752
▁bài	-753
ắp	-754
▁vô	-755
▁Khi	-756
▁giết	-757
ap	-758
▁to	-759
ùa	-760
▁hỏi	-761
▁viết	-762
▁tăng	-763
000	-764
▁cố	-765
▁dù	-766
▁nhiệm	-767
▁Vậy	-768
▁khí	-769
▁gái	-770
▁tài	-771
av	-772
▁xảy	-773
▁tiêu	-774
▁loài	-775
▁bu	-776
▁kể	-777
▁phép	-778
▁âm	-779
oàng	-780
▁nổi	-781
▁cảnh	-782
▁giữ	-783
▁minh	-784
▁Kỳ	-785
▁tuổi	-786
ob	-787
ow	-788
▁đúng	-789
▁ban	-790
▁phẩm	-791
▁hiểu	-792
ệt	-793
op	-794
st	-795
uyết	-796
▁đời	-797
▁mở	-798
▁vệ	-799
ent	-800
ov	-801
▁bán	-802
▁nguyên	-803
▁11	-804
▁đảo	-805
▁trang	-806
▁tục	-807
ấm	-808
ard	-809
▁lấy	-810
▁đáng	-811
ey	-812
▁duy	-813
▁chứng	-814
▁kỷ	-815
ọc	-816
ổng	-817
▁Ta	-818
ill	-819
▁thân	-820
ạp	-821
▁Ne	-822
▁trò	-823
▁phục	-824
▁danh	-825
▁Tây	-826
▁chú	-827
ah	-828
▁chí	-829
▁nằm	-830
▁tích	-831
".	-832
ine	-833
ỉnh	-834
▁phủ	-835
▁Đại	-836
0,	-837
▁hạn	-838
▁thêm	-839
▁dài	-840
▁đình	-841
▁tượng	-842
▁nghệ	-843
▁mạnh	-844
▁ngữ	-845
▁biển	-846
ok	-847
▁dựng	-848
▁An	-849
▁mỗi	-850
▁cá	-851
▁mục	-852
▁ty	-853
▁ít	-854
ri	-855
ôm	-856
ứa	-857
▁Người	-858
."	-859
▁rộng	-860
▁tinh	-861
▁ngu	-862
▁phá	-863
▁trả	-864
▁châu	-865
▁đô	-866
▁xuống	-867
▁à	-868
▁xây	-869
▁bóng	-870
▁chọn	-871
▁Tuy	-872
▁nghiên	-873
▁bé	-874
▁Cậu	-875
▁trưởng	-876
▁đóng	-877
ãi	-878
▁án	-879
of	-880
▁chương	-881
ầy	-882
▁Nhật	-883
▁luôn	-884
▁viện	-885
▁nhập	-886
▁trai	-887
▁hộ	-888
▁giao	-889
▁đồ	-890
oi	-891
▁Vì	-892
ph	-893
▁sở	-894
iêng	-895
▁cộng	-896
iếm	-897
▁khả	-898
▁tổng	-899
▁di	-900
▁thần	-901
▁gây	-902
▁trận	-903
ton	-904
▁triệu	-905
▁cung	-906
▁hát	-907
▁đoàn	-908
▁hướng	-909
▁diện	-910
ựa	-911
ell	-912
▁198	-913
▁tối	-914
▁Lan	-915
▁lẽ	-916
▁Bản	-917
▁(1	-918
▁lạc	-919
▁biểu	-920
▁Đức	-921
▁yếu	-922
▁lịch	-923
▁Pháp	-924
▁Công	-925
▁đủ	-926
▁cổ	-927
▁nghiệm	-928
ẹp	-929
ốn	-930
▁Sh	-931
▁kẻ	-932
▁Điều	-933
ip	-934
tr	-935
ian	-936
ươi	-937
▁Liên	-938
▁tuần	-939
▁tớ	-940
▁cửa	-941
ik	-942
▁khó	-943
▁hưởng	-944
▁luật	-945
▁thi	-946
▁chống	-947
iv	-948
▁trợ	-949
▁Thế	-950
ran	-951
▁thuyết	-952
▁thư	-953
▁đông	-954
ủng	-955
▁nam	-956
▁chắc	-957
▁mùa	-958
▁sức	-959
▁mạng	-960
▁nguồn	-961
▁Bắc	-962
▁giảm	-963
▁lãnh	-964
▁chi	-965
0.	-966
aw	-967
ut	-968
ẫu	-969
▁Ar	-970
▁cha	-971
▁194	-972
▁vai	-973
àm	-974
▁chẳng	-975
oh	-976
▁xã	-977
▁độc	-978
▁cư	-979
▁riêng	-980
▁Â	-981
▁rõ	-982
▁sư	-983
▁Le	-984
▁khoa	-985
▁nhớ	-986
▁In	-987
all	-988
iêm	-989
▁tho	-990
▁vận	-991
▁cháu	-992
▁dạng	-993
ib	-994
ếp	-995
-1	-996
▁an	-997
▁lâu	-998
▁chịu	-999
▁phản	-1000
▁f	-1001
▁cử	-1002
▁ngôi	-1003
▁chung	-1004
ec	-1005
▁vi	-1006
▁tra	-1007
ảm	-1008
eb	-1009
▁New	-1010
▁tuyệt	-1011
▁xa	-1012
ich	-1013
▁ghi	-1014
▁lưu	-1015
▁hãy	-1016
▁vũ	-1017
▁ký	-1018
▁lỗi	-1019
▁mua	-1020
▁đàn	-1021
▁kiểm	-1022
ist	-1023
▁vu	-1024
▁đá	-1025
▁đoạn	-1026
▁kiến	-1027
▁thúc	-1028
ub	-1029
▁15	-1030
▁chỗ	-1031
▁Bà	-1032
▁mày	-1033
ev	-1034
ậm	-1035
ant	-1036
ặng	-1037
▁197	-1038
▁17	-1039
iếng	-1040
▁Do	-1041
▁kiện	-1042
▁chút	-1043
▁thuốc	-1044
▁Ba	-1045
▁lệ	-1046
▁cáo	-1047
ủy	-1048
▁mắt	-1049
▁hòa	-1050
▁vọng	-1051
ers	-1052
▁Âu	-1053
▁tội	-1054
▁quay	-1055
▁thắng	-1056
iếu	-1057
ão	-1058
▁hoàng	-1059
▁mặc	-1060
▁quanh	-1061
▁bọn	-1062
▁khiến	-1063
▁Z	-1064
og	-1065
▁chuẩn	-1066
▁Tại	-1067
▁hôn	-1068
ượt	-1069
▁cây	-1070
▁tả	-1071
▁Sao	-1072
▁đôi	-1073
▁vòng	-1074
▁khách	-1075
▁màu	-1076
▁Bộ	-1077
1,	-1078
úi	-1079
▁ca	-1080
ữu	-1081
▁Ý	-1082
ain	-1083
▁Ngh	-1084
5,	-1085
▁ơn	-1086
▁chạy	-1087
",	-1088
4,	-1089
▁Br	-1090
▁hữu	-1091
▁tồn	-1092
▁đẹp	-1093
3,	-1094
▁in	-1095
▁ké	-1096
▁áp	-1097
▁Chú	-1098
▁Hãy	-1099
▁al	-1100
▁196	-1101
▁hôm	-1102
▁lợi	-1103
▁chia	-1104
▁quản	-1105
▁tiết	-1106
6,	-1107
▁mức	-1108
▁xin	-1109
▁đứng	-1110
▁vừa	-1111
▁Ngày	-1112
▁thanh	-1113
ce	-1114
▁cụ	-1115
▁nền	-1116
▁luận	-1117
âng	-1118
▁trực	-1119
▁dành	-1120
▁bang	-1121
io	-1122
est	-1123
▁Đông	-1124
#2	-1125
▁Theo	-1126
▁The	-1127
▁đứa	-1128
▁kích	-1129
▁sông	-1130
2,	-1131
▁vẻ	-1132
▁Chỉ	-1133
▁bức	-1134
▁Thái	-1135
ỏa	-1136
▁Car	-1137
▁kiếm	-1138
▁thử	-1139
▁cập	-1140
▁sân	-1141
if	-1142
▁Ban	-1143
▁Bạn	-1144
▁vui	-1145
▁195	-1146
▁bắc	-1147
▁dục	-1148
▁of	-1149
▁đạt	-1150
▁bắn	-1151
ry	-1152
▁Ở	-1153
.000	-1154
▁kia	-1155
▁lòng	-1156
▁dễ	-1157
▁gốc	-1158
▁doanh	-1159
▁Lu	-1160
8,	-1161
eg	-1162
man	-1163
▁Phi	-1164
▁tiểu	-1165
▁suy	-1166
▁chuyên	-1167
▁rời	-1168
▁nghị	-1169
▁toán	-1170
▁...	-1171
▁bây	-1172
▁ngôn	-1173
▁Ấ	-1174
▁Để	-1175
▁buổi	-1176
▁sang	-1177
▁ngoại	-1178
ĩnh	-1179
▁hạng	-1180
▁nhanh	-1181
▁mấy	-1182
▁nhiệt	-1183
▁cực	-1184
▁tao	-1185
▁phong	-1186
▁tù	-1187
▁dựa	-1188
ín	-1189
uốt	-1190
▁coi	-1191
▁xử	-1192
▁hậu	-1193
▁hoạch	-1194
▁sợ	-1195
▁Par	-1196
ert	-1197
▁phạm	-1198
▁gh	-1199
▁lệnh	-1200
7,	-1201
▁hầu	-1202
▁Nhà	-1203
▁lắm	-1204
▁đêm	-1205
▁khai	-1206
▁ngài	-1207
▁thiên	-1208
▁hỗ	-1209
▁huy	-1210
▁ước	-1211
▁trời	-1212
az	-1213
yl	-1214
▁nội	-1215
▁phổ	-1216
ord	-1217
▁bầu	-1218
#7	-1219
up	-1220
ón	-1221
▁Từ	-1222
▁kỹ	-1223
ly	-1224
ẵn	-1225
▁mối	-1226
▁tỉnh	-1227
▁binh	-1228
▁chiếm	-1229
ina	-1230
▁tộc	-1231
▁bác	-1232
▁thập	-1233
▁Á	-1234
▁chân	-1235
ud	-1236
▁--	-1237
▁tuyến	-1238
▁bàn	-1239
▁tây	-1240
uk	-1241
▁hại	-1242
▁thú	-1243
▁trái	-1244
▁Sự	-1245
▁16	-1246
▁đa	-1247
▁thoại	-1248
▁đầy	-1249
▁Nha	-1250
bum	-1251
▁phiên	-1252
ỏng	-1253
▁vợ	-1254
▁Ấn	-1255
▁xếp	-1256
▁trúc	-1257
▁dữ	-1258
▁phút	-1259
▁Được	-1260
▁tuyên	-1261
▁Joh	-1262
▁sắc	-1263
▁cạnh	-1264
▁Tổng	-1265
9,	-1266
art	-1267
▁tạp	-1268
▁hiểm	-1269
ug	-1270
▁dòng	-1271
▁niên	-1272
▁thất	-1273
ne	-1274
ess	-1275
▁buộc	-1276
▁193	-1277
▁sẵn	-1278
▁tòa	-1279
▁ngươi	-1280
▁soát	-1281
oc	-1282
▁Ai	-1283
▁Am	-1284
▁giành	-1285
ep	-1286
▁bào	-1287
▁vua	-1288
▁chấp	-1289
ork	-1290
▁Độ	-1291
▁kéo	-1292
▁ổ	-1293
▁tố	-1294
▁chuyến	-1295
▁du	-1296
▁cuốn	-1297
▁hạt	-1298
▁thấp	-1299
2.	-1300
5.	-1301
ĩa	-1302
▁mẫu	-1303
▁hơi	-1304
▁suốt	-1305
▁II	-1306
ex	-1307
ưỡ	-1308
▁w	-1309
▁biên	-1310
son	-1311
▁hồi	-1312
sk	-1313
▁khá	-1314
▁bại	-1315
▁đổ	-1316
▁miền	-1317
▁cánh	-1318
▁14	-1319
▁the	-1320
▁tức	-1321
ẩu	-1322
▁kì	-1323
▁Tất	-1324
́t	-1325
▁căn	-1326
▁dấu	-1327
▁núi	-1328
▁lộ	-1329
▁Nga	-1330
▁nhé	-1331
▁trụ	-1332
▁bước	-1333
3.	-1334
ue	-1335
▁sắp	-1336
ge	-1337
▁,	-1338
ach	-1339
▁đế	-1340
▁sai	-1341
▁phi	-1342
▁lai	-1343
▁xét	-1344
1.	-1345
ast	-1346
iềm	-1347
▁Hai	-1348
▁môi	-1349
▁nguy	-1350
▁càng	-1351
▁bốn	-1352
▁máu	-1353
▁Chúa	-1354
▁30	-1355
▁thuận	-1356
7.	-1357
▁de	-1358
▁Hải	-1359
▁cải	-1360
▁cấu	-1361
▁(2	-1362
▁Cho	-1363
▁đốc	-1364
▁John	-1365
▁giác	-1366
▁nhiễ	-1367
ớm	-1368
ox	-1369
ãn	-1370
▁kê	-1371
▁Giờ	-1372
▁giai	-1373
▁Chiến	-1374
▁La	-1375
▁băng	-1376
▁súng	-1377
ind	-1378
▁hủy	-1379
▁ngủ	-1380
ẩy	-1381
▁nạn	-1382
▁quần	-1383
▁Col	-1384
▁trách	-1385
▁Pr	-1386
▁Cái	-1387
▁gắng	-1388
ation	-1389
te	-1390
▁Tớ	-1391
▁hy	-1392
▁lửa	-1393
▁trạng	-1394
▁tỷ	-1395
▁phóng	-1396
▁đừng	-1397
▁13	-1398
▁mật	-1399
▁ràng	-1400
ax	-1401
uôi	-1402
▁Hy	-1403
ửi	-1404
▁“	-1405
▁trừ	-1406
▁trải	-1407
ond	-1408
▁đài	-1409
▁Fran	-1410
▁kiểu	-1411
▁nông	-1412
▁chứa	-1413
sh	-1414
▁Cl	-1415
▁cận	-1416
▁xung	-1417
orn	-1418
▁Hắn	-1419
▁sâu	-1420
▁nghi	-1421
▁thái	-1422
▁bổ	-1423
▁đau	-1424
▁album	-1425
▁El	-1426
▁Cộng	-1427
▁tướng	-1428
ek	-1429
▁Đừng	-1430
▁luyện	-1431
▁đích	-1432
▁Chính	-1433
ann	-1434
▁đoán	-1435
▁nhiễm	-1436
6.	-1437
#78	-1438
one	-1439
▁tái	-1440
▁khởi	-1441
▁uống	-1442
▁ổn	-1443
ãng	-1444
land	-1445
▁trao	-1446
▁Hoàng	-1447
oy	-1448
▁hạ	-1449
▁dung	-1450
4.	-1451
our	-1452
▁lễ	-1453
▁nối	-1454
▁dương	-1455
ath	-1456
▁ngắn	-1457
▁chiều	-1458
▁cũ	-1459
▁hả	-1460
▁Thật	-1461
▁ngăn	-1462
▁thoát	-1463
ame	-1464
▁Với	-1465
▁xúc	-1466
▁vàng	-1467
▁Việc	-1468
enn	-1469
▁thổ	-1470
▁ánh	-1471
▁trấn	-1472
▁địch	-1473
▁bờ	-1474
▁Bây	-1475
ặn	-1476
▁–	-1477
igh	-1478
▁Phải	-1479
▁sóng	-1480
▁25	-1481
▁chắn	-1482
▁dạy	-1483
▁quý	-1484
ein	-1485
▁vương	-1486
ada	-1487
8.	-1488
yr	-1489
▁đột	-1490
▁sàng	-1491
▁chữ	-1492
▁York	-1493
▁sớm	-1494
▁giản	-1495
▁tệ	-1496
▁vời	-1497
▁Việt	-1498
▁bí	-1499
▁nặng	-1500
end	-1501
▁niệm	-1502
ae	-1503
▁hồ	-1504
▁đọc	-1505
▁vượt	-1506
▁Làm	-1507
ort	-1508
und	-1509
▁giám	-1510
▁khủng	-1511
▁Ả	-1512
▁Hội	-1513
amp	-1514
ara	-1515
▁hu	-1516
▁gửi	-1517
ưỡng	-1518
▁cười	-1519
▁phối	-1520
ate	-1521
uổi	-1522
▁Bar	-1523
eth	-1524
▁100	-1525
▁Còn	-1526
▁Kho	-1527
▁tôn	-1528
̣c	-1529
ore	-1530
▁ví	-1531
▁họa	-1532
▁192	-1533
▁nhằm	-1534
▁thằng	-1535
▁Sp	-1536
▁191	-1537
▁tín	-1538
▁ngồi	-1539
▁ngựa	-1540
iz	-1541
ius	-1542
▁Is	-1543
▁la	-1544
▁não	-1545
▁thưởng	-1546
̀i	-1547
iếp	-1548
▁đợi	-1549
ff	-1550
▁km	-1551
▁Bởi	-1552
▁khắp	-1553
▁ngành	-1554
ụp	-1555
▁Sc	-1556
▁tầm	-1557
▁thậm	-1558
▁?	-1559
▁tốc	-1560
▁đảm	-1561
kh	-1562
óp	-1563
▁ô	-1564
▁Mẹ	-1565
▁Mặc	-1566
-2	-1567
9.	-1568
èo	-1569
▁thờ	-1570
▁Mon	-1571
▁chờ	-1572
▁lục	-1573
ậ	-1574
ót	-1575
▁'	-1576
▁(19	-1577
▁Cha	-1578
▁hoa	-1579
▁thủy	-1580
▁thiện	-1581
arl	-1582
▁Gu	-1583
▁cắt	-1584
▁thơ	-1585
▁thẳng	-1586
▁sơ	-1587
▁kim	-1588
▁Thành	-1589
▁Mã	-1590
▁Xô	-1591
▁tấn	-1592
▁ích	-1593
▁áo	-1594
▁rối	-1595
▁trì	-1596
▁bảng	-1597
▁kịch	-1598
▁Ngoài	-1599
́n	-1600
▁tụ	-1601
▁đám	-1602
▁Can	-1603
▁mại	-1604
▁nửa	-1605
▁khẩu	-1606
▁mong	-1607
▁Vương	-1608
ern	-1609
▁ko	-1610
▁nổ	-1611
▁Mọi	-1612
▁tim	-1613
Th	-1614
ideo	-1615
▁thiếu	-1616
▁trông	-1617
▁Là	-1618
▁Cal	-1619
▁San	-1620
▁Xin	-1621
▁linh	-1622
ber	-1623
ầng	-1624
▁ma	-1625
▁đẩy	-1626
ta	-1627
▁xu	-1628
▁trại	-1629
▁xuyên	-1630
▁nghiêm	-1631
▁sửa	-1632
ộn	-1633
▁nhu	-1634
▁nghỉ	-1635
lin	-1636
ượu	-1637
▁món	-1638
▁thí	-1639
ama	-1640
ens	-1641
▁mã	-1642
▁ngờ	-1643
▁Châu	-1644
▁lĩnh	-1645
▁phận	-1646
▁Giải	-1647
▁loạn	-1648
ỏe	-1649
ier	-1650
▁lựa	-1651
▁Trước	-1652
▁chiếu	-1653
▁lạ	-1654
▁Như	-1655
▁xấu	-1656
▁phức	-1657
ide	-1658
▁ủng	-1659
▁loạt	-1660
▁rừng	-1661
▁khoản	-1662
Ch	-1663
▁giấy	-1664
▁Dương	-1665
ley	-1666
▁Giáo	-1667
▁tầng	-1668
▁khăn	-1669
▁khỏe	-1670
ana	-1671
ica	-1672
ish	-1673
▁nhỉ	-1674
▁Har	-1675
▁rút	-1676
▁suất	-1677
lo	-1678
▁da	-1679
▁đĩa	-1680
▁làng	-1681
3;	-1682
▁bày	-1683
▁triều	-1684
ico	-1685
▁thăm	-1686
ườn	-1687
▁phù	-1688
▁Trái	-1689
▁song	-1690
▁lớp	-1691
▁tuyển	-1692
▁Dù	-1693
▁tai	-1694
tiếng	-1695
ụy	-1696
▁And	-1697
▁rượu	-1698
▁Ed	-1699
▁mai	-1700
▁and	-1701
▁Đến	-1702
▁đảng	-1703
ềm	-1704
ọa	-1705
▁21	-1706
▁đỏ	-1707
▁thù	-1708
▁bánh	-1709
▁khắc	-1710
ene	-1711
▁dị	-1712
▁đào	-1713
▁thảo	-1714
▁Un	-1715
▁Man	-1716
▁dần	-1717
▁phê	-1718
▁Phần	-1719
▁thiệu	-1720
lor	-1721
▁nuôi	-1722
▁Phil	-1723
▁lính	-1724
▁nhờ	-1725
▁rơi	-1726
▁thừa	-1727
▁nhiêu	-1728
▁chồng	-1729
ém	-1730
▁Ge	-1731
▁dầu	-1732
▁trữ	-1733
▁Mal	-1734
▁lắng	-1735
▁khiển	-1736
co	-1737
▁Be	-1738
▁mơ	-1739
ight	-1740
▁tải	-1741
▁đuổi	-1742
▁US	-1743
▁lá	-1744
▁góp	-1745
▁hấp	-1746
ya	-1747
▁vốn	-1748
▁chữa	-1749
▁trùng	-1750
tern	-1751
▁khám	-1752
▁đăng	-1753
▁Ab	-1754
▁Rập	-1755
uc	-1756
att	-1757
▁Gr	-1758
▁trốn	-1759
ứt	-1760
ler	-1761
▁nắm	-1762
aul	-1763
ust	-1764
▁quảng	-1765
01	-1766
ans	-1767
▁En	-1768
▁dây	-1769
▁hải	-1770
▁mời	-1771
▁siêu	-1772
▁tịch	-1773
▁điên	-1774
▁chủng	-1775
ash	-1776
iss	-1777
▁mu	-1778
▁Hàn	-1779
▁Ú	-1780
▁môn	-1781
▁chăm	-1782
▁quên	-1783
ipp	-1784
▁mềm	-1785
▁tấm	-1786
▁thỏa	-1787
ei	-1788
▁đỡ	-1789
▁Tao	-1790
▁lái	-1791
▁tiện	-1792
▁trưng	-1793
▁tắc	-1794
▁kính	-1795
▁lược	-1796
▁miễn	-1797
iel	-1798
ity	-1799
▁săn	-1800
▁tránh	-1801
gh	-1802
ld	-1803
▁{	-1804
bur	-1805
▁Mày	-1806
▁dậy	-1807
▁Quân	-1808
▁nhật	-1809
▁Nhiều	-1810
▁trắng	-1811
▁)	-1812
▁Mặt	-1813
▁Nói	-1814
▁Tên	-1815
▁chó	-1816
▁pháo	-1817
▁Pl	-1818
▁thụ	-1819
▁Bảo	-1820
▁chảy	-1821
▁tách	-1822
́i	-1823
▁&	-1824
▁Sch	-1825
▁nóng	-1826
ood	-1827
▁Ad	-1828
▁ẩn	-1829
▁Bọn	-1830
▁Rob	-1831
▁mái	-1832
▁sóc	-1833
▁Vâng	-1834
▁hãng	-1835
▁50	-1836
▁ly	-1837
▁ngược	-1838
▁hút	-1839
▁màn	-1840
▁chúa	-1841
▁Tháng	-1842
▁video	-1843
ẹn	-1844
▁1.	-1845
▁Per	-1846
▁truy	-1847
▁24	-1848
▁cự	-1849
▁Bài	-1850
▁thưa	-1851
▁tờ	-1852
▁Nghe	-1853
▁truyện	-1854
▁Lạp	-1855
▁ngân	-1856
▁phán	-1857
▁trăm	-1858
ấ	-1859
̣t	-1860
ile	-1861
old	-1862
▁Re	-1863
▁hè	-1864
▁tận	-1865
II	-1866
ris	-1867
▁22	-1868
▁hề	-1869
▁Rom	-1870
▁chàng	-1871
ặm	-1872
”.	-1873
▁Pet	-1874
▁hứa	-1875
▁Chắc	-1876
▁hùng	-1877
ể	-1878
ice	-1879
▁Rồi	-1880
▁Ser	-1881
▁tàng	-1882
4;	-1883
?"	-1884
yn	-1885
ose	-1886
▁vẽ	-1887
▁Ale	-1888
▁sáu	-1889
▁sót	-1890
▁đáp	-1891
▁Nhân	-1892
▁hiệp	-1893
▁nhắc	-1894
▁thịt	-1895
▁trục	-1896
▁nỗ	-1897
sinh	-1898
▁Geor	-1899
▁huấn	-1900
▁khúc	-1901
▁đương	-1902
▁thuyền	-1903
ald	-1904
▁1,	-1905
▁đem	-1906
▁Cuộc	-1907
▁tước	-1908
▁Canada	-1909
bia	-1910
▁lí	-1911
▁Chủ	-1912
▁Hồi	-1913
▁khối	-1914
▁chỉnh	-1915
▁mộ	-1916
▁bom	-1917
▁chim	-1918
▁chối	-1919
▁Đúng	-1920
▁tường	-1921
ói	-1922
ọt	-1923
▁♪	-1924
ith	-1925
oth	-1926
▁Khu	-1927
▁Sam	-1928
▁xâm	-1929
▁nhảy	-1930
ite	-1931
▁lũ	-1932
▁lao	-1933
▁quen	-1934
▁Dav	-1935
▁Nor	-1936
▁Bình	-1937
tor	-1938
▁gã	-1939
▁xo	-1940
▁lẫn	-1941
▁mừng	-1942
▁đỉnh	-1943
▁kháng	-1944
▁quang	-1945
uyến	-1946
▁già	-1947
istan	-1948
▁thẩm	-1949
▁xong	-1950
ũi	-1951
▁Or	-1952
▁cơn	-1953
▁dừng	-1954
▁lạnh	-1955
▁mười	-1956
òi	-1957
ụng	-1958
▁Úc	-1959
▁Đị	-1960
▁Com	-1961
▁trào	-1962
ies	-1963
▁xứ	-1964
▁Cập	-1965
▁cân	-1966
▁dọa	-1967
▁web	-1968
▁hứng	-1969
õi	-1970
▁Tư	-1971
▁mẽ	-1972
▁Wal	-1973
▁dặm	-1974
▁dọc	-1975
▁nỗi	-1976
▁chặn	-1977
▁phúc	-1978
▁thao	-1979
iam	-1980
▁War	-1981
▁bạc	-1982
▁cầm	-1983
▁Đảng	-1984
▁Thiên	-1985
se	-1986
bon	-1987
▁Gre	-1988
▁cai	-1989
▁tan	-1990
▁buồn	-1991
▁hạnh	-1992
▁yên	-1993
ma	-1994
ầ	-1995
▁Bố	-1996
▁bữa	-1997
▁Thụy	-1998
▁cưới	-1999
▁xanh	-2000
ka	-2001
to	-2002
-19	-2003
▁28	-2004
▁Kim	-2005
▁Hiệp	-2006
▁Will	-2007
▁dàng	-2008
▁nâng	-2009
▁cường	-2010
▁26	-2011
▁sẻ	-2012
▁tá	-2013
▁đe	-2014
▁Ber	-2015
▁cấm	-2016
▁Charl	-2017
▁Cả	-2018
▁ngừng	-2019
ix	-2020
ime	-2021
▁cu	-2022
ague	-2023
▁game	-2024
▁mạch	-2025
na	-2026
ino	-2027
▁Cơ	-2028
ashi	-2029
▁quận	-2030
▁thuế	-2031
▁quyển	-2032
Tôi	-2033
ary	-2034
era	-2035
▁tỉ	-2036
▁tỏ	-2037
▁hài	-2038
▁tàn	-2039
▁phái	-2040
pl	-2041
ùi	-2042
–1	-2043
▁Cũng	-2044
▁giỏi	-2045
ace	-2046
▁De	-2047
▁Này	-2048
▁họp	-2049
▁tổn	-2050
▁Ngài	-2051
▁u	-2052
▁Dân	-2053
▁Mor	-2054
▁can	-2055
▁mắc	-2056
▁chạm	-2057
▁↑	-2058
▁Nên	-2059
▁ạ	-2060
ney	-2061
▁Đế	-2062
▁tán	-2063
▁trích	-2064
▁27	-2065
▁ấn	-2066
▁Ang	-2067
▁Đất	-2068
ark	-2069
▁vỡ	-2070
orld	-2071
▁Pal	-2072
▁cặp	-2073
▁Thực	-2074
▁chụp	-2075
▁khảo	-2076
▁kênh	-2077
▁liệt	-2078
ros	-2079
▁Mich	-2080
▁diệt	-2081
are	-2082
▁Co	-2083
▁Se	-2084
▁190	-2085
▁hàm	-2086
▁nguyện	-2087
▁0	-2088
ane	-2089
▁23	-2090
▁bề	-2091
▁Tom	-2092
▁bão	-2093
▁bạo	-2094
▁mưa	-2095
▁nhẹ	-2096
▁ném	-2097
▁phỏng	-2098
yo	-2099
một	-2100
ron	-2101
rot	-2102
▁40	-2103
▁xạ	-2104
▁Jam	-2105
▁thuê	-2106
--	-2107
ho	-2108
èm	-2109
▁e	-2110
▁2,	-2111
▁Lúc	-2112
▁Ngay	-2113
▁nàng	-2114
uz	-2115
▁a	-2116
▁Sẽ	-2117
▁bảy	-2118
aur	-2119
ium	-2120
̀ng	-2121
▁Thủ	-2122
▁Jo	-2123
▁Truy	-2124
▁phiếu	-2125
ys	-2126
ấy	-2127
▁2.	-2128
ward	-2129
▁dối	-2130
aj	-2131
Ủy	-2132
▁He	-2133
ania	-2134
▁cãi	-2135
▁ung	-2136
▁Viện	-2137
▁Triều	-2138
50	-2139
pp	-2140
èn	-2141
ero	-2142
▁cà	-2143
▁vĩ	-2144
▁Câu	-2145
▁gió	-2146
▁lan	-2147
▁đức	-2148
▁ống	-2149
▁Cháu	-2150
▁khóa	-2151
▁niềm	-2152
▁quán	-2153
▁Chuyện	-2154
Cười	-2155
▁xương	-2156
ata	-2157
▁cờ	-2158
▁Lat	-2159
▁Tiên	-2160
▁giây	-2161
▁hiến	-2162
▁giọng	-2163
▁hoang	-2164
▁thước	-2165
ướp	-2166
▁Mad	-2167
▁Mỗi	-2168
▁mãi	-2169
▁quỹ	-2170
▁sung	-2171
▁chuỗi	-2172
▁Trường	-2173
va	-2174
ậc	-2175
#22	-2176
▁Sal	-2177
▁bãi	-2178
▁rãi	-2179
▁tiệc	-2180
▁ác	-2181
iệng	-2182
▁hạm	-2183
▁lầm	-2184
iforn	-2185
▁giáp	-2186
▁ngầm	-2187
▁tảng	-2188
ym	-2189
ìa	-2190
ố	-2191
▁ưu	-2192
▁Ủy	-2193
irus	-2194
▁bật	-2195
▁giàu	-2196
▁huyện	-2197
go	-2198
la	-2199
▁lượt	-2200
▁ngạc	-2201
ifornia	-2202
▁League	-2203
ề	-2204
ịp	-2205
▁At	-2206
▁Bl	-2207
▁Cảm	-2208
▁Ind	-2209
▁cựu	-2210
▁thận	-2211
ca	-2212
#24	-2213
ver	-2214
▁Hay	-2215
▁Lần	-2216
▁Rất	-2217
▁mét	-2218
▁đạn	-2219
▁sạch	-2220
▁World	-2221
▁hương	-2222
▁California	-2223
ale	-2224
les	-2225
▁thở	-2226
▁tắt	-2227
▁đươ	-2228
ee	-2229
ena	-2230
own	-2231
tin	-2232
▁Cứ	-2233
▁Ví	-2234
▁bậc	-2235
▁gấp	-2236
▁hẹn	-2237
▁tống	-2238
▁vong	-2239
▁Đồng	-2240
▁Paris	-2241
▁dưỡng	-2242
▁miệng	-2243
▁À	-2244
oan	-2245
▁bò	-2246
onia	-2247
▁Chị	-2248
▁Tok	-2249
▁Wind	-2250
▁chậm	-2251
▁thai	-2252
▁tiêm	-2253
NA	-2254
red	-2255
▁29	-2256
▁tạm	-2257
▁Kinh	-2258
▁chào	-2259
▁Intern	-2260
enz	-2261
iếc	-2262
ất	-2263
▁{\	-2264
▁Đã	-2265
▁hòn	-2266
▁may	-2267
▁phạt	-2268
▁tháp	-2269
ấc	-2270
ase	-2271
▁3,	-2272
▁Go	-2273
▁Kể	-2274
▁Mc	-2275
ines	-2276
▁hào	-2277
▁Hiện	-2278
▁cháy	-2279
▁Thượng	-2280
ows	-2281
▁Je	-2282
▁sắt	-2283
▁Alex	-2284
▁Cuối	-2285
▁Cách	-2286
▁Hồng	-2287
▁Trên	-2288
▁vinh	-2289
▁vườn	-2290
▁thăng	-2291
yd	-2292
úy	-2293
ớt	-2294
▁Cr	-2295
ười	-2296
▁Bro	-2297
▁cam	-2298
▁hoá	-2299
▁tùy	-2300
▁đập	-2301
eland	-2302
▁Paul	-2303
▁tiềm	-2304
ộm	-2305
▁Ừ	-2306
int	-2307
uch	-2308
▁tô	-2309
▁189	-2310
▁Cor	-2311
▁Tòa	-2312
▁khái	-2313
▁thác	-2314
▁điệu	-2315
▁nhánh	-2316
▁trồng	-2317
burg	-2318
▁hộp	-2319
▁lối	-2320
▁phe	-2321
▁vết	-2322
▁cướp	-2323
▁Giống	-2324
▁thánh	-2325
Nh	-2326
af	-2327
bo	-2328
én	-2329
ael	-2330
awa	-2331
ới	-2332
▁Ok	-2333
▁đới	-2334
▁ngọn	-2335
▁thua	-2336
ợt	-2337
inc	-2338
mer	-2339
ush	-2340
▁Về	-2341
▁hư	-2342
▁sổ	-2343
▁Thứ	-2344
▁kêu	-2345
▁thả	-2346
▁Sant	-2347
▁Franc	-2348
▁thiệt	-2349
ari	-2350
▁Đầu	-2351
▁chấm	-2352
▁liền	-2353
▁giảng	-2354
▁hoảng	-2355
▁ngang	-2356
▁thách	-2357
▁Philipp	-2358
ty	-2359
ham	-2360
oss	-2361
▁Her	-2362
▁gắn	-2363
▁đòi	-2364
▁cứng	-2365
▁phẫu	-2366
▁thầy	-2367
▁tặng	-2368
▁viễn	-2369
▁chóng	-2370
uel	-2371
outh	-2372
▁Lou	-2373
▁Pro	-2374
▁góc	-2375
▁phó	-2376
▁Đài	-2377
▁Đội	-2378
▁^	-2379
ner	-2380
▁Cap	-2381
▁hồn	-2382
▁Mình	-2383
▁một	-2384
▁Ngươi	-2385
▁George	-2386
ế	-2387
orm	-2388
yle	-2389
▁Bra	-2390
▁che	-2391
▁khổ	-2392
▁Rich	-2393
▁ngàn	-2394
oz	-2395
▁Ir	-2396
▁Nữ	-2397
▁nợ	-2398
▁ơi	-2399
▁bối	-2400
▁đua	-2401
Tiếng	-2402
ester	-2403
▁ghét	-2404
▁nhóc	-2405
▁Frank	-2406
▁lương	-2407
▁thiểu	-2408
ez	-2409
ke	-2410
▁kỉ	-2411
ille	-2412
▁lưới	-2413
ani	-2414
▁Cam	-2415
▁Syr	-2416
▁Thổ	-2417
▁Bill	-2418
▁ngại	-2419
▁đẳng	-2420
▁Chẳng	-2421
▁thượng	-2422
▁Số	-2423
▁lẻ	-2424
▁Lib	-2425
▁gen	-2426
▁mũi	-2427
▁Minh	-2428
▁Scot	-2429
▁ngốc	-2430
▁nghèo	-2431
ở	-2432
ins	-2433
▁31	-2434
▁Bur	-2435
▁Nội	-2436
▁ghế	-2437
▁lừa	-2438
▁rắc	-2439
▁tồi	-2440
▁đốt	-2441
▁giam	-2442
▁prot	-2443
▁khuẩn	-2444
▁được	-2445
br	-2446
úa	-2447
▁hô	-2448
anda	-2449
ford	-2450
▁USD	-2451
▁Đào	-2452
▁Thời	-2453
by	-2454
ti	-2455
ẳn	-2456
ive	-2457
uss	-2458
ựng	-2459
▁Tu	-2460
▁Dan	-2461
▁tám	-2462
▁ninh	-2463
CN	-2464
iy	-2465
ts	-2466
ano	-2467
rist	-2468
▁Ben	-2469
▁Cup	-2470
▁Mus	-2471
▁dõi	-2472
▁khơi	-2473
▁thải	-2474
▁triết	-2475
30	-2476
9;	-2477
éo	-2478
rom	-2479
▁Hà	-2480
▁mê	-2481
eria	-2482
▁Hầu	-2483
▁Syria	-2484
▁dường	-2485
73;	-2486
ail	-2487
ren	-2488
▁Er	-2489
....	-2490
▁hỏa	-2491
▁khô	-2492
lt	-2493
▁Bo	-2494
▁Hệ	-2495
▁cỡ	-2496
▁Mac	-2497
0.000	-2498
▁Nhìn	-2499
▁mệnh	-2500
▁sánh	-2501
▁khuôn	-2502
▁trống	-2503
5;	-2504
▁i	-2505
ays	-2506
oph	-2507
rat	-2508
▁Af	-2509
▁ảo	-2510
▁Min	-2511
▁Tối	-2512
▁cản	-2513
▁ổng	-2514
▁Cùng	-2515
▁Điển	-2516
▁Windows	-2517
32	-2518
ala	-2519
ita	-2520
oll	-2521
ãnh	-2522
▁Oh	-2523
▁Khoa	-2524
▁chìm	-2525
▁xứng	-2526
▁khích	-2527
▁người	-2528
gt	-2529
ull	-2530
▁bè	-2531
▁lồ	-2532
▁lỗ	-2533
▁Văn	-2534
▁đền	-2535
ondon	-2536
▁giận	-2537
▁nghề	-2538
▁Robert	-2539
▁khuyến	-2540
men	-2541
▁Sl	-2542
▁hà	-2543
▁mỏ	-2544
▁nô	-2545
ones	-2546
▁(18	-2547
▁chặt	-2548
▁đựng	-2549
my	-2550
ve	-2551
▁Ol	-2552
▁sa	-2553
▁Đi	-2554
rael	-2555
▁186	-2556
▁Bel	-2557
▁kém	-2558
▁tóc	-2559
▁Địa	-2560
0%	-2561
we	-2562
ýt	-2563
ụi	-2564
age	-2565
ima	-2566
ona	-2567
▁Bồ	-2568
▁Cổ	-2569
▁ám	-2570
bert	-2571
▁Mex	-2572
▁Thu	-2573
▁cục	-2574
▁mạc	-2575
▁Giám	-2576
▁Thông	-2577
▁huyết	-2578
▁London	-2579
▁William	-2580
ji	-2581
ont	-2582
▁Ro	-2583
▁Te	-2584
▁ax	-2585
▁bá	-2586
play	-2587
▁Hôm	-2588
▁lâm	-2589
▁lọc	-2590
▁đón	-2591
▁Sing	-2592
▁hiển	-2593
▁thám	-2594
▁trộm	-2595
▁tĩnh	-2596
▁chinh	-2597
▁khổng	-2598
▁°	-2599
que	-2600
▁#2	-2601
rain	-2602
▁187	-2603
▁188	-2604
▁Bal	-2605
▁dứt	-2606
▁lôi	-2607
▁thẻ	-2608
▁vây	-2609
không	-2610
▁hiếm	-2611
▁miêu	-2612
2)	-2613
ura	-2614
▁Gl	-2615
▁Air	-2616
▁Arg	-2617
▁Bất	-2618
▁(200	-2619
▁Danh	-2620
▁Thom	-2621
▁giấc	-2622
▁nhắn	-2623
▁Louis	-2624
▁Ồ	-2625
#79	-2626
aya	-2627
ola	-2628
ony	-2629
ost	-2630
▁vầ	-2631
ngton	-2632
▁Thôi	-2633
▁tròn	-2634
▁vịnh	-2635
▁Angel	-2636
▁Francis	-2637
▁+	-2638
̃ng	-2639
▁Di	-2640
▁lão	-2641
▁trú	-2642
▁Sinh	-2643
▁biện	-2644
▁đống	-2645
▁2011,	-2646
▁Thánh	-2647
Kh	-2648
ake	-2649
dis	-2650
oft	-2651
▁Mag	-2652
▁Val	-2653
▁Vir	-2654
▁tắm	-2655
▁Park	-2656
▁thang	-2657
▁Israel	-2658
▁Mexico	-2659
car	-2660
der	-2661
▁Me	-2662
▁Mo	-2663
▁dư	-2664
▁dãy	-2665
▁hẳn	-2666
▁đồn	-2667
▁đợt	-2668
▁Bằng	-2669
▁lành	-2670
▁lông	-2671
▁nhầm	-2672
▁thảm	-2673
▁David	-2674
▁Charles	-2675
́c	-2676
ần	-2677
▁Na	-2678
▁Wh	-2679
alia	-2680
▁Gal	-2681
▁III	-2682
▁Shi	-2683
▁sạn	-2684
▁Đối	-2685
▁Tính	-2686
▁cảng	-2687
▁điệp	-2688
▁James	-2689
")	-2690
7;	-2691
sen	-2692
▁Pan	-2693
▁Tur	-2694
▁tha	-2695
▁2015,	-2696
ashington	-2697
40	-2698
cy	-2699
gi	-2700
ory	-2701
shi	-2702
ượn	-2703
▁4,	-2704
▁Sm	-2705
▁ru	-2706
▁Học	-2707
▁chả	-2708
▁khứ	-2709
▁kìa	-2710
▁sụp	-2711
▁City	-2712
▁Hình	-2713
▁căng	-2714
▁hỏng	-2715
▁mảnh	-2716
▁ngon	-2717
▁vững	-2718
▁thiệp	-2719
1;	-2720
oo	-2721
pe	-2722
ect	-2723
▁hi	-2724
▁ép	-2725
▁Đô	-2726
iana	-2727
▁Hol	-2728
▁Lực	-2729
▁Mic	-2730
▁Pol	-2731
▁Tim	-2732
▁hảo	-2733
▁quà	-2734
▁2010	-2735
▁Thưa	-2736
▁quái	-2737
▁với	-2738
▁2008,	-2739
▁Đường	-2740
▁Washington	-2741
ki	-2742
su	-2743
ụt	-2744
▁CO	-2745
▁Mà	-2746
▁cú	-2747
▁ức	-2748
berg	-2749
▁Hen	-2750
▁Mas	-2751
▁Mer	-2752
▁Tập	-2753
▁kèm	-2754
▁quê	-2755
▁Đặc	-2756
style	-2757
▁Mont	-2758
▁Thần	-2759
▁điển	-2760
▁2006,	-2761
▁2010,	-2762
▁chuột	-2763
▁Khoảng	-2764
da	-2765
▁=	-2766
gar	-2767
per	-2768
rop	-2769
▁Tự	-2770
▁ox	-2771
asil	-2772
▁dâm	-2773
▁mát	-2774
▁mưu	-2775
▁đói	-2776
▁2008	-2777
▁2011	-2778
▁tiếc	-2779
▁protein	-2780
playstyle	-2781
SA	-2782
ía	-2783
ủi	-2784
▁ư	-2785
ski	-2786
ure	-2787
▁Ac	-2788
▁ga	-2789
▁ủy	-2790
wood	-2791
▁Bác	-2792
▁Nhĩ	-2793
▁Vua	-2794
▁biê	-2795
▁mùi	-2796
▁tri	-2797
▁Đạo	-2798
▁Cảnh	-2799
▁bùng	-2800
▁lãng	-2801
▁Argent	-2802
▁Christ	-2803
▁Thị	-2804
▁chở	-2805
▁dám	-2806
▁tụi	-2807
▁Phòng	-2808
▁virus	-2809
▁Internet	-2810
và	-2811
ome	-2812
▁("	-2813
▁Fl	-2814
▁My	-2815
▁Os	-2816
▁Vị	-2817
▁mì	-2818
▁Don	-2819
▁Sar	-2820
▁hãi	-2821
▁thợ	-2822
▁Hung	-2823
▁Loài	-2824
▁Quan	-2825
▁nhắm	-2826
▁thể	-2827
▁Richard	-2828
ida	-2829
oto	-2830
▁As	-2831
▁Tổ	-2832
▁Chi	-2833
▁Sup	-2834
▁Thì	-2835
▁You	-2836
▁cất	-2837
▁hỗn	-2838
▁lặp	-2839
▁sếp	-2840
▁2015	-2841
▁chín	-2842
▁giấu	-2843
▁soạn	-2844
▁tung	-2845
▁Philippines	-2846
,"	-2847
5%	-2848
de	-2849
eta	-2850
use	-2851
▁gỗ	-2852
▁mi	-2853
▁Bang	-2854
▁#273;	-2855
▁2013,	-2856
▁Ngoại	-2857
▁nghìn	-2858
▁nhuận	-2859
▁trăng	-2860
Tr	-2861
itz	-2862
sky	-2863
▁So	-2864
▁Sĩ	-2865
▁el	-2866
▁All	-2867
▁Dar	-2868
▁Kết	-2869
▁Mùa	-2870
▁dọn	-2871
▁2006	-2872
▁2013	-2873
▁Wars	-2874
▁hồng	-2875
▁lỏng	-2876
▁2014,	-2877
displaystyle	-2878
có	-2879
ft	-2880
▁!	-2881
gin	-2882
ini	-2883
▁3.	-2884
▁Hu	-2885
▁hổ	-2886
▁Gia	-2887
▁Haw	-2888
▁Jul	-2889
▁Los	-2890
▁dao	-2891
▁kín	-2892
#244;	-2893
▁Hoặc	-2894
▁chép	-2895
▁nhấn	-2896
▁Tiếng	-2897
▁Tokyo	-2898
▁thoải	-2899
ệ	-2900
ớn	-2901
ons	-2902
ênh	-2903
▁am	-2904
▁Vic	-2905
▁bận	-2906
▁sữa	-2907
▁2012	-2908
▁Camp	-2909
▁chôn	-2910
▁liều	-2911
▁đoạt	-2912
▁2016,	-2913
▁giường	-2914
20	-2915
che	-2916
com	-2917
ole	-2918
osh	-2919
▁ft	-2920
▁vở	-2921
▁Mil	-2922
▁hầm	-2923
▁đen	-2924
▁đèn	-2925
▁Trận	-2926
▁Michael	-2927
òm	-2928
ẫy	-2929
▁$	-2930
▁Es	-2931
▁Lý	-2932
▁Rh	-2933
▁Ye	-2934
▁tí	-2935
ella	-2936
▁Max	-2937
▁Wil	-2938
▁West	-2939
▁chấn	-2940
▁răng	-2941
▁phiền	-2942
▁Argentina	-2943
ừu	-2944
esh	-2945
ett	-2946
▁mm	-2947
▁ấm	-2948
#787	-2949
▁Chu	-2950
▁bia	-2951
▁xưa	-2952
▁bụng	-2953
▁khán	-2954
▁2007,	-2955
▁South	-2956
▁khiêu	-2957
▁thạch	-2958
▁Chương	-2959
▁những	-2960
ais	-2961
unt	-2962
▁Bu	-2963
▁Ma	-2964
▁rô	-2965
▁Del	-2966
▁Gar	-2967
▁mèo	-2968
▁Mark	-2969
▁Tiểu	-2970
▁axit	-2971
▁tuyết	-2972
36	-2973
ew	-2974
▁j	-2975
The	-2976
ago	-2977
aka	-2978
ram	-2979
▁Op	-2980
tron	-2981
▁500	-2982
▁gợi	-2983
▁rửa	-2984
▁sưu	-2985
▁đai	-2986
▁2001	-2987
▁2007	-2988
▁Hàng	-2989
▁phun	-2990
▁2012,	-2991
ational	-2992
▁khuyên	-2993
-4	-2994
air	-2995
ưỡi	-2996
▁5,	-2997
▁8,	-2998
▁On	-2999
▁dã	-3000
▁đệ	-3001
iver	-3002
▁Hơn	-3003
▁Kar	-3004
▁Met	-3005
▁Mik	-3006
▁Ram	-3007
▁cột	-3008
▁hyd	-3009
▁Chào	-3010
▁Jose	-3011
▁King	-3012
▁buôn	-3013
▁khấu	-3014
▁đuôi	-3015
▁2009,	-3016
▁Chiếc	-3017
▁Peter	-3018
▁Thanh	-3019
▁duyệt	-3020
▁Ireland	-3021
▁60	-3022
▁FC	-3023
▁Máy	-3024
▁Mấy	-3025
stein	-3026
▁Mary	-3027
▁Port	-3028
▁Quận	-3029
▁Trời	-3030
▁2013.	-3031
mp	-3032
rid	-3033
▁Gh	-3034
▁It	-3035
▁Gen	-3036
▁túi	-3037
▁đùa	-3038
▁2014	-3039
▁Long	-3040
▁mượn	-3041
▁trần	-3042
▁đằng	-3043
▁2015.	-3044
▁trứng	-3045
▁Nguyên	-3046
▁Phương	-3047
ba	-3048
uba	-3049
ube	-3050
▁Ag	-3051
▁Vi	-3052
▁Vũ	-3053
▁bù	-3054
▁kí	-3055
ited	-3056
▁10,	-3057
▁Ham	-3058
▁Kur	-3059
▁Sil	-3060
▁Sân	-3061
▁dàn	-3062
▁ngo	-3063
▁thề	-3064
▁tốn	-3065
▁đàm	-3066
▁đồi	-3067
▁Carl	-3068
▁Nhóm	-3069
▁Enter	-3070
▁khung	-3071
▁thuần	-3072
▁vuông	-3073
▁Edward	-3074
▁Thomas	-3075
een	-3076
ến	-3077
▁4.	-3078
▁Dự	-3079
▁gỡ	-3080
▁Ôi	-3081
▁ở	-3082
ican	-3083
ield	-3084
▁Bos	-3085
▁Nic	-3086
▁Tin	-3087
▁Tor	-3088
▁Vấn	-3089
▁bền	-3090
▁Phát	-3091
▁thôn	-3092
-3	-3093
BC	-3094
ker	-3095
▁Ex	-3096
▁TV	-3097
▁Nap	-3098
▁Nig	-3099
▁TCN	-3100
▁bội	-3101
▁ngũ	-3102
▁2000	-3103
▁mươi	-3104
▁2011.	-3105
▁2012.	-3106
▁2014.	-3107
▁chừng	-3108
▁Martin	-3109
9)	-3110
ớp	-3111
ial	-3112
ila	-3113
itt	-3114
onn	-3115
▁Ap	-3116
▁Sư	-3117
▁Bol	-3118
▁Med	-3119
▁Mos	-3120
▁Phó	-3121
▁Sol	-3122
▁mây	-3123
▁quỷ	-3124
▁sợi	-3125
▁Kông	-3126
▁khóc	-3127
▁lũng	-3128
▁xoay	-3129
rosoft	-3130
10	-3131
FA	-3132
ct	-3133
za	-3134
500	-3135
ade	-3136
ora	-3137
▁No	-3138
▁Uk	-3139
▁Ken	-3140
▁Lee	-3141
▁Tam	-3142
▁cẩn	-3143
▁móc	-3144
▁mạn	-3145
▁oxy	-3146
▁rác	-3147
▁tia	-3148
▁voi	-3149
#224;	-3150
ville	-3151
▁Vùng	-3152
▁gián	-3153
▁phổi	-3154
▁viêm	-3155
▁2005,	-3156
▁North	-3157
▁Super	-3158
4)	-3159
Ng	-3160
ank	-3161
aus	-3162
ien	-3163
▁5.	-3164
▁Pe	-3165
▁kĩ	-3166
bằng	-3167
ment	-3168
▁Mat	-3169
▁Tak	-3170
▁Tex	-3171
▁cắp	-3172
▁cốt	-3173
▁cừu	-3174
▁lui	-3175
▁mạo	-3176
▁nấu	-3177
▁vay	-3178
ision	-3179
stant	-3180
▁Điện	-3181
▁2016.	-3182
▁2017.	-3183
▁huống	-3184
7)	-3185
TV	-3186
}}	-3187
▁Í	-3188
ira	-3189
iệ	-3190
▁9,	-3191
▁Ca	-3192
▁Yo	-3193
▁co	-3194
▁Bab	-3195
▁Bên	-3196
▁mãn	-3197
▁pha	-3198
▁tựa	-3199
▁Bern	-3200
▁Nghệ	-3201
▁Tiếp	-3202
▁bạch	-3203
▁dính	-3204
▁khẩn	-3205
▁ngọt	-3206
▁ranh	-3207
▁tuân	-3208
▁Carol	-3209
3)	-3210
90	-3211
Ph	-3212
eal	-3213
erm	-3214
ink	-3215
oot	-3216
ors	-3217
zil	-3218
▁6,	-3219
▁7,	-3220
▁Su	-3221
▁tị	-3222
▁va	-3223
illa	-3224
▁Cao	-3225
▁Luc	-3226
▁Nob	-3227
▁béo	-3228
▁bơi	-3229
▁xóa	-3230
ander	-3231
▁(201	-3232
▁2009	-3233
▁2016	-3234
▁cong	-3235
▁cổng	-3236
▁lặng	-3237
▁Album	-3238
▁thoảng	-3239
▁Microsoft	-3240
ook	-3241
rag	-3242
▁Hồ	-3243
▁kẹ	-3244
▁Ít	-3245
ustr	-3246
ống	-3247
▁184	-3248
▁Hợp	-3249
▁Ira	-3250
▁Mur	-3251
▁túc	-3252
▁đực	-3253
người	-3254
▁Iran	-3255
▁Lãnh	-3256
▁Stan	-3257
▁Tình	-3258
▁xinh	-3259
ics	-3260
ova	-3261
yan	-3262
▁35	-3263
▁NA	-3264
▁Ur	-3265
▁Uy	-3266
itan	-3267
▁Aug	-3268
▁Bắt	-3269
▁Hel	-3270
▁Nơi	-3271
▁Xem	-3272
▁cưỡ	-3273
▁dày	-3274
▁for	-3275
▁tân	-3276
▁Flor	-3277
▁nhịp	-3278
▁quét	-3279
▁trạm	-3280
▁Maria	-3281
▁biết	-3282
▁Ukrain	-3283
5)	-3284
CA	-3285
cl	-3286
inn	-3287
ios	-3288
ult	-3289
ốn	-3290
▁Av	-3291
▁Ra	-3292
▁no	-3293
▁su	-3294
▁võ	-3295
▁vỏ	-3296
▁11,	-3297
▁Bob	-3298
▁Dis	-3299
▁Gra	-3300
▁Kat	-3301
▁Sim	-3302
▁ngư	-3303
▁rắn	-3304
▁túy	-3305
▁Phân	-3306
▁Wall	-3307
▁chúc	-3308
▁lang	-3309
▁ương	-3310
▁Colom	-3311
▁Brazil	-3312
▁Virgin	-3313
#4	-3314
ED	-3315
ùm	-3316
ợn	-3317
ado	-3318
akh	-3319
ậy	-3320
▁Sw	-3321
aint	-3322
ette	-3323
ogle	-3324
▁Gần	-3325
▁Mel	-3326
▁Ter	-3327
▁Van	-3328
▁car	-3329
▁cát	-3330
▁lây	-3331
▁Chưa	-3332
▁Thủy	-3333
▁hoan	-3334
▁hoại	-3335
▁hydro	-3336
▁Victor	-3337
60	-3338
IA	-3339
ko	-3340
ump	-3341
ỗng	-3342
▁Ot	-3343
▁ro	-3344
▁185	-3345
▁DNA	-3346
▁hưu	-3347
▁mực	-3348
▁đáo	-3349
▁Hiến	-3350
▁Thay	-3351
▁dược	-3352
▁nồng	-3353
▁trộn	-3354
▁2007.	-3355
▁Phiên	-3356
▁Nghiên	-3357
chi	-3358
ois	-3359
ori	-3360
rey	-3361
▁Il	-3362
▁dò	-3363
▁ưa	-3364
▁Kit	-3365
▁Nat	-3366
▁Red	-3367
▁Tan	-3368
▁rad	-3369
▁Đảo	-3370
▁Peru	-3371
▁ngón	-3372
▁nhẫn	-3373
▁trưa	-3374
▁Colum	-3375
▁cương	-3376
-5	-3377
xi	-3378
ula	-3379
ical	-3380
ling	-3381
tain	-3382
▁App	-3383
▁For	-3384
▁Jim	-3385
▁Mục	-3386
▁Pak	-3387
▁Ros	-3388
▁cac	-3389
▁hối	-3390
▁Đưa	-3391
▁Cuba	-3392
▁Quần	-3393
▁ngập	-3394
▁trầm	-3395
▁Định	-3396
▁huyền	-3397
▁Brasil	-3398
▁ngưỡng	-3399
▁Colombia	-3400
25	-3401
6)	-3402
no	-3403
▁z	-3404
ota	-3405
▁Az	-3406
▁Mu	-3407
▁sp	-3408
được	-3409
▁Rec	-3410
▁cám	-3411
▁sàn	-3412
▁vân	-3413
▁Đôi	-3414
▁đeo	-3415
▁Loan	-3416
▁Ngân	-3417
▁Toàn	-3418
▁nhãn	-3419
▁treo	-3420
▁xuân	-3421
▁Henry	-3422
▁thùng	-3423
▁Google	-3424
ộp	-3425
app	-3426
fer	-3427
ger	-3428
lan	-3429
ậu	-3430
▁Fr	-3431
▁Kr	-3432
▁bi	-3433
▁sh	-3434
▁xỉ	-3435
▁ẩm	-3436
ghan	-3437
over	-3438
▁Quá	-3439
▁Sur	-3440
▁bồi	-3441
▁rob	-3442
▁sáp	-3443
apore	-3444
aysia	-3445
▁Bệnh	-3446
▁Iraq	-3447
▁Luật	-3448
▁dinh	-3449
▁muối	-3450
▁Thống	-3451
▁gương	-3452
▁Hungary	-3453
!"	-3454
CO	-3455
ID	-3456
li	-3457
con	-3458
ove	-3459
ướt	-3460
▁..	-3461
▁00	-3462
▁7.	-3463
▁Xã	-3464
▁im	-3465
▁Ath	-3466
▁Cro	-3467
▁Phụ	-3468
▁Tay	-3469
▁cóc	-3470
▁mồi	-3471
▁nit	-3472
▁trễ	-3473
ivers	-3474
▁1990	-3475
▁Stev	-3476
▁canh	-3477
▁chìa	-3478
▁ruột	-3479
▁2009.	-3480
▁2010.	-3481
▁2017,	-3482
▁Saint	-3483
▁Texas	-3484
▁Thiết	-3485
▁khẳng	-3486
▁Angeles	-3487
▁Singapore	-3488
11	-3489
St	-3490
do	-3491
wa	-3492
▁♫	-3493
act	-3494
ali	-3495
ool	-3496
ật	-3497
▁70	-3498
▁Kế	-3499
▁Pu	-3500
▁Sk	-3501
▁Tw	-3502
▁Áo	-3503
lymp	-3504
▁Cục	-3505
▁Ger	-3506
▁Hòa	-3507
▁gan	-3508
▁để	-3509
▁2005	-3510
▁Shin	-3511
▁Star	-3512
▁buýt	-3513
▁trôi	-3514
▁vang	-3515
▁đến	-3516
▁đụng	-3517
▁Champ	-3518
▁trúng	-3519
ps	-3520
ux	-3521
▁#	-3522
can	-3523
ear	-3524
way	-3525
▁(3	-3526
▁32	-3527
▁Hạ	-3528
▁Kẻ	-3529
▁cm	-3530
▁Đệ	-3531
▁Cám	-3532
▁Jac	-3533
▁nút	-3534
▁2004	-3535
▁Phật	-3536
▁Well	-3537
▁dáng	-3538
▁Chile	-3539
▁Santa	-3540
%.	-3541
8)	-3542
IS	-3543
ny	-3544
ér	-3545
ele	-3546
olf	-3547
▁0,	-3548
▁Du	-3549
▁Id	-3550
▁Ko	-3551
▁Ky	-3552
▁We	-3553
▁sứ	-3554
ball	-3555
oshi	-3556
▁Hal	-3557
▁cậy	-3558
▁giơ	-3559
▁lắp	-3560
▁rào	-3561
▁Phim	-3562
▁Tiến	-3563
▁giày	-3564
▁kiên	-3565
▁rồng	-3566
▁tràn	-3567
▁Nghĩa	-3568
▁United	-3569
▁Malaysia	-3570
▁Scotland	-3571
▁Francisco	-3572
ví	-3573
▁:	-3574
aki	-3575
ets	-3576
ire	-3577
▁80	-3578
▁Ak	-3579
▁Bỉ	-3580
▁To	-3581
▁ac	-3582
aire	-3583
▁Cas	-3584
▁Dub	-3585
▁Hỏa	-3586
▁Jun	-3587
▁Tác	-3588
▁hẹp	-3589
▁ngã	-3590
▁nát	-3591
▁phu	-3592
▁rủi	-3593
▁đâm	-3594
▁2017	-3595
▁ngẫu	-3596
▁nhạy	-3597
▁Austr	-3598
▁Grand	-3599
▁Music	-3600
▁Olymp	-3601
▁Tương	-3602
▁khoan	-3603
▁robot	-3604
dy	-3605
ga	-3606
ha	-3607
ja	-3608
pr	-3609
các	-3610
gen	-3611
ild	-3612
▁Ju	-3613
▁lò	-3614
▁pl	-3615
▁Die	-3616
▁Gro	-3617
▁She	-3618
▁Tân	-3619
▁cụm	-3620
▁del	-3621
▁mòn	-3622
▁tam	-3623
▁tần	-3624
Không	-3625
trong	-3626
▁Stre	-3627
▁chán	-3628
▁2003,	-3629
▁khiếp	-3630
▁Indones	-3631
1)	-3632
70	-3633
BI	-3634
ES	-3635
Vỗ	-3636
pt	-3637
ze	-3638
iề	-3639
rad	-3640
rew	-3641
van	-3642
ết	-3643
▁on	-3644
▁úy	-3645
ater	-3646
ates	-3647
ions	-3648
olis	-3649
▁300	-3650
▁Tai	-3651
▁Tới	-3652
▁bột	-3653
▁mệt	-3654
▁pol	-3655
▁rạp	-3656
▁thô	-3657
▁đậu	-3658
▁Miss	-3659
▁chẩn	-3660
▁muộn	-3661
▁ngợi	-3662
▁rồi	-3663
▁thỉnh	-3664
▁Virginia	-3665
-8	-3666
AR	-3667
ẫm	-3668
ami	-3669
ban	-3670
ior	-3671
iễu	-3672
olk	-3673
ope	-3674
▁IV	-3675
▁Sa	-3676
▁bơ	-3677
▁kỵ	-3678
▁mồ	-3679
▁400	-3680
▁Ant	-3681
▁Dom	-3682
▁Gam	-3683
▁Mot	-3684
▁Nik	-3685
▁Tài	-3686
▁Tốt	-3687
▁khỉ	-3688
▁lân	-3689
▁múa	-3690
▁Marc	-3691
▁Yeah	-3692
▁hoãn	-3693
▁khía	-3694
▁quát	-3695
▁2004,	-3696
▁Georg	-3697
▁Indonesia	-3698
OS	-3699
be	-3700
he	-3701
ye	-3702
ữ	-3703
ode	-3704
ếch	-3705
▁38	-3706
▁45	-3707
▁kg	-3708
#784	-3709
ower	-3710
rich	-3711
uela	-3712
▁10.	-3713
▁183	-3714
▁Eur	-3715
▁Seo	-3716
▁Ste	-3717
▁Sun	-3718
▁lãm	-3719
▁lật	-3720
▁ong	-3721
▁táo	-3722
▁tóm	-3723
▁Hành	-3724
▁ngực	-3725
ington	-3726
▁Quảng	-3727
▁Wales	-3728
▁huynh	-3729
▁trừng	-3730
▁Latinh	-3731
▁Nigeria	-3732
ằn	-3733
32;	-3734
ave	-3735
ily	-3736
res	-3737
▁8.	-3738
▁Im	-3739
▁Ug	-3740
▁lỡ	-3741
▁mỹ	-3742
▁Hóa	-3743
▁Mah	-3744
▁Thư	-3745
▁Tìm	-3746
▁say	-3747
#432;	-3748
erson	-3749
▁Amer	-3750
▁Biển	-3751
▁Cast	-3752
▁Comp	-3753
▁Play	-3754
▁Quản	-3755
▁Song	-3756
▁1990,	-3757
▁thoái	-3758
stantin	-3759
▁Record	-3760
▁Ukraina	-3761
ghanistan	-3762
▁Pakistan	-3763
12	-3764
AN	-3765
▁\	-3766
ait	-3767
mar	-3768
như	-3769
ulf	-3770
▁AD	-3771
▁cỏ	-3772
idae	-3773
idge	-3774
well	-3775
▁Cos	-3776
▁Div	-3777
▁Han	-3778
▁Ray	-3779
▁hâm	-3780
▁kịp	-3781
▁lộn	-3782
Chúng	-3783
▁Nghị	-3784
▁cuộn	-3785
▁lệch	-3786
▁phấn	-3787
▁than	-3788
▁Đáng	-3789
▁Phong	-3790
▁Smith	-3791
18	-3792
me	-3793
har	-3794
ện	-3795
▁AS	-3796
▁Ah	-3797
▁Mi	-3798
▁rã	-3799
▁st	-3800
atar	-3801
oman	-3802
▁180	-3803
▁Alf	-3804
▁Lục	-3805
▁Ver	-3806
▁leo	-3807
▁tật	-3808
▁ấy	-3809
▁Jean	-3810
▁bông	-3811
▁hang	-3812
▁nhựa	-3813
▁tùng	-3814
▁Động	-3815
▁muốn	-3816
▁thịnh	-3817
▁Joseph	-3818
Cl	-3819
sa	-3820
ui	-3821
▁Ư	-3822
ble	-3823
eda	-3824
org	-3825
tic	-3826
▁Lễ	-3827
▁hò	-3828
▁mò	-3829
▁mù	-3830
ings	-3831
▁Boy	-3832
▁Cov	-3833
▁Cúp	-3834
▁Cầu	-3835
▁Lâu	-3836
▁May	-3837
▁Tàu	-3838
▁bụi	-3839
▁cốc	-3840
▁dải	-3841
▁kil	-3842
▁lạm	-3843
▁nét	-3844
▁ser	-3845
▁sốt	-3846
▁về	-3847
▁đạp	-3848
▁đớn	-3849
▁Luân	-3850
▁Mill	-3851
▁dũng	-3852
▁hung	-3853
▁thép	-3854
▁vĩnh	-3855
▁2001,	-3856
▁Hướng	-3857
▁thung	-3858
▁Albert	-3859
▁cacbon	-3860
▁nghịch	-3861
▁Columbia	-3862
19	-3863
ks	-3864
Anh	-3865
off	-3866
out	-3867
yme	-3868
▁90	-3869
▁rẻ	-3870
▁vú	-3871
▁Âm	-3872
▁đẻ	-3873
ance	-3874
aria	-3875
hoặc	-3876
thur	-3877
ằng	-3878
▁Hit	-3879
▁Nar	-3880
▁Nào	-3881
▁Phổ	-3882
▁Tel	-3883
▁Vài	-3884
▁chẽ	-3885
▁nha	-3886
▁phú	-3887
▁san	-3888
▁sơn	-3889
▁Town	-3890
▁Zeal	-3891
▁chăn	-3892
▁giãn	-3893
▁mộng	-3894
▁thổi	-3895
▁điêu	-3896
▁ngoan	-3897
▁phẳng	-3898
-0	-3899
-6	-3900
15	-3901
IV	-3902
wn	-3903
Con	-3904
III	-3905
aud	-3906
chn	-3907
▁(4	-3908
▁6.	-3909
▁CD	-3910
▁Sở	-3911
▁nở	-3912
#789	-3913
ador	-3914
ence	-3915
▁179	-3916
▁Bul	-3917
▁Eng	-3918
▁Fac	-3919
▁Fre	-3920
▁Hey	-3921
▁Jer	-3922
▁Rad	-3923
▁bớt	-3924
▁pin	-3925
▁sự	-3926
▁sắm	-3927
▁Đan	-3928
▁Cent	-3929
▁Dưới	-3930
▁Giao	-3931
▁Mông	-3932
▁inch	-3933
▁ngừa	-3934
▁tháo	-3935
▁vậy	-3936
▁xăng	-3937
▁Diego	-3938
▁anime	-3939
▁miếng	-3940
chester	-3941
▁Warsaw	-3942
▁Zealand	-3943
▁Afghanistan	-3944
bi	-3945
▁—	-3946
200	-3947
den	-3948
ign	-3949
oid	-3950
ric	-3951
vin	-3952
win	-3953
xem	-3954
▁Cá	-3955
▁Hi	-3956
▁Vụ	-3957
▁dạ	-3958
▁nề	-3959
▁đố	-3960
#788	-3961
aser	-3962
atia	-3963
bour	-3964
enez	-3965
ound	-3966
uyển	-3967
▁150	-3968
▁Cực	-3969
▁Des	-3970
▁Dou	-3971
▁Est	-3972
▁Kos	-3973
▁Som	-3974
▁đáy	-3975
▁(199	-3976
▁Cảng	-3977
▁Liệu	-3978
▁Thêm	-3979
▁ghép	-3980
▁màng	-3981
▁ngơi	-3982
▁tang	-3983
▁Harry	-3984
▁Berlin	-3985
▁Disney	-3986
);	-3987
oe	-3988
aut	-3989
hay	-3990
ott	-3991
por	-3992
uit	-3993
▁Ox	-3994
▁ân	-3995
mond	-3996
▁Bay	-3997
▁Cat	-3998
▁Kon	-3999
▁Lar	-4000
▁Lin	-4001
▁bar	-4002
▁men	-4003
▁trà	-4004
▁2003	-4005
▁Russ	-4006
▁Tuần	-4007
▁diệu	-4008
▁Anton	-4009
▁Serie	-4010
▁Thằng	-4011
▁Venez	-4012
▁ngưng	-4013
tainment	-4014
DP	-4015
oa	-4016
ùn	-4017
cia	-4018
ela	-4019
ise	-4020
nes	-4021
rak	-4022
uki	-4023
ếu	-4024
▁36	-4025
▁CA	-4026
▁Ke	-4027
▁gà	-4028
▁xí	-4029
▁ái	-4030
iano	-4031
▁12,	-4032
▁Ash	-4033
▁Bah	-4034
▁Báo	-4035
▁FBI	-4036
▁Fer	-4037
▁chợ	-4038
▁cài	-4039
▁lặn	-4040
itter	-4041
ustin	-4042
▁1980	-4043
▁Adam	-4044
▁Game	-4045
▁Lịch	-4046
▁Mạch	-4047
▁Ngôi	-4048
▁Stud	-4049
▁Thậm	-4050
▁Tiền	-4051
▁khói	-4052
▁thế	-4053
▁vạch	-4054
▁2000,	-4055
▁2008.	-4056
▁Giáng	-4057
▁Green	-4058
▁trinh	-4059
▁Boston	-4060
▁nhượng	-4061
MA	-4062
MS	-4063
any	-4064
eop	-4065
olo	-4066
yst	-4067
▁Ha	-4068
▁Mô	-4069
▁Ni	-4070
▁Ru	-4071
▁op	-4072
▁rồ	-4073
▁182	-4074
▁Ele	-4075
▁Hạm	-4076
▁Jan	-4077
▁Str	-4078
▁Tal	-4079
▁Thể	-4080
▁bốc	-4081
▁lát	-4082
▁lợn	-4083
▁nấm	-4084
ather	-4085
uchia	-4086
▁Cung	-4087
▁Hall	-4088
▁Sông	-4089
▁Vườn	-4090
▁chai	-4091
▁châm	-4092
▁elec	-4093
▁khát	-4094
▁kiệt	-4095
▁Apple	-4096
▁Hawai	-4097
▁Times	-4098
▁Young	-4099
▁cưỡng	-4100
▁xưởng	-4101
▁Daniel	-4102
▁nghiện	-4103
▁Records	-4104
▁Univers	-4105
▁Entertainment	-4106
TA	-4107
di	-4108
rl	-4109
ava	-4110
iga	-4111
ria	-4112
une	-4113
ều	-4114
̉ng	-4115
̣ng	-4116
▁Bị	-4117
▁FI	-4118
▁IS	-4119
▁bê	-4120
▁lơ	-4121
▁mũ	-4122
ream	-4123
ters	-4124
▁Ari	-4125
▁Pat	-4126
▁cạn	-4127
▁hoà	-4128
▁xóm	-4129
abeth	-4130
ethyl	-4131
▁Chất	-4132
▁Rach	-4133
▁cống	-4134
▁hằng	-4135
▁long	-4136
▁2018.	-4137
▁trượt	-4138
▁Uganda	-4139
▁Australia	-4140
):	-4141
TO	-4142
éc	-4143
▁o	-4144
ady	-4145
aku	-4146
ery	-4147
ầu	-4148
́ng	-4149
▁Ty	-4150
▁sỹ	-4151
ardo	-4152
▁11.	-4153
▁20,	-4154
▁Alb	-4155
▁Art	-4156
▁Bat	-4157
▁Bir	-4158
▁Hor	-4159
▁chă	-4160
▁dốc	-4161
▁enz	-4162
▁mọc	-4163
▁nôn	-4164
icago	-4165
oster	-4166
▁1000	-4167
▁Biết	-4168
▁Hann	-4169
▁Harv	-4170
▁Loại	-4171
▁Nước	-4172
▁củng	-4173
▁1945,	-4174
▁Chris	-4175
▁lưỡng	-4176
▁thuẫn	-4177
▁Arthur	-4178
▁Hawaii	-4179
▁Truyền	-4180
▁Campuchia	-4181
▁Venezuela	-4182
ów	-4183
azz	-4184
cer	-4185
els	-4186
emy	-4187
ict	-4188
iff	-4189
tar	-4190
ugh	-4191
–19	-4192
▁Bh	-4193
▁Mé	-4194
▁lề	-4195
▁tò	-4196
#791	-4197
olog	-4198
uynh	-4199
▁12.	-4200
▁Hot	-4201
▁Mai	-4202
▁Sat	-4203
▁bẫy	-4204
▁dắt	-4205
▁gác	-4206
▁mỏi	-4207
field	-4208
▁Amaz	-4209
▁bổng	-4210
▁chốt	-4211
▁cậu	-4212
▁kiệm	-4213
▁thèm	-4214
▁Guine	-4215
▁Nobel	-4216
▁manga	-4217
▁khoảnh	-4218
▁Division	-4219
▁electron	-4220
80	-4221
mm	-4222
ni	-4223
ese	-4224
gan	-4225
omb	-4226
ữa	-4227
▁Ev	-4228
▁Kn	-4229
▁ne	-4230
adel	-4231
emen	-4232
igan	-4233
▁120	-4234
▁202	-4235
▁Inc	-4236
▁Kam	-4237
▁Nhớ	-4238
▁Ott	-4239
▁bọc	-4240
▁làn	-4241
▁mập	-4242
▁nâu	-4243
▁nén	-4244
▁sói	-4245
▁tẩy	-4246
▁tọa	-4247
▁vắc	-4248
▁đếm	-4249
▁Ảnh	-4250
ement	-4251
▁1970	-4252
▁2018	-4253
▁Barb	-4254
▁Dịch	-4255
▁Greg	-4256
▁Hill	-4257
▁Mang	-4258
▁Roma	-4259
▁Ross	-4260
▁Sáng	-4261
▁khen	-4262
▁thứ	-4263
▁tươi	-4264
▁lường	-4265
▁Thuyền	-4266
-7	-4267
13	-4268
_{	-4269
cu	-4270
▁Ổ	-4271
asp	-4272
eld	-4273
nam	-4274
oli	-4275
xin	-4276
▁Sử	-4277
▁óc	-4278
▁Đỏ	-4279
ison	-4280
line	-4281
ther	-4282
thia	-4283
▁Bao	-4284
▁Cần	-4285
▁Jon	-4286
▁Law	-4287
▁Tar	-4288
▁Vẫn	-4289
▁Web	-4290
▁cor	-4291
▁gọn	-4292
▁kẹt	-4293
▁đắt	-4294
tháng	-4295
▁Cuốn	-4296
▁lùng	-4297
▁vắng	-4298
lywood	-4299
▁1980,	-4300
▁Chuẩn	-4301
▁House	-4302
▁Quyền	-4303
▁Thiếu	-4304
▁Trang	-4305
▁nướng	-4306
▁Guinea	-4307
▁Chicago	-4308
▁Carolina	-4309
BS	-4310
ẹo	-4311
aga	-4312
ere	-4313
isa	-4314
let	-4315
row	-4316
ual	-4317
uay	-4318
▁Ku	-4319
▁NG	-4320
▁Rõ	-4321
▁dĩ	-4322
▁nè	-4323
cher	-4324
egas	-4325
elle	-4326
ngày	-4327
▁Ann	-4328
▁Bas	-4329
▁Far	-4330
▁Mak	-4331
▁Nov	-4332
▁Ron	-4333
▁Sáu	-4334
▁Tun	-4335
▁bướ	-4336
▁dội	-4337
▁kem	-4338
▁lụt	-4339
▁nộp	-4340
▁viê	-4341
▁ván	-4342
board	-4343
ordan	-4344
▁Gran	-4345
▁Mike	-4346
▁Muốn	-4347
▁Prem	-4348
▁thâm	-4349
▁2002,	-4350
▁2018,	-4351
▁Dubai	-4352
▁Inter	-4353
▁Latin	-4354
▁Tướng	-4355
▁Video	-4356
▁chăng	-4357
▁thấy	-4358
▁viếng	-4359
▁vượng	-4360
▁xướng	-4361
▁Palest	-4362
▁Thường	-4363
▁Alexander	-4364
Al	-4365
EC	-4366
gl	-4367
yc	-4368
ãm	-4369
̃n	-4370
ept	-4371
▁39	-4372
▁42	-4373
▁64	-4374
▁Da	-4375
▁Kỹ	-4376
▁Ul	-4377
▁ôm	-4378
erto	-4379
mann	-4380
▁00:	-4381
▁Arm	-4382
▁Bức	-4383
▁Kir	-4384
▁Lời	-4385
▁McC	-4386
▁Sav	-4387
▁Vol	-4388
▁dạo	-4389
▁dẹp	-4390
▁gũi	-4391
▁gối	-4392
▁hét	-4393
▁mắn	-4394
▁non	-4395
▁đấm	-4396
aurus	-4397
▁1960	-4398
▁Brit	-4399
▁Eliz	-4400
▁Penn	-4401
▁cần	-4402
▁cưng	-4403
▁xích	-4404
▁đính	-4405
▁2006.	-4406
▁Barry	-4407
▁Covid	-4408
▁Kenya	-4409
▁Marsh	-4410
▁Seoul	-4411
▁Rachel	-4412
▁Florida	-4413
▁Olympic	-4414
▁Victoria	-4415
8%	-4416
89	-4417
PD	-4418
ci	-4419
gu	-4420
ii	-4421
po	-4422
ớc	-4423
cha	-4424
cho	-4425
ito	-4426
oma	-4427
uce	-4428
uro	-4429
▁9.	-4430
▁FA	-4431
▁Lo	-4432
▁Sn	-4433
▁UN	-4434
▁at	-4435
▁nụ	-4436
▁vờ	-4437
▁Đề	-4438
▁ốc	-4439
alin	-4440
amin	-4441
sung	-4442
▁Ast	-4443
▁Che	-4444
▁Gab	-4445
▁God	-4446
▁Mir	-4447
▁Quả	-4448
▁Res	-4449
▁Rio	-4450
▁Sir	-4451
▁TED	-4452
▁Win	-4453
▁bẩn	-4454
▁cắm	-4455
▁hận	-4456
▁lõi	-4457
▁Đôn	-4458
▁đầm	-4459
▁Ổng	-4460
Người	-4461
amine	-4462
▁Bell	-4463
▁Comm	-4464
▁Tony	-4465
▁sườn	-4466
▁ngoái	-4467
▁quãng	-4468
▁thính	-4469
ootball	-4470
▁Bulgar	-4471
▁Street	-4472
▁Ottoman	-4473
▁Elizabeth	-4474
17	-4475
In	-4476
từ	-4477
▁;	-4478
▁á	-4479
▁ả	-4480
asc	-4481
box	-4482
ega	-4483
its	-4484
lyn	-4485
mad	-4486
rin	-4487
ylv	-4488
▁34	-4489
▁Cố	-4490
▁Dĩ	-4491
▁Xe	-4492
▁ar	-4493
▁vé	-4494
▁Ấu	-4495
arth	-4496
atri	-4497
endo	-4498
iber	-4499
▁177	-4500
▁19.	-4501
▁ADN	-4502
▁Bus	-4503
▁Fri	-4504
▁Lào	-4505
▁Lấy	-4506
▁Mau	-4507
▁Soc	-4508
▁bút	-4509
▁cởi	-4510
▁dâu	-4511
▁ghé	-4512
▁mến	-4513
▁nảy	-4514
▁nốt	-4515
▁vòm	-4516
▁xám	-4517
▁Bảng	-4518
▁Gold	-4519
▁Goth	-4520
▁Rome	-4521
▁Thấy	-4522
▁Viết	-4523
▁Vịnh	-4524
▁chục	-4525
▁manh	-4526
▁thấu	-4527
▁Liban	-4528
▁Robin	-4529
▁Amazon	-4530
▁August	-4531
▁Premier	-4532
▁Billboard	-4533
.)	-4534
FC	-4535
IN	-4536
TC	-4537
gy	-4538
sự	-4539
yt	-4540
íp	-4541
̣i	-4542
300	-4543
ato	-4544
don	-4545
elt	-4546
iet	-4547
iew	-4548
ife	-4549
imb	-4550
omp	-4551
pha	-4552
ras	-4553
ray	-4554
trợ	-4555
ubl	-4556
uồn	-4557
▁).	-4558
▁Po	-4559
▁Ts	-4560
▁lô	-4561
▁ur	-4562
▁Đa	-4563
ever	-4564
ishi	-4565
ough	-4566
▁Atl	-4567
▁Chà	-4568
▁Ein	-4569
▁Fox	-4570
▁Leg	-4571
▁One	-4572
▁Pot	-4573
▁Sơn	-4574
▁Vai	-4575
▁Ven	-4576
▁bit	-4577
▁dịp	-4578
▁dời	-4579
▁gãy	-4580
▁ion	-4581
▁lãi	-4582
▁mâu	-4583
▁mốc	-4584
▁nho	-4585
▁nêu	-4586
▁tuệ	-4587
shire	-4588
▁1995	-4589
▁Girl	-4590
▁Jane	-4591
▁Jess	-4592
▁Kitô	-4593
▁Leon	-4594
▁Tỉnh	-4595
▁chọc	-4596
▁giật	-4597
▁gánh	-4598
▁khôi	-4599
▁rưỡi	-4600
#7871;	-4601
▁1997,	-4602
▁Armen	-4603
▁Carib	-4604
▁Colle	-4605
▁cuồng	-4606
▁điều	-4607
▁Panama	-4608
▁Constantin	-4609
.,	-4610
LA	-4611
PS	-4612
US	-4613
").	-4614
Một	-4615
asa	-4616
cel	-4617
han	-4618
ken	-4619
osa	-4620
rac	-4621
ral	-4622
▁(6	-4623
▁37	-4624
▁Bá	-4625
▁Fu	-4626
▁Ob	-4627
▁Om	-4628
▁Uh	-4629
▁bó	-4630
▁eo	-4631
▁mờ	-4632
▁rẽ	-4633
▁uy	-4634
aine	-4635
enos	-4636
ichi	-4637
ilia	-4638
odes	-4639
phen	-4640
vent	-4641
▁Gọi	-4642
▁Khả	-4643
▁Pen	-4644
▁Ren	-4645
▁ghê	-4646
▁hãm	-4647
▁hôi	-4648
▁khử	-4649
▁ngộ	-4650
▁phế	-4651
▁toà	-4652
▁tỏa	-4653
▁you	-4654
▁đắn	-4655
▁Ước	-4656
#225;	-4657
Những	-4658
▁Club	-4659
▁Hoàn	-4660
▁Karl	-4661
▁Maur	-4662
▁Nguy	-4663
▁Okay	-4664
▁Tiêu	-4665
▁mỏng	-4666
▁ngai	-4667
▁rỗng	-4668
▁trật	-4669
▁vâng	-4670
▁1944,	-4671
▁1970,	-4672
▁2005.	-4673
▁Award	-4674
▁Trông	-4675
▁nhiếp	-4676
▁Alfred	-4677
▁Johann	-4678
▁Jordan	-4679
▁carbon	-4680
▁trương	-4681
▁Armenia	-4682
▁Bulgaria	-4683
▁Manchester	-4684
22	-4685
37	-4686
Gi	-4687
VD	-4688
Các	-4689
Nếu	-4690
bao	-4691
bit	-4692
còn	-4693
ias	-4694
ika	-4695
kin	-4696
oro	-4697
oud	-4698
ław	-4699
▁Tỷ	-4700
▁VI	-4701
▁cl	-4702
▁dê	-4703
▁ha	-4704
▁tê	-4705
edia	-4706
ster	-4707
xico	-4708
ômét	-4709
▁181	-4710
▁BBC	-4711
▁Him	-4712
▁Hon	-4713
▁Maj	-4714
▁Mid	-4715
▁Mod	-4716
▁Mol	-4717
▁Nag	-4718
▁Nak	-4719
▁Quỹ	-4720
▁Sai	-4721
▁Tụi	-4722
▁Wat	-4723
▁Way	-4724
▁cắn	-4725
▁des	-4726
▁gấu	-4727
▁hệt	-4728
▁ngô	-4729
▁ven	-4730
▁von	-4731
▁vội	-4732
▁ướt	-4733
attle	-4734
ebook	-4735
▁1999	-4736
▁Ball	-4737
▁Buổi	-4738
▁Live	-4739
▁Love	-4740
▁Rằng	-4741
▁Sand	-4742
▁Show	-4743
▁Trân	-4744
▁hoài	-4745
▁hước	-4746
▁khớp	-4747
▁luân	-4748
▁miện	-4749
▁Đang	-4750
▁1.000	-4751
▁Clark	-4752
▁Jacob	-4753
▁Nhiệm	-4754
▁Scott	-4755
▁Chuyến	-4756
▁México	-4757
▁enzyme	-4758
▁khoáng	-4759
▁Samsung	-4760
▁kilômét	-4761
▁Hollywood	-4762
▁Palestine	-4763
38	-4764
45	-4765
An	-4766
ER	-4767
FF	-4768
cz	-4769
ef	-4770
00,	-4771
amo	-4772
rol	-4773
sau	-4774
una	-4775
ận	-4776
▁Li	-4777
▁Xu	-4778
▁bể	-4779
▁mổ	-4780
▁uh	-4781
eder	-4782
orth	-4783
rian	-4784
roid	-4785
▁Alg	-4786
▁Chỗ	-4787
▁Cop	-4788
▁Den	-4789
▁Dun	-4790
▁Las	-4791
▁Meg	-4792
▁Net	-4793
▁Nhờ	-4794
▁Pop	-4795
▁Rev	-4796
▁Sab	-4797
▁Top	-4798
▁Vật	-4799
▁bấy	-4800
▁lũy	-4801
▁nàn	-4802
▁vứt	-4803
▁Đêm	-4804
#243;	-4805
ianus	-4806
orado	-4807
▁Anna	-4808
▁FIFA	-4809
▁Jeff	-4810
▁Laur	-4811
▁Mười	-4812
▁Phục	-4813
▁Sang	-4814
▁Shar	-4815
▁bỏng	-4816
▁khôn	-4817
▁lưng	-4818
▁nhục	-4819
▁rất	-4820
▁tiệm	-4821
▁xưng	-4822
▁điền	-4823
▁Bruce	-4824
▁Thuật	-4825
▁Trăng	-4826
▁khiết	-4827
▁phiến	-4828
▁việc	-4829
▁Walter	-4830
▁camera	-4831
▁chuông	-4832
▁Einstein	-4833
-9	-4834
14	-4835
75	-4836
EA	-4837
ET	-4838
ij	-4839
si	-4840
▁*	-4841
ars	-4842
die	-4843
raz	-4844
tha	-4845
▁AR	-4846
▁By	-4847
▁OK	-4848
▁Tử	-4849
▁Vợ	-4850
▁cỗ	-4851
▁hố	-4852
▁nọ	-4853
▁vâ	-4854
▁vỗ	-4855
arus	-4856
omen	-4857
ongo	-4858
site	-4859
▁178	-4860
▁Abd	-4861
▁Ara	-4862
▁Bon	-4863
▁Bud	-4864
▁Bán	-4865
▁Bốn	-4866
▁Chó	-4867
▁Coi	-4868
▁Dam	-4869
▁Gil	-4870
▁Lam	-4871
▁Lưu	-4872
▁Núi	-4873
▁Pap	-4874
▁bếp	-4875
▁cấy	-4876
▁gởi	-4877
▁lăn	-4878
▁van	-4879
▁đứt	-4880
0,000	-4881
press	-4882
rence	-4883
▁Conn	-4884
▁News	-4885
▁Ngôn	-4886
▁Tham	-4887
▁Vòng	-4888
▁Wood	-4889
▁dâng	-4890
▁giờ	-4891
▁khoẻ	-4892
▁lưỡi	-4893
▁nhát	-4894
▁nắng	-4895
thường	-4896
▁1943,	-4897
▁1960,	-4898
▁1992,	-4899
▁Brown	-4900
▁Nguồn	-4901
▁Night	-4902
▁Queen	-4903
▁Trắng	-4904
▁White	-4905
▁nhũng	-4906
▁Puerto	-4907
▁khuyết	-4908
▁Georgia	-4909
▁American	-4910
▁Football	-4911
Ar	-4912
▁−	-4913
eet	-4914
ury	-4915
▁AP	-4916
▁Lẽ	-4917
▁Mĩ	-4918
▁bọ	-4919
▁dì	-4920
▁dỡ	-4921
▁is	-4922
▁sọ	-4923
anny	-4924
iều	-4925
kins	-4926
otte	-4927
▁19,	-4928
▁Bor	-4929
▁Hán	-4930
▁Hạt	-4931
▁Kaz	-4932
▁Lau	-4933
▁Lim	-4934
▁Rog	-4935
▁Ted	-4936
▁Trò	-4937
▁báu	-4938
▁côn	-4939
▁lấp	-4940
▁lầy	-4941
▁tựu	-4942
athan	-4943
ister	-4944
lorua	-4945
▁1950	-4946
▁Cape	-4947
▁East	-4948
▁Jenn	-4949
▁Nint	-4950
▁Năng	-4951
▁Rico	-4952
▁Slav	-4953
▁bách	-4954
▁chua	-4955
▁chày	-4956
▁file	-4957
▁nhạt	-4958
▁thầm	-4959
▁tiễn	-4960
▁Điểm	-4961
▁1990.	-4962
▁Media	-4963
▁Thuốc	-4964
▁phiêu	-4965
▁Oliver	-4966
▁Thương	-4967
▁chuyện	-4968
"?	-4969
64	-4970
69	-4971
AP	-4972
Qu	-4973
ea	-4974
3),	-4975
abi	-4976
abs	-4977
bus	-4978
isc	-4979
mos	-4980
ody	-4981
oku	-4982
oln	-4983
tên	-4984
uka	-4985
umi	-4986
uri	-4987
ốc	-4988
▁75	-4989
▁Ay	-4990
▁Cụ	-4991
▁Ga	-4992
▁Kl	-4993
▁Xa	-4994
▁li	-4995
▁lê	-4996
▁xà	-4997
▁xá	-4998
▁Đo	-4999
-200	-5000
ando	-5001
ason	-5002
phia	-5003
port	-5004
stan	-5005
ston	-5006
▁Cur	-5007
▁Cây	-5008
▁Căn	-5009
▁Dur	-5010
▁Fel	-5011
▁Kep	-5012
▁Khí	-5013
▁Lại	-5014
▁Rod	-5015
▁Roy	-5016
▁heo	-5017
▁hàn	-5018
▁lùn	-5019
▁lọt	-5020
▁nhi	-5021
▁nãy	-5022
▁rộn	-5023
▁súc	-5024
▁xấp	-5025
▁đúc	-5026
▁đậm	-5027
ensis	-5028
inger	-5029
▁Giới	-5030
▁Gord	-5031
▁Kenn	-5032
▁Kiểu	-5033
▁Slov	-5034
▁Sund	-5035
▁bướm	-5036
▁hưng	-5037
▁khốn	-5038
▁Đoàn	-5039
▁2001.	-5040
▁Brook	-5041
▁Trans	-5042
▁khoai	-5043
▁thiêu	-5044
▁10.000	-5045
▁Island	-5046
▁Johnson	-5047
▁Nintendo	-5048
39	-5049
AF	-5050
DA	-5051
SS	-5052
Sh	-5053
ky	-5054
̉i	-5055
"),	-5056
:00	-5057
Bạn	-5058
VID	-5059
iev	-5060
ism	-5061
kva	-5062
lib	-5063
lyc	-5064
mon	-5065
rit	-5066
uct	-5067
▁(5	-5068
▁33	-5069
▁Cu	-5070
▁Ki	-5071
▁đc	-5072
▁ấu	-5073
0000	-5074
Tube	-5075
abin	-5076
atra	-5077
ital	-5078
▁Chờ	-5079
▁Kan	-5080
▁Lit	-5081
▁Lor	-5082
▁MTV	-5083
▁Pho	-5084
▁bơm	-5085
▁hít	-5086
▁mìn	-5087
▁mầm	-5088
▁vần	-5089
▁vẹn	-5090
▁đòn	-5091
▁đắp	-5092
aceae	-5093
ydney	-5094
▁1997	-5095
▁Cher	-5096
▁Fred	-5097
▁Gall	-5098
▁Giai	-5099
▁Hiệu	-5100
▁Linc	-5101
▁Lind	-5102
▁Mand	-5103
▁Phía	-5104
▁Tour	-5105
▁ngột	-5106
▁nữa	-5107
▁trội	-5108
▁vành	-5109
ations	-5110
edonia	-5111
opolis	-5112
ternet	-5113
▁2004.	-5114
▁Khách	-5115
▁Oscar	-5116
▁khiếu	-5117
▁nhàng	-5118
▁radio	-5119
▁Hitler	-5120
▁Bernard	-5121
▁Facebook	-5122
▁International	-5123
4%	-5124
88	-5125
BA	-5126
ru	-5127
ẻo	-5128
ếm	-5129
2),	-5130
dam	-5131
eng	-5132
log	-5133
oda	-5134
oms	-5135
reg	-5136
san	-5137
với	-5138
▁67	-5139
▁EP	-5140
▁Ji	-5141
▁Ly	-5142
▁Mr	-5143
▁Tù	-5144
▁XX	-5145
▁bả	-5146
▁bồ	-5147
▁fl	-5148
▁mỡ	-5149
▁ti	-5150
▁ồn	-5151
abel	-5152
arch	-5153
ator	-5154
ello	-5155
esia	-5156
okia	-5157
omon	-5158
pris	-5159
▁Fil	-5160
▁Les	-5161
▁Men	-5162
▁NGC	-5163
▁Por	-5164
▁Sel	-5165
▁Son	-5166
▁Tạp	-5167
▁VII	-5168
▁bát	-5169
▁bóp	-5170
▁bồn	-5171
▁cáp	-5172
▁duệ	-5173
▁lúa	-5174
▁lận	-5175
▁ngụ	-5176
▁nhị	-5177
▁rìa	-5178
▁từ	-5179
▁vợt	-5180
▁Đơn	-5181
▁đãi	-5182
adesh	-5183
ights	-5184
yeong	-5185
▁1996	-5186
▁2002	-5187
▁Bóng	-5188
▁Bạch	-5189
▁Diễn	-5190
▁Giữa	-5191
▁Lang	-5192
▁NASA	-5193
▁Norf	-5194
▁Nàng	-5195
▁Prot	-5196
▁Sách	-5197
▁Tinh	-5198
▁chòm	-5199
▁ngặt	-5200
▁taxi	-5201
▁xoáy	-5202
▁xoắn	-5203
▁1930,	-5204
▁COVID	-5205
▁Ghana	-5206
▁Khmer	-5207
▁Khoan	-5208
▁Nhiệt	-5209
▁chuộc	-5210
▁khuất	-5211
▁radar	-5212
▁triệt	-5213
▁Camero	-5214
▁Kepler	-5215
▁Monica	-5216
▁Moskva	-5217
▁Taylor	-5218
▁Trưởng	-5219
▁nghiệt	-5220
adelphia	-5221
▁Charlie	-5222
▁National	-5223
▁internet	-5224
▁Christian	-5225
▁Philadelphia	-5226
65	-5227
?)	-5228
AC	-5229
IM	-5230
mi	-5231
36;	-5232
600	-5233
aro	-5234
asu	-5235
ati	-5236
kov	-5237
roc	-5238
rov	-5239
sey	-5240
ềng	-5241
▁Bỏ	-5242
▁Ig	-5243
▁Py	-5244
▁Vệ	-5245
▁Zh	-5246
..."	-5247
able	-5248
agan	-5249
avia	-5250
enna	-5251
form	-5252
inal	-5253
inus	-5254
wich	-5255
ước	-5256
▁250	-5257
▁Dựa	-5258
▁Hậu	-5259
▁Kal	-5260
▁Sum	-5261
▁Síp	-5262
▁Tob	-5263
▁chư	-5264
▁côi	-5265
▁cúp	-5266
▁cụt	-5267
▁dại	-5268
▁dịu	-5269
▁neo	-5270
▁thọ	-5271
▁top	-5272
▁đạc	-5273
#236;	-5274
rison	-5275
uitar	-5276
▁Chap	-5277
▁Coun	-5278
▁Elec	-5279
▁Fern	-5280
▁Schw	-5281
▁Time	-5282
▁Trin	-5283
▁láng	-5284
▁tour	-5285
▁trắc	-5286
▁Great	-5287
▁Titan	-5288
▁duyên	-5289
▁giềng	-5290
▁laser	-5291
▁natri	-5292
▁nhất	-5293
▁quyên	-5294
▁rằng	-5295
▁tráng	-5296
▁Carlos	-5297
▁Sydney	-5298
▁guitar	-5299
▁Lincoln	-5300
▁Norfolk	-5301
▁YouTube	-5302
▁Champion	-5303
▁Colorado	-5304
▁Lawrence	-5305
/&	-5306
HC	-5307
IC	-5308
IT	-5309
eh	-5310
jo	-5311
zb	-5312
̉n	-5313
̣p	-5314
1),	-5315
adi	-5316
aly	-5317
bor	-5318
din	-5319
ido	-5320
ili	-5321
omi	-5322
ree	-5323
str	-5324
uke	-5325
ves	-5326
vis	-5327
ộc	-5328
▁(7	-5329
▁48	-5330
▁CN	-5331
▁Et	-5332
▁PC	-5333
▁Sz	-5334
▁ex	-5335
▁gl	-5336
▁lb	-5337
▁mỉ	-5338
▁nạ	-5339
▁tủ	-5340
adal	-5341
anta	-5342
eron	-5343
hing	-5344
ider	-5345
isia	-5346
ival	-5347
▁18,	-5348
▁600	-5349
▁80%	-5350
▁Bou	-5351
▁Bun	-5352
▁Dem	-5353
▁Ell	-5354
▁Giả	-5355
▁Hir	-5356
▁Huy	-5357
▁Liv	-5358
▁Mun	-5359
▁Nan	-5360
▁Nep	-5361
▁Old	-5362
▁Pre	-5363
▁Pri	-5364
▁Reg	-5365
▁Sib	-5366
▁Sri	-5367
▁Trừ	-5368
▁bìa	-5369
▁kẹo	-5370
▁rau	-5371
▁vải	-5372
uston	-5373
ystem	-5374
▁1983	-5375
▁Chúc	-5376
▁Chết	-5377
▁Good	-5378
▁Hans	-5379
▁Hoạt	-5380
▁Linh	-5381
▁Mart	-5382
▁Sher	-5383
▁Tanz	-5384
▁Vinc	-5385
▁Viên	-5386
▁hiếp	-5387
▁lăng	-5388
▁móng	-5389
▁ngắm	-5390
▁rung	-5391
▁trán	-5392
▁tông	-5393
avirus	-5394
▁1994,	-5395
▁Andre	-5396
▁Costa	-5397
▁Libya	-5398
▁Steve	-5399
▁luồng	-5400
▁Andrew	-5401
▁Madrid	-5402
▁Alexand	-5403
▁Croatia	-5404
'.	-5405
6%	-5406
;/	-5407
ju	-5408
ắ	-5409
ốm	-5410
ựu	-5411
▁Ờ	-5412
100	-5413
6),	-5414
ats	-5415
aun	-5416
enh	-5417
ike	-5418
iko	-5419
ips	-5420
ngh	-5421
ote	-5422
owa	-5423
rig	-5424
umb	-5425
ắt	-5426
▁),	-5427
▁44	-5428
▁56	-5429
▁65	-5430
▁Cử	-5431
▁Dh	-5432
▁Mở	-5433
▁Ry	-5434
▁Si	-5435
▁XI	-5436
▁XV	-5437
ange	-5438
aska	-5439
cũng	-5440
elly	-5441
ista	-5442
olas	-5443
▁16,	-5444
▁175	-5445
▁800	-5446
▁Ali	-5447
▁Bảy	-5448
▁Dal	-5449
▁Dec	-5450
▁HIV	-5451
▁Jud	-5452
▁Pep	-5453
▁Sic	-5454
▁Sud	-5455
▁Sản	-5456
▁Thử	-5457
▁Wes	-5458
▁bến	-5459
▁lót	-5460
▁lội	-5461
▁met	-5462
▁sét	-5463
▁Đấy	-5464
▁Đợi	-5465
attan	-5466
▁1994	-5467
▁Brun	-5468
▁High	-5469
▁Hãng	-5470
▁Khối	-5471
▁Kiến	-5472
▁Tenn	-5473
▁Wolf	-5474
▁hạch	-5475
▁phơi	-5476
▁solo	-5477
▁trùm	-5478
▁đầu	-5479
bridge	-5480
▁1960.	-5481
▁1989,	-5482
▁1998,	-5483
▁Linux	-5484
▁Spart	-5485
▁email	-5486
▁thiếp	-5487
ylvania	-5488
▁Junior	-5489
▁Oxford	-5490
▁Stalin	-5491
▁khoang	-5492
▁khuynh	-5493
▁College	-5494
▁Harvard	-5495
▁Twitter	-5496
▁Marshall	-5497
23	-5498
95	-5499
99	-5500
Có	-5501
GM	-5502
NG	-5503
pi	-5504
és	-5505
ẹt	-5506
▁[	-5507
▁×	-5508
4),	-5509
ead	-5510
eme	-5511
erb	-5512
ete	-5513
eus	-5514
gic	-5515
iế	-5516
jan	-5517
kel	-5518
oon	-5519
ska	-5520
tim	-5521
ulu	-5522
uma	-5523
▁".	-5524
▁57	-5525
▁Dr	-5526
▁Gã	-5527
▁Um	-5528
▁nơ	-5529
▁rể	-5530
▁rỉ	-5531
▁đè	-5532
aica	-5533
akes	-5534
azar	-5535
ento	-5536
eral	-5537
eter	-5538
icia	-5539
ming	-5540
ning	-5541
ogen	-5542
oton	-5543
raph	-5544
work	-5545
▁13,	-5546
▁Cấu	-5547
▁Jos	-5548
▁Ker	-5549
▁Lao	-5550
▁Lâm	-5551
▁Quy	-5552
▁Quý	-5553
▁Sev	-5554
▁Wik	-5555
▁bùn	-5556
▁hit	-5557
▁hụt	-5558
▁mau	-5559
▁ngự	-5560
▁nạp	-5561
▁pho	-5562
▁tro	-5563
▁Đĩa	-5564
enter	-5565
▁(197	-5566
▁1998	-5567
▁Char	-5568
▁Eric	-5569
▁Ford	-5570
▁Hind	-5571
▁Joey	-5572
▁Land	-5573
▁Matt	-5574
▁Nhất	-5575
▁Turk	-5576
▁feet	-5577
▁ghen	-5578
▁lánh	-5579
▁nuốt	-5580
▁soái	-5581
▁điếm	-5582
▁đoan	-5583
▁1941,	-5584
▁Alice	-5585
▁Chung	-5586
▁Dream	-5587
▁Idlib	-5588
▁Jimmy	-5589
▁Jones	-5590
▁Lượng	-5591
▁Marie	-5592
▁Penns	-5593
▁Quyết	-5594
▁Simon	-5595
▁piano	-5596
▁sống	-5597
▁thật	-5598
▁Chuyển	-5599
▁Cameroon	-5600
52	-5601
9%	-5602
PL	-5603
RA	-5604
TP	-5605
cc	-5606
fl	-5607
đã	-5608
̃i	-5609
ễn	-5610
-10	-5611
aco	-5612
aid	-5613
aph	-5614
cas	-5615
eon	-5616
oni	-5617
ukh	-5618
uya	-5619
wan	-5620
ươn	-5621
▁(8	-5622
▁1:	-5623
▁Bi	-5624
▁IP	-5625
▁Ib	-5626
▁Vô	-5627
▁Wr	-5628
▁Xê	-5629
▁củ	-5630
▁me	-5631
▁mẻ	-5632
▁xế	-5633
▁ôn	-5634
▁Đồ	-5635
▁đư	-5636
#790	-5637
agas	-5638
akia	-5639
atem	-5640
cười	-5641
eman	-5642
raft	-5643
reen	-5644
uchi	-5645
utan	-5646
zona	-5647
érie	-5648
▁20.	-5649
▁Aqu	-5650
▁Day	-5651
▁Deb	-5652
▁Ern	-5653
▁Fir	-5654
▁Ghi	-5655
▁Jin	-5656
▁Lai	-5657
▁Lev	-5658
▁Mối	-5659
▁Off	-5660
▁Pau	-5661
▁Phu	-5662
▁Rem	-5663
▁Trị	-5664
▁Tôn	-5665
▁Vis	-5666
▁Yok	-5667
▁Yêu	-5668
▁bưu	-5669
▁bắp	-5670
▁dán	-5671
▁dập	-5672
▁fan	-5673
▁nón	-5674
▁pop	-5675
▁râu	-5676
▁sôi	-5677
▁thệ	-5678
▁thỏ	-5679
▁thự	-5680
▁tăm	-5681
▁tản	-5682
▁Độc	-5683
ional	-5684
những	-5685
ragon	-5686
▁1930	-5687
▁1946	-5688
▁1965	-5689
▁1989	-5690
▁Arch	-5691
▁Caes	-5692
▁Ivan	-5693
▁Krak	-5694
▁Kênh	-5695
▁Mess	-5696
▁Miến	-5697
▁Mong	-5698
▁Ngựa	-5699
▁Vàng	-5700
▁bong	-5701
▁chéo	-5702
▁chổi	-5703
▁cược	-5704
▁diễu	-5705
▁ngục	-5706
▁sòng	-5707
▁thắt	-5708
▁trói	-5709
▁trọn	-5710
▁Allen	-5711
▁Group	-5712
▁Nhanh	-5713
▁Stone	-5714
▁Thung	-5715
▁Trump	-5716
▁Tưởng	-5717
▁Under	-5718
▁Vegas	-5719
▁quyến	-5720
▁sương	-5721
▁Claire	-5722
▁German	-5723
▁Justin	-5724
▁Margar	-5725
▁nhiều	-5726
▁Android	-5727
▁Houston	-5728
▁Tanzania	-5729
',	-5730
66	-5731
EO	-5732
TE	-5733
wi	-5734
õm	-5735
ịt	-5736
ởm	-5737
-17	-5738
eim	-5739
iaz	-5740
nay	-5741
ots	-5742
ous	-5743
oya	-5744
sch	-5745
uan	-5746
uda	-5747
▁Bí	-5748
▁Fe	-5749
▁OS	-5750
▁Sơ	-5751
▁kệ	-5752
▁lờ	-5753
▁rũ	-5754
▁tơ	-5755
▁đà	-5756
#785	-5757
aker	-5758
alem	-5759
elli	-5760
idad	-5761
isha	-5762
issa	-5763
iện	-5764
osph	-5765
ship	-5766
uman	-5767
▁Abu	-5768
▁Bad	-5769
▁Bai	-5770
▁Big	-5771
▁Bre	-5772
▁CIA	-5773
▁Cer	-5774
▁DVD	-5775
▁Dai	-5776
▁Ecu	-5777
▁Joe	-5778
▁Key	-5779
▁Kry	-5780
▁Len	-5781
▁Log	-5782
▁Lớn	-5783
▁Mao	-5784
▁Moh	-5785
▁Pad	-5786
▁Sen	-5787
▁Shō	-5788
▁Sếp	-5789
▁bám	-5790
▁bóc	-5791
▁cal	-5792
▁cay	-5793
▁cơm	-5794
▁cớm	-5795
▁gay	-5796
▁hèn	-5797
▁khe	-5798
Nhưng	-5799
ition	-5800
ittle	-5801
unter	-5802
▁(195	-5803
▁1945	-5804
▁1991	-5805
▁2019	-5806
▁Bour	-5807
▁Carr	-5808
▁Juan	-5809
▁Jung	-5810
▁Lady	-5811
▁Manh	-5812
▁Nhận	-5813
▁Rica	-5814
▁Trần	-5815
▁Tạng	-5816
▁Xuân	-5817
▁nhện	-5818
▁phàn	-5819
▁thắc	-5820
▁vách	-5821
ladesh	-5822
▁2000.	-5823
▁Aires	-5824
▁Giang	-5825
▁Ngược	-5826
▁Sound	-5827
▁Tuyến	-5828
▁chiêu	-5829
▁coron	-5830
▁giáng	-5831
▁thời	-5832
▁Baltic	-5833
▁Buenos	-5834
▁Philip	-5835
▁nguyền	-5836
▁thiêng	-5837
▁Arizona	-5838
▁Jamaica	-5839
▁Enterpris	-5840
▁Pennsylvania	-5841
34	-5842
35	-5843
62	-5844
BM	-5845
CC	-5846
DS	-5847
bu	-5848
cH	-5849
td	-5850
zh	-5851
▁Ă	-5852
-12	-5853
apt	-5854
axy	-5855
chỉ	-5856
elm	-5857
esa	-5858
eto	-5859
iat	-5860
ied	-5861
mas	-5862
mặc	-5863
try	-5864
tôi	-5865
var	-5866
vel	-5867
wis	-5868
ặc	-5869
ời	-5870
▁41	-5871
▁CP	-5872
▁EU	-5873
▁Lũ	-5874
▁by	-5875
▁bệ	-5876
▁dỗ	-5877
▁et	-5878
▁kề	-5879
▁vả	-5880
▁xả	-5881
▁Út	-5882
achi	-5883
atin	-5884
cast	-5885
chen	-5886
illo	-5887
ione	-5888
ique	-5889
iến	-5890
iệu	-5891
onna	-5892
oria	-5893
phát	-5894
▁18.	-5895
▁Bàn	-5896
▁Cle	-5897
▁Dol	-5898
▁Giá	-5899
▁Gun	-5900
▁Lud	-5901
▁Out	-5902
▁Que	-5903
▁Raj	-5904
▁Sus	-5905
▁Tem	-5906
▁Toy	-5907
▁Vat	-5908
▁Zam	-5909
▁chì	-5910
▁cán	-5911
▁gìn	-5912
▁lau	-5913
▁lầu	-5914
▁lậu	-5915
▁nhì	-5916
▁phì	-5917
▁run	-5918
▁rải	-5919
▁rực	-5920
▁trá	-5921
▁váy	-5922
bourg	-5923
ersey	-5924
stone	-5925
ultan	-5926
▁Alan	-5927
▁Andy	-5928
▁Biên	-5929
▁Chel	-5930
▁Dòng	-5931
▁Hong	-5932
▁Kiểm	-5933
▁Mạng	-5934
▁Nhạc	-5935
▁Phúc	-5936
▁Road	-5937
▁Sara	-5938
▁chay	-5939
▁gene	-5940
▁ngủi	-5941
▁quật	-5942
▁sừng	-5943
▁thoả	-5944
▁thói	-5945
▁thơm	-5946
▁vươn	-5947
▁đuối	-5948
▁đàng	-5949
▁đấy	-5950
#7879;	-5951
#7889;	-5952
▁1999,	-5953
▁2002.	-5954
▁Billy	-5955
▁Games	-5956
▁Lewis	-5957
▁Nepal	-5958
▁Radio	-5959
▁Sport	-5960
▁Stark	-5961
▁Theod	-5962
▁Thỉnh	-5963
▁khiêm	-5964
▁nhiễu	-5965
agascar	-5966
▁France	-5967
▁Gordon	-5968
▁Serbia	-5969
▁nhường	-5970
▁Ecuador	-5971
▁Michigan	-5972
▁Macedonia	-5973
▁Manhattan	-5974
▁Madagascar	-5975
▁coronavirus	-5976
";	-5977
.”	-5978
3%	-5979
44	-5980
:0	-5981
LB	-5982
OL	-5983
RO	-5984
gs	-5985
là	-5986
pa	-5987
uf	-5988
▁É	-5989
8).	-5990
aba	-5991
ces	-5992
cou	-5993
eau	-5994
eol	-5995
eva	-5996
hip	-5997
jin	-5998
kan	-5999
och	-6000
oga	-6001
rah	-6002
ume	-6003
wig	-6004
won	-6005
zen	-6006
ắn	-6007
ấng	-6008
▁(9	-6009
▁0.	-6010
▁01	-6011
▁46	-6012
▁55	-6013
▁72	-6014
▁Bờ	-6015
▁Iw	-6016
▁Ny	-6017
▁Od	-6018
▁PS	-6019
▁SS	-6020
▁Up	-6021
▁Wy	-6022
▁ah	-6023
▁en	-6024
▁or	-6025
▁rò	-6026
▁rỡ	-6027
▁xé	-6028
▁út	-6029
ally	-6030
anga	-6031
anth	-6032
arin	-6033
esus	-6034
evin	-6035
iper	-6036
ivia	-6037
odon	-6038
ures	-6039
usta	-6040
ylon	-6041
▁(1.	-6042
▁(17	-6043
▁10%	-6044
▁40%	-6045
▁But	-6046
▁Fuk	-6047
▁Gặp	-6048
▁Hig	-6049
▁Int	-6050
▁Kab	-6051
▁Kai	-6052
▁Lis	-6053
▁Luz	-6054
▁Lyn	-6055
▁Mob	-6056
▁Pit	-6057
▁Pra	-6058
▁Rey	-6059
▁Sah	-6060
▁Séc	-6061
▁Tâm	-6062
▁USS	-6063
▁bẩm	-6064
▁gục	-6065
▁huỷ	-6066
▁kép	-6067
▁lam	-6068
▁mon	-6069
▁nhở	-6070
▁xíu	-6071
▁Ánh	-6072
▁đệm	-6073
Trong	-6074
chúng	-6075
nhưng	-6076
▁1955	-6077
▁1975	-6078
▁1985	-6079
▁1986	-6080
▁1992	-6081
▁Brad	-6082
▁Ever	-6083
▁Huấn	-6084
▁Jong	-6085
▁Mend	-6086
▁Tháp	-6087
▁amin	-6088
▁cúng	-6089
▁cưỡi	-6090
▁muỗi	-6091
▁sulf	-6092
linois	-6093
▁1942,	-6094
▁1950,	-6095
▁1971,	-6096
▁1980.	-6097
▁1995,	-6098
▁1995.	-6099
▁Beach	-6100
▁Chand	-6101
▁Chiều	-6102
▁Davis	-6103
▁Nikol	-6104
▁Paulo	-6105
▁Tommy	-6106
▁Tuyên	-6107
▁Xưởng	-6108
▁khinh	-6109
atemala	-6110
osaurus	-6111
▁Donald	-6112
▁Guadal	-6113
▁Johnny	-6114
▁System	-6115
▁clorua	-6116
▁series	-6117
atherine	-6118
▁Belarus	-6119
▁Company	-6120
▁Solomon	-6121
▁Johannes	-6122
▁Guatemala	-6123
27	-6124
72	-6125
DD	-6126
Em	-6127
LC	-6128
bl	-6129
fa	-6130
nó	-6131
so	-6132
tz	-6133
uv	-6134
zy	-6135
̉u	-6136
▁ừ	-6137
-18	-6138
800	-6139
day	-6140
edy	-6141
hai	-6142
iti	-6143
uth	-6144
uto	-6145
uts	-6146
xit	-6147
Đây	-6148
ếng	-6149
ỳnh	-6150
▁47	-6151
▁52	-6152
▁Kō	-6153
▁MP	-6154
▁Sy	-6155
▁bã	-6156
▁kẽ	-6157
▁sê	-6158
▁vớ	-6159
agen	-6160
agua	-6161
anni	-6162
ated	-6163
ecca	-6164
hiro	-6165
iago	-6166
ibia	-6167
ilic	-6168
inch	-6169
ious	-6170
pson	-6171
ring	-6172
zant	-6173
▁14,	-6174
▁15,	-6175
▁Coc	-6176
▁Dor	-6177
▁Fal	-6178
▁GDP	-6179
▁Guy	-6180
▁Ltd	-6181
▁Lão	-6182
▁Mẫu	-6183
▁Nev	-6184
▁Ped	-6185
▁Rub	-6186
▁Sor	-6187
▁Squ	-6188
▁São	-6189
▁Sức	-6190
▁XIX	-6191
▁bực	-6192
▁cồn	-6193
▁lều	-6194
▁man	-6195
▁nồi	-6196
▁tím	-6197
▁tự	-6198
▁vầy	-6199
▁Đàn	-6200
▁Đám	-6201
ierra	-6202
oleon	-6203
owski	-6204
ublic	-6205
uguay	-6206
▁1920	-6207
▁1942	-6208
▁1974	-6209
▁Anth	-6210
▁Blue	-6211
▁Chim	-6212
▁Cruz	-6213
▁Dave	-6214
▁Glob	-6215
▁Hard	-6216
▁José	-6217
▁Luôn	-6218
▁Nich	-6219
▁Open	-6220
▁Phản	-6221
▁Pier	-6222
▁Pres	-6223
▁Real	-6224
▁Rose	-6225
▁Salv	-6226
▁Siêu	-6227
▁Viễn	-6228
▁chip	-6229
▁from	-6230
▁hiền	-6231
▁kiềm	-6232
▁lướt	-6233
▁mãnh	-6234
▁mảng	-6235
▁nhậm	-6236
▁nếu	-6237
▁poly	-6238
▁ruồi	-6239
▁suýt	-6240
▁Đánh	-6241
enburg	-6242
▁1950.	-6243
▁1988,	-6244
▁1991,	-6245
▁1993,	-6246
▁2003.	-6247
▁Congo	-6248
▁Grant	-6249
▁Lanka	-6250
▁Milan	-6251
▁Nokia	-6252
▁Tiber	-6253
▁opera	-6254
▁Đương	-6255
Station	-6256
▁Galaxy	-6257
▁Miller	-6258
▁Nathan	-6259
▁Queens	-6260
▁Wilson	-6261
▁chuyền	-6262
▁Stanley	-6263
▁Stephen	-6264
▁Tunisia	-6265
▁Uruguay	-6266
▁Napoleon	-6267
▁Cambridge	-6268
▁Bangladesh	-6269
1:	-6270
61	-6271
68	-6272
Cô	-6273
RS	-6274
TM	-6275
bb	-6276
xy	-6277
để	-6278
–2	-6279
▁Ê	-6280
#23	-6281
01;	-6282
400	-6283
Don	-6284
aff	-6285
agh	-6286
als	-6287
col	-6288
của	-6289
get	-6290
hat	-6291
hio	-6292
imo	-6293
iri	-6294
iva	-6295
kho	-6296
led	-6297
nik	-6298
osp	-6299
ret	-6300
sea	-6301
usa	-6302
ền	-6303
▁2:	-6304
▁51	-6305
▁CS	-6306
▁Lữ	-6307
▁Tứ	-6308
▁bô	-6309
▁lữ	-6310
▁mụ	-6311
▁tứ	-6312
▁đẽ	-6313
-194	-6314
abwe	-6315
anna	-6316
ault	-6317
aven	-6318
công	-6319
eiro	-6320
ixon	-6321
iền	-6322
oper	-6323
orph	-6324
ques	-6325
unic	-6326
yler	-6327
zbek	-6328
▁13.	-6329
▁140	-6330
▁17,	-6331
▁90%	-6332
▁Bet	-6333
▁Cab	-6334
▁Chí	-6335
▁Cre	-6336
▁Hid	-6337
▁Jay	-6338
▁Mộc	-6339
▁Pur	-6340
▁Rep	-6341
▁Sec	-6342
▁Sem	-6343
▁Trẻ	-6344
▁Wol	-6345
▁bin	-6346
▁gai	-6347
▁gạo	-6348
▁nếm	-6349
▁sáo	-6350
▁tủy	-6351
▁vớt	-6352
▁xôi	-6353
ansas	-6354
ience	-6355
ology	-6356
▁1940	-6357
▁1944	-6358
▁Andr	-6359
▁Anne	-6360
▁Beng	-6361
▁Biểu	-6362
▁Bước	-6363
▁Card	-6364
▁Fort	-6365
▁Hiểu	-6366
▁Hond	-6367
▁Horn	-6368
▁Mold	-6369
▁Nông	-6370
▁Thập	-6371
▁Xbox	-6372
▁Zimb	-6373
▁bàng	-6374
▁chóc	-6375
▁diox	-6376
▁glyc	-6377
▁hoạn	-6378
▁lần	-6379
▁muội	-6380
▁nang	-6381
▁nhồi	-6382
▁show	-6383
▁thấm	-6384
▁thối	-6385
▁xách	-6386
▁Đoạn	-6387
▁đinh	-6388
#7845;	-6389
#7873;	-6390
#7897;	-6391
usalem	-6392
▁1930.	-6393
▁1983,	-6394
▁1984,	-6395
▁1996,	-6396
▁Catal	-6397
▁Chang	-6398
▁Haiti	-6399
▁Luxem	-6400
▁Maroc	-6401
▁Matth	-6402
▁Maxim	-6403
▁Qatar	-6404
▁Quang	-6405
▁Tránh	-6406
▁Uzbek	-6407
▁Wayne	-6408
▁Yemen	-6409
▁buồng	-6410
▁chiên	-6411
▁khoác	-6412
▁khăng	-6413
▁Alaska	-6414
▁Byzant	-6415
▁Darwin	-6416
▁Kosmos	-6417
▁Manila	-6418
▁Ronald	-6419
▁School	-6420
▁Studio	-6421
▁khuếch	-6422
▁nghênh	-6423
▁100.000	-6424
▁Estonia	-6425
▁Mississ	-6426
▁Russell	-6427
▁Studios	-6428
▁website	-6429
▁Illinois	-6430
▁Santiago	-6431
▁Zimbabwe	-6432
▁Louisiana	-6433
05	-6434
33	-6435
85	-6436
86	-6437
AS	-6438
EL	-6439
GA	-6440
ON	-6441
TS	-6442
^{	-6443
vo	-6444
▁}	-6445
▁Ơ	-6446
Hãy	-6447
Tại	-6448
ahl	-6449
asy	-6450
awi	-6451
cal	-6452
chủ	-6453
ebe	-6454
eds	-6455
for	-6456
idi	-6457
ikh	-6458
isk	-6459
nat	-6460
nia	-6461
pan	-6462
pop	-6463
raw	-6464
rod	-6465
uni	-6466
urt	-6467
ute	-6468
ven	-6469
ắc	-6470
▁",	-6471
▁1%	-6472
▁1/	-6473
▁3:	-6474
▁Hỗ	-6475
▁Ic	-6476
▁Kì	-6477
▁Nu	-6478
▁Pt	-6479
▁TP	-6480
▁UE	-6481
▁bo	-6482
▁hở	-6483
▁le	-6484
▁lở	-6485
▁xi	-6486
▁Ăn	-6487
▁đỗ	-6488
Vâng	-6489
ader	-6490
asha	-6491
bury	-6492
eton	-6493
helm	-6494
iami	-6495
ibal	-6496
icus	-6497
ippi	-6498
itsu	-6499
last	-6500
ollo	-6501
opia	-6502
ores	-6503
ouri	-6504
urai	-6505
zawa	-6506
▁(10	-6507
▁14.	-6508
▁20%	-6509
▁Bow	-6510
▁Cel	-6511
▁Của	-6512
▁Cứu	-6513
▁Dig	-6514
▁Gor	-6515
▁Heb	-6516
▁Hãn	-6517
▁Jar	-6518
▁Kuw	-6519
▁Môi	-6520
▁Pas	-6521
▁Pin	-6522
▁Qua	-6523
▁Sin	-6524
▁Sug	-6525
▁Thi	-6526
▁Tùy	-6527
▁Yam	-6528
▁Yên	-6529
▁cúm	-6530
▁gạt	-6531
▁gậy	-6532
▁hoạ	-6533
▁hươ	-6534
▁lén	-6535
▁líu	-6536
▁mẩu	-6537
▁rét	-6538
▁sam	-6539
▁tệp	-6540
▁tởm	-6541
▁uốn	-6542
ector	-6543
essee	-6544
thành	-6545
trước	-6546
▁1918	-6547
▁1941	-6548
▁1979	-6549
▁1988	-6550
▁1993	-6551
▁Beat	-6552
▁Bush	-6553
▁Chân	-6554
▁Dong	-6555
▁Down	-6556
▁Gard	-6557
▁Hand	-6558
▁Hart	-6559
▁Hawk	-6560
▁Huân	-6561
▁Josh	-6562
▁Just	-6563
▁Nếu	-6564
▁Ohio	-6565
▁Okin	-6566
▁Pers	-6567
▁Thor	-6568
▁Thầy	-6569
▁Walt	-6570
▁chằm	-6571
▁chớp	-6572
▁giặt	-6573
▁giọt	-6574
▁horm	-6575
▁sùng	-6576
▁sảnh	-6577
▁thầu	-6578
▁thắn	-6579
▁trân	-6580
▁tạng	-6581
▁vẫn	-6582
▁with	-6583
#7843;	-6584
#7875;	-6585
#7901;	-6586
enberg	-6587
khoảng	-6588
▁1991.	-6589
▁Brian	-6590
▁Carth	-6591
▁Chart	-6592
▁Child	-6593
▁Claud	-6594
▁Emily	-6595
▁Litva	-6596
▁Miami	-6597
▁Muham	-6598
▁Princ	-6599
▁Techn	-6600
▁Tranh	-6601
▁Tuyệt	-6602
▁chước	-6603
▁giếng	-6604
▁nhúng	-6605
▁nương	-6606
▁tràng	-6607
▁Batman	-6608
▁Graham	-6609
▁Morgan	-6610
▁Vienna	-6611
▁Albania	-6612
▁British	-6613
▁Chelsea	-6614
▁Matthew	-6615
▁Raymond	-6616
▁nghiêng	-6617
▁Augustus	-6618
▁Tennessee	-6619
▁Mississippi	-6620
▁PlayStation	-6621
49	-6622
55	-6623
82	-6624
92	-6625
?,	-6626
DF	-6627
Le	-6628
fu	-6629
je	-6630
sp	-6631
ss	-6632
zi	-6633
zo	-6634
ün	-6635
ũa	-6636
ốp	-6637
”,	-6638
abe	-6639
agn	-6640
agu	-6641
anc	-6642
aru	-6643
asm	-6644
bar	-6645
ema	-6646
emo	-6647
eno	-6648
idd	-6649
ids	-6650
med	-6651
năm	-6652
oka	-6653
oki	-6654
sha	-6655
thế	-6656
ucl	-6657
yah	-6658
ức	-6659
ẵng	-6660
▁43	-6661
▁Cy	-6662
▁DC	-6663
▁Dữ	-6664
▁Kỵ	-6665
▁cọ	-6666
▁es	-6667
▁gõ	-6668
▁ob	-6669
▁pH	-6670
▁rổ	-6671
▁te	-6672
ablo	-6673
apan	-6674
augh	-6675
awak	-6676
glas	-6677
idel	-6678
less	-6679
side	-6680
uras	-6681
ware	-6682
Điều	-6683
▁105	-6684
▁15.	-6685
▁Cob	-6686
▁Cyr	-6687
▁Der	-6688
▁Dev	-6689
▁Hub	-6690
▁Leo	-6691
▁Lig	-6692
▁Mig	-6693
▁Miy	-6694
▁Moz	-6695
▁Món	-6696
▁Môn	-6697
▁Nền	-6698
▁Ple	-6699
▁Ric	-6700
▁Sub	-6701
▁Tho	-6702
▁cửu	-6703
▁doạ	-6704
▁dệt	-6705
▁gói	-6706
▁mộc	-6707
▁neu	-6708
▁rèn	-6709
▁thê	-6710
▁toa	-6711
▁tảo	-6712
▁tấu	-6713
▁vất	-6714
▁Đốc	-6715
▁Đứa	-6716
amoto	-6717
burgh	-6718
ennis	-6719
ident	-6720
keley	-6721
osome	-6722
▁1981	-6723
▁Benn	-6724
▁Biến	-6725
▁Born	-6726
▁Carn	-6727
▁Cons	-6728
▁Habs	-6729
▁Hein	-6730
▁Inst	-6731
▁Java	-6732
▁Kong	-6733
▁Kurd	-6734
▁Mach	-6735
▁Rang	-6736
▁Sony	-6737
▁Sung	-6738
▁Thẩm	-6739
▁Trip	-6740
▁Trạm	-6741
▁Tăng	-6742
▁UEFA	-6743
▁Xuất	-6744
▁họng	-6745
▁khan	-6746
▁ngây	-6747
▁ngụy	-6748
▁ngửi	-6749
▁nhét	-6750
▁sing	-6751
▁suối	-6752
▁sưởi	-6753
▁thuỷ	-6754
▁trêu	-6755
#7911;	-6756
couver	-6757
▁1939,	-6758
▁1993.	-6759
▁Alpha	-6760
▁Brand	-6761
▁Chồng	-6762
▁Kevin	-6763
▁Larry	-6764
▁Opera	-6765
▁chết	-6766
▁khoái	-6767
▁phụng	-6768
▁Howard	-6769
▁Jersey	-6770
▁Kuwait	-6771
▁Little	-6772
▁Martha	-6773
▁Sultan	-6774
▁methyl	-6775
▁Algérie	-6776
▁Douglas	-6777
▁Jessica	-6778
▁Wilhelm	-6779
▁Habsburg	-6780
▁Margaret	-6781
▁Universal	-6782
▁Vancouver	-6783
▁Enterprise	-6784
42	-6785
43	-6786
91	-6787
CH	-6788
CR	-6789
EF	-6790
Hz	-6791
Sc	-6792
Sp	-6793
Và	-6794
yu	-6795
ỉa	-6796
-15	-6797
00.	-6798
RNA	-6799
aho	-6800
aum	-6801
hyd	-6802
iad	-6803
iso	-6804
jik	-6805
kok	-6806
met	-6807
net	-6808
obe	-6809
ovo	-6810
tan	-6811
ten	-6812
uez	-6813
via	-6814
ych	-6815
zer	-6816
ấu	-6817
ập	-6818
▁49	-6819
▁DS	-6820
▁Pa	-6821
▁SA	-6822
▁Tế	-6823
▁Ut	-6824
▁Vo	-6825
▁as	-6826
▁bẻ	-6827
▁dở	-6828
▁mg	-6829
▁nộ	-6830
▁tể	-6831
▁âu	-6832
▁ớt	-6833
1000	-6834
arat	-6835
arte	-6836
bell	-6837
dong	-6838
elin	-6839
etro	-6840
etyl	-6841
ifer	-6842
illy	-6843
isco	-6844
ites	-6845
mler	-6846
nold	-6847
oker	-6848
onto	-6849
ourn	-6850
pper	-6851
ushi	-6852
▁1,5	-6853
▁Aur	-6854
▁Blo	-6855
▁Boh	-6856
▁CLB	-6857
▁Dak	-6858
▁Esp	-6859
▁Eth	-6860
▁Had	-6861
▁Hav	-6862
▁Lav	-6863
▁Ley	-6864
▁Mem	-6865
▁Mov	-6866
▁Nel	-6867
▁Ngô	-6868
▁Not	-6869
▁Nằm	-6870
▁Pok	-6871
▁Pow	-6872
▁Sak	-6873
▁Seb	-6874
▁Vel	-6875
▁dai	-6876
▁gam	-6877
▁gắt	-6878
▁hân	-6879
▁lứa	-6880
▁phô	-6881
▁quỳ	-6882
▁rem	-6883
▁sal	-6884
▁thà	-6885
▁tươ	-6886
▁tỉa	-6887
▁xen	-6888
▁xăm	-6889
▁xịt	-6890
▁đam	-6891
▁đốm	-6892
canal	-6893
ether	-6894
mouth	-6895
onder	-6896
other	-6897
ovich	-6898
peare	-6899
regon	-6900
ugawa	-6901
▁1961	-6902
▁1976	-6903
▁1982	-6904
▁1987	-6905
▁Abra	-6906
▁Baby	-6907
▁Binh	-6908
▁Băng	-6909
▁Chal	-6910
▁Chan	-6911
▁Clay	-6912
▁Corn	-6913
▁Fair	-6914
▁Fitz	-6915
▁Giết	-6916
▁Iber	-6917
▁Jake	-6918
▁Luke	-6919
▁Mann	-6920
▁Mosc	-6921
▁Orle	-6922
▁Phạm	-6923
▁Prod	-6924
▁Shaw	-6925
▁Snow	-6926
▁Stad	-6927
▁Tong	-6928
▁Vill	-6929
▁chùa	-6930
▁chốn	-6931
▁khéo	-6932
▁khỏa	-6933
▁kiêm	-6934
▁kiếp	-6935
▁trèo	-6936
▁túng	-6937
eptide	-6938
▁1956,	-6939
▁1975,	-6940
▁1979,	-6941
▁1986,	-6942
▁3.000	-6943
▁Broad	-6944
▁Chàng	-6945
▁Delhi	-6946
▁Feder	-6947
▁Jason	-6948
▁Liver	-6949
▁Lucas	-6950
▁Major	-6951
▁Mario	-6952
▁Metro	-6953
▁Niger	-6954
▁Nixon	-6955
▁River	-6956
▁Roger	-6957
▁Roman	-6958
▁Sarah	-6959
▁Stand	-6960
▁Stein	-6961
▁Villa	-6962
▁chuồn	-6963
▁khánh	-6964
▁khống	-6965
▁nhận	-6966
▁sướng	-6967
▁thực	-6968
▁vướng	-6969
▁Awards	-6970
▁Center	-6971
▁Gyeong	-6972
▁Harold	-6973
▁Hunter	-6974
▁Kazakh	-6975
▁Marcus	-6976
▁Nguyễn	-6977
▁Norman	-6978
▁Oregon	-6979
▁Sebast	-6980
▁Sierra	-6981
▁Walker	-6982
▁Warner	-6983
▁nghiền	-6984
▁Antonio	-6985
▁General	-6986
▁Madonna	-6987
▁Okinawa	-6988
akespeare	-6989
▁Caroline	-6990
▁Fernando	-6991
▁Muhammad	-6992
▁Trinidad	-6993
▁Catherine	-6994
▁Jerusalem	-6995
1%	-6996
48	-6997
67	-6998
LS	-6999
La	-7000
Sự	-7001
Un	-7002
fe	-7003
hl	-7004
hr	-7005
lô	-7006
mo	-7007
ns	-7008
rô	-7009
sc	-7010
zu	-7011
ờ	-7012
ợm	-7013
acy	-7014
edo	-7015
elo	-7016
evo	-7017
gal	-7018
ift	-7019
ikk	-7020
làm	-7021
opp	-7022
rez	-7023
tạm	-7024
tức	-7025
ues	-7026
uko	-7027
upp	-7028
ối	-7029
ặp	-7030
▁84	-7031
▁Ka	-7032
▁MS	-7033
▁Pi	-7034
▁Ub	-7035
▁Uỷ	-7036
▁ad	-7037
▁go	-7038
▁it	-7039
▁rễ	-7040
▁xơ	-7041
▁Ừm	-7042
-201	-7043
Nhật	-7044
aris	-7045
athb	-7046
atsu	-7047
bach	-7048
ctor	-7049
essa	-7050
ians	-7051
iley	-7052
irut	-7053
itus	-7054
more	-7055
omer	-7056
omet	-7057
pool	-7058
quin	-7059
ross	-7060
tric	-7061
ural	-7062
weet	-7063
ylan	-7064
ânia	-7065
▁(0,	-7066
▁(16	-7067
▁000	-7068
▁170	-7069
▁30%	-7070
▁50%	-7071
▁700	-7072
▁Cải	-7073
▁Cận	-7074
▁Cụm	-7075
▁Dra	-7076
▁Emp	-7077
▁Hak	-7078
▁Hug	-7079
▁Hòn	-7080
▁Joy	-7081
▁Kor	-7082
▁Mes	-7083
▁Mul	-7084
▁Mất	-7085
▁Suz	-7086
▁Tig	-7087
▁Vin	-7088
▁búp	-7089
▁bầy	-7090
▁com	-7091
▁cứ	-7092
▁cẩu	-7093
▁dưa	-7094
▁gốm	-7095
▁kìm	-7096
▁lăm	-7097
▁lấn	-7098
▁mac	-7099
▁mic	-7100
▁mod	-7101
▁per	-7102
▁quỵ	-7103
▁rập	-7104
▁rốt	-7105
▁rỗi	-7106
▁vit	-7107
▁vẩn	-7108
▁xáo	-7109
▁đần	-7110
▁đắc	-7111
▁độn	-7112
chính	-7113
esian	-7114
lines	-7115
worth	-7116
▁1952	-7117
▁1966	-7118
▁1984	-7119
▁3000	-7120
▁Best	-7121
▁Beth	-7122
▁Bánh	-7123
▁Call	-7124
▁Cand	-7125
▁Ethi	-7126
▁Fall	-7127
▁Fish	-7128
▁Hamp	-7129
▁Joon	-7130
▁Khan	-7131
▁Khởi	-7132
▁Kiếm	-7133
▁Leop	-7134
▁Life	-7135
▁Nghĩ	-7136
▁Rain	-7137
▁Rượu	-7138
▁Suốt	-7139
▁Súng	-7140
▁Sống	-7141
▁Whit	-7142
▁bỗng	-7143
▁khao	-7144
▁ngọc	-7145
▁phím	-7146
▁stud	-7147
▁tiệt	-7148
▁táng	-7149
aragua	-7150
▁1942.	-7151
▁1944.	-7152
▁1981,	-7153
▁1982,	-7154
▁1987,	-7155
▁1996.	-7156
▁2.000	-7157
▁Chống	-7158
▁Danny	-7159
▁Earth	-7160
▁Found	-7161
▁Kyoto	-7162
▁María	-7163
▁Moham	-7164
▁Triển	-7165
▁Trình	-7166
▁chiêm	-7167
▁giang	-7168
▁huỳnh	-7169
▁khùng	-7170
▁logic	-7171
▁luyến	-7172
▁Bengal	-7173
▁Caesar	-7174
▁Calvin	-7175
▁Carmen	-7176
▁Corpor	-7177
▁Danube	-7178
▁Global	-7179
▁Kraków	-7180
▁Nevada	-7181
▁Parker	-7182
▁Samuel	-7183
▁Valent	-7184
▁chuồng	-7185
▁nitrat	-7186
▁Iceland	-7187
▁Namibia	-7188
▁Network	-7189
▁Orleans	-7190
▁Toronto	-7191
▁hormone	-7192
▁Airlines	-7193
▁Berkeley	-7194
▁Harrison	-7195
▁Missouri	-7196
▁Tokugawa	-7197
▁Nicaragua	-7198
▁Luxembourg	-7199
▁Uzbekistan	-7200
▁Guadalcanal	-7201
▁Shakespeare	-7202
▁Championship	-7203
29	-7204
47	-7205
81	-7206
87	-7207
CD	-7208
Co	-7209
FO	-7210
OC	-7211
ée	-7212
ẽn	-7213
–0	-7214
3).	-7215
Mar	-7216
agi	-7217
aza	-7218
cul	-7219
dal	-7220
eli	-7221
iki	-7222
jah	-7223
oke	-7224
oko	-7225
ols	-7226
omo	-7227
rog	-7228
rok	-7229
sin	-7230
the	-7231
tại	-7232
uld	-7233
xít	-7234
}}}	-7235
ởi	-7236
▁77	-7237
▁AI	-7238
▁Ep	-7239
▁Gì	-7240
▁IX	-7241
▁Nè	-7242
▁Sv	-7243
▁Yu	-7244
▁na	-7245
▁nã	-7246
▁ok	-7247
▁un	-7248
▁xô	-7249
▁xẻ	-7250
▁Đủ	-7251
ESCO	-7252
adia	-7253
airo	-7254
anto	-7255
arao	-7256
athi	-7257
aton	-7258
auss	-7259
dale	-7260
eira	-7261
elia	-7262
enia	-7263
etic	-7264
etta	-7265
hiện	-7266
iani	-7267
icon	-7268
inae	-7269
ioch	-7270
iyah	-7271
ouch	-7272
ovel	-7273
phan	-7274
uton	-7275
▁(1,	-7276
▁(15	-7277
▁16.	-7278
▁17.	-7279
▁21.	-7280
▁Abb	-7281
▁Afr	-7282
▁Are	-7283
▁Bed	-7284
▁Bog	-7285
▁Cav	-7286
▁Chế	-7287
▁Cum	-7288
▁Cửa	-7289
▁Daw	-7290
▁Dim	-7291
▁Dàn	-7292
▁Geo	-7293
▁Ing	-7294
▁Isa	-7295
▁Lập	-7296
▁MiG	-7297
▁Mog	-7298
▁Màu	-7299
▁Nav	-7300
▁Rab	-7301
▁Rud	-7302
▁Tas	-7303
▁Ton	-7304
▁Tul	-7305
▁Tín	-7306
▁Viv	-7307
▁bộc	-7308
▁chớ	-7309
▁cối	-7310
▁der	-7311
▁dặn	-7312
▁góa	-7313
▁ham	-7314
▁hán	-7315
▁lùi	-7316
▁mép	-7317
▁nai	-7318
▁nại	-7319
▁rủa	-7320
▁trơ	-7321
▁tẩu	-7322
▁Đột	-7323
▁đày	-7324
▁đũa	-7325
▁đắm	-7326
chnya	-7327
iller	-7328
ilton	-7329
lando	-7330
nghĩa	-7331
▁1953	-7332
▁1972	-7333
▁Alab	-7334
▁Band	-7335
▁Cánh	-7336
▁Dùng	-7337
▁Four	-7338
▁Gram	-7339
▁Hend	-7340
▁Herm	-7341
▁Isab	-7342
▁Kang	-7343
▁Kate	-7344
▁Khal	-7345
▁Làng	-7346
▁Mira	-7347
▁Moon	-7348
▁Nahi	-7349
▁Part	-7350
▁Plan	-7351
▁Shah	-7352
▁Thỏa	-7353
▁Trav	-7354
▁Tuổi	-7355
▁Tông	-7356
▁Từng	-7357
▁VIII	-7358
▁Week	-7359
▁Xiêm	-7360
▁acid	-7361
▁ball	-7362
▁beta	-7363
▁biếm	-7364
▁bắt	-7365
▁phen	-7366
▁quầy	-7367
▁rãnh	-7368
▁trơn	-7369
bourne	-7370
▁1936,	-7371
▁1940,	-7372
▁1954,	-7373
▁1963,	-7374
▁1968,	-7375
▁5.000	-7376
▁Arsen	-7377
▁Bobby	-7378
▁Chứng	-7379
▁Dường	-7380
▁Eddie	-7381
▁Gabri	-7382
▁Giọng	-7383
▁Japan	-7384
▁Khủng	-7385
▁Malta	-7386
▁Mount	-7387
▁Osaka	-7388
▁Party	-7389
▁Pedro	-7390
▁Tường	-7391
▁Xuyên	-7392
▁chặng	-7393
▁quặng	-7394
▁thiền	-7395
▁urani	-7396
mingham	-7397
▁50.000	-7398
▁Athena	-7399
▁Battle	-7400
▁Steven	-7401
▁Wright	-7402
▁chẳng	-7403
▁trước	-7404
▁Babylon	-7405
▁Bangkok	-7406
▁Central	-7407
▁Chester	-7408
▁Connect	-7409
▁Kennedy	-7410
▁Carthage	-7411
▁Chandler	-7412
▁Chechnya	-7413
▁Constant	-7414
▁Honduras	-7415
▁Williams	-7416
▁Champions	-7417
▁Charlotte	-7418
▁Christoph	-7419
▁Birmingham	-7420
▁Corporation	-7421
)}	-7422
:1	-7423
EG	-7424
IP	-7425
MB	-7426
TT	-7427
gr	-7428
ić	-7429
zt	-7430
ât	-7431
ún	-7432
Đó	-7433
▁ă	-7434
-20	-7435
8),	-7436
Khi	-7437
Làm	-7438
acc	-7439
amb	-7440
arm	-7441
bes	-7442
eti	-7443
gom	-7444
ipe	-7445
ize	-7446
lis	-7447
nhà	-7448
phy	-7449
rib	-7450
rik	-7451
tis	-7452
tra	-7453
ulo	-7454
urn	-7455
ặt	-7456
đặc	-7457
ươm	-7458
▁71	-7459
▁AC	-7460
▁AM	-7461
▁GM	-7462
▁ID	-7463
▁MC	-7464
▁SP	-7465
▁TH	-7466
▁be	-7467
▁bự	-7468
▁lỵ	-7469
▁má	-7470
▁rợ	-7471
▁tạ	-7472
aman	-7473
anol	-7474
atty	-7475
ense	-7476
ents	-7477
ides	-7478
ific	-7479
iter	-7480
ject	-7481
mail	-7482
otep	-7483
ourt	-7484
rive	-7485
tính	-7486
ular	-7487
ulin	-7488
uron	-7489
uter	-7490
viết	-7491
wang	-7492
▁110	-7493
▁130	-7494
▁135	-7495
▁Amy	-7496
▁Ark	-7497
▁Aud	-7498
▁Bag	-7499
▁Bầu	-7500
▁Dầu	-7501
▁End	-7502
▁Fut	-7503
▁Giữ	-7504
▁Gol	-7505
▁Inf	-7506
▁Kag	-7507
▁Khó	-7508
▁Lab	-7509
▁Lad	-7510
▁Myr	-7511
▁Oct	-7512
▁Pel	-7513
▁Phr	-7514
▁Pul	-7515
▁Pyr	-7516
▁Quỷ	-7517
▁RNA	-7518
▁Rah	-7519
▁Rap	-7520
▁Rou	-7521
▁Sym	-7522
▁Sát	-7523
▁Trụ	-7524
▁Tup	-7525
▁Vik	-7526
▁Vân	-7527
▁Vừa	-7528
▁Who	-7529
▁Xây	-7530
▁câm	-7531
▁dis	-7532
▁dơi	-7533
▁dồn	-7534
▁gân	-7535
▁hao	-7536
▁iPh	-7537
▁kẽm	-7538
▁lột	-7539
▁nạt	-7540
▁sex	-7541
▁sụt	-7542
▁thỉ	-7543
▁tầu	-7544
▁vùi	-7545
▁vẫy	-7546
▁xít	-7547
▁Đặt	-7548
▁đậy	-7549
▁ếch	-7550
acter	-7551
aguay	-7552
athbf	-7553
iston	-7554
tario	-7555
▁"...	-7556
▁100%	-7557
▁1947	-7558
▁1959	-7559
▁1967	-7560
▁Bank	-7561
▁Burg	-7562
▁Celt	-7563
▁Clin	-7564
▁Càng	-7565
▁Cổng	-7566
▁Gray	-7567
▁Hipp	-7568
▁Khẩu	-7569
▁Kore	-7570
▁Kính	-7571
▁Lenn	-7572
▁Link	-7573
▁Lion	-7574
▁Main	-7575
▁Mall	-7576
▁NATO	-7577
▁Nash	-7578
▁Ngồi	-7579
▁Ngụy	-7580
▁Nhắc	-7581
▁Ptol	-7582
▁Rita	-7583
▁Roll	-7584
▁Roos	-7585
▁Ruth	-7586
▁Ryan	-7587
▁Soft	-7588
▁Thuế	-7589
▁Trại	-7590
▁Yang	-7591
▁blog	-7592
▁buồm	-7593
▁cent	-7594
▁chém	-7595
▁chén	-7596
▁euro	-7597
▁giàn	-7598
▁gluc	-7599
▁hiếu	-7600
▁hoán	-7601
▁kiêu	-7602
▁lanh	-7603
▁lấy	-7604
▁mông	-7605
▁ngào	-7606
▁ngạt	-7607
▁nhốt	-7608
▁nhức	-7609
▁nitơ	-7610
▁phác	-7611
▁quấy	-7612
▁sưng	-7613
▁trọt	-7614
▁trừu	-7615
▁điể	-7616
oshima	-7617
▁1920,	-7618
▁1937,	-7619
▁1970.	-7620
▁1974.	-7621
▁1977,	-7622
▁1985,	-7623
▁1999.	-7624
▁Domin	-7625
▁Dylan	-7626
▁First	-7627
▁Fried	-7628
▁Girls	-7629
▁Hindu	-7630
▁Leyte	-7631
▁Light	-7632
▁Monte	-7633
▁Motor	-7634
▁Pablo	-7635
▁Rhine	-7636
▁Riley	-7637
▁Scand	-7638
▁Sudan	-7639
▁Thích	-7640
▁Trinh	-7641
▁cuộc	-7642
▁khiếm	-7643
▁remix	-7644
▁silic	-7645
▁truất	-7646
▁động	-7647
ictures	-7648
▁30.000	-7649
▁Athens	-7650
▁Barcel	-7651
▁Bhutan	-7652
▁Gregor	-7653
▁Iberia	-7654
▁Italia	-7655
▁Julius	-7656
▁Libert	-7657
▁Master	-7658
▁Moscow	-7659
▁Naples	-7660
▁Nelson	-7661
▁Newton	-7662
▁Peters	-7663
▁iPhone	-7664
▁Abraham	-7665
▁Alabama	-7666
▁Antioch	-7667
▁Arsenal	-7668
▁Bahrain	-7669
▁Caribbe	-7670
▁Himmler	-7671
▁Janeiro	-7672
▁România	-7673
▁Siberia	-7674
▁Vatican	-7675
▁Ethiopia	-7676
▁Hannibal	-7677
▁Salvador	-7678
▁Stanford	-7679
▁Liverpool	-7680
▁Foundation	-7681
▁Konstantin	-7682
**	-7683
2}	-7684
6;	-7685
DI	-7686
GB	-7687
MP	-7688
Nó	-7689
RP	-7690
gn	-7691
km	-7692
kt	-7693
uh	-7694
Âm	-7695
ño	-7696
ön	-7697
úm	-7698
ẻm	-7699
-11	-7700
50;	-7701
atl	-7702
aze	-7703
eah	-7704
ech	-7705
eni	-7706
erg	-7707
eur	-7708
gie	-7709
ici	-7710
igo	-7711
ilo	-7712
iny	-7713
ird	-7714
mel	-7715
nie	-7716
ppo	-7717
rea	-7718
woo	-7719
Ông	-7720
éon	-7721
ổi	-7722
ắm	-7723
đun	-7724
ực	-7725
ửng	-7726
▁61	-7727
▁62	-7728
▁63	-7729
▁91	-7730
▁92	-7731
▁96	-7732
▁97	-7733
▁AL	-7734
▁Bé	-7735
▁DB	-7736
▁DJ	-7737
▁Dj	-7738
▁FM	-7739
▁Fi	-7740
▁Ip	-7741
▁LA	-7742
▁Mk	-7743
▁Ow	-7744
▁RA	-7745
▁UA	-7746
▁Võ	-7747
▁lọ	-7748
▁sỉ	-7749
▁Đà	-7750
▁ấp	-7751
▁ủi	-7752
...?	-7753
atus	-7754
ayan	-7755
ceae	-7756
ears	-7757
eing	-7758
eong	-7759
ible	-7760
icin	-7761
ithi	-7762
iểu	-7763
orks	-7764
phal	-7765
usic	-7766
uzia	-7767
wana	-7768
çois	-7769
▁155	-7770
▁160	-7771
▁60%	-7772
▁70%	-7773
▁Act	-7774
▁Att	-7775
▁Bão	-7776
▁Cơn	-7777
▁Eun	-7778
▁Exp	-7779
▁Fam	-7780
▁Ful	-7781
▁Fur	-7782
▁GPS	-7783
▁Giê	-7784
▁HMS	-7785
▁IBM	-7786
▁ISO	-7787
▁Ins	-7788
▁Lên	-7789
▁MIT	-7790
▁Mam	-7791
▁Map	-7792
▁Mis	-7793
▁Mug	-7794
▁Mức	-7795
▁Naz	-7796
▁Ost	-7797
▁Pil	-7798
▁RAF	-7799
▁Reb	-7800
▁Rol	-7801
▁Say	-7802
▁Sắp	-7803
▁Tab	-7804
▁Tog	-7805
▁Tri	-7806
▁Trí	-7807
▁Voi	-7808
▁Vui	-7809
▁Xác	-7810
▁Yoo	-7811
▁art	-7812
▁cua	-7813
▁loa	-7814
▁léo	-7815
▁moi	-7816
▁mấu	-7817
▁mồm	-7818
▁ngớ	-7819
▁nhí	-7820
▁nến	-7821
▁nứt	-7822
▁quí	-7823
▁rib	-7824
▁rạn	-7825
▁rớt	-7826
▁súp	-7827
▁sút	-7828
▁sập	-7829
▁tel	-7830
▁tru	-7831
▁vặt	-7832
▁xộn	-7833
#250;	-7834
aijan	-7835
cheon	-7836
ecies	-7837
evelt	-7838
evich	-7839
opter	-7840
ovsky	-7841
rogen	-7842
ullah	-7843
ường	-7844
▁1937	-7845
▁1939	-7846
▁1943	-7847
▁1951	-7848
▁1968	-7849
▁Acad	-7850
▁Alam	-7851
▁Arab	-7852
▁Baek	-7853
▁Bing	-7854
▁Bond	-7855
▁Chao	-7856
▁Chạy	-7857
▁Conc	-7858
▁Dark	-7859
▁Dean	-7860
▁Emma	-7861
▁Fest	-7862
▁Film	-7863
▁Form	-7864
▁Gang	-7865
▁Giúp	-7866
▁Giảm	-7867
▁Hama	-7868
▁Head	-7869
▁Home	-7870
▁Kane	-7871
▁Kath	-7872
▁Kích	-7873
▁Myan	-7874
▁Pháo	-7875
▁Prin	-7876
▁Prof	-7877
▁Rand	-7878
▁Reed	-7879
▁Rừng	-7880
▁Serv	-7881
▁Thân	-7882
▁Thất	-7883
▁chứ	-7884
▁chải	-7885
▁hãnh	-7886
▁hươu	-7887
▁jazz	-7888
▁khép	-7889
▁ngắt	-7890
▁nhôm	-7891
▁nhọn	-7892
▁nòng	-7893
▁tốt	-7894
▁xuẩn	-7895
▁đôla	-7896
#7899;	-7897
gomery	-7898
nesota	-7899
ournal	-7900
teroid	-7901
▁1.500	-7902
▁1945.	-7903
▁1967,	-7904
▁1969,	-7905
▁1973,	-7906
▁1974,	-7907
▁1988.	-7908
▁1992.	-7909
▁2019.	-7910
▁Arist	-7911
▁Baker	-7912
▁Carlo	-7913
▁Grace	-7914
▁Heart	-7915
▁Huyện	-7916
▁Idaho	-7917
▁Jesus	-7918
▁Jules	-7919
▁Luzon	-7920
▁Marco	-7921
▁Perry	-7922
▁Phoen	-7923
▁Royal	-7924
▁Space	-7925
▁Trọng	-7926
▁giới	-7927
▁hoành	-7928
▁nhuộm	-7929
▁tiền	-7930
▁20.000	-7931
▁Europe	-7932
▁Friend	-7933
▁Garcia	-7934
▁Grande	-7935
▁Gruzia	-7936
▁Helena	-7937
▁Juvent	-7938
▁Latvia	-7939
▁Miguel	-7940
▁Murphy	-7941
▁Murray	-7942
▁Rhodes	-7943
▁UNESCO	-7944
▁Valley	-7945
▁photon	-7946
▁thoáng	-7947
▁America	-7948
▁Anthony	-7949
▁Atlanta	-7950
▁Century	-7951
▁Express	-7952
▁Nahiyah	-7953
▁Ontario	-7954
▁Orlando	-7955
▁Parthia	-7956
▁Romania	-7957
▁Seattle	-7958
▁Somalia	-7959
▁Electron	-7960
▁Franklin	-7961
▁Paraguay	-7962
▁Slovakia	-7963
▁Barcelona	-7964
▁Minnesota	-7965
▁Roosevelt	-7966
▁University	-7967
26	-7968
96	-7969
DR	-7970
El	-7971
GP	-7972
IF	-7973
Vì	-7974
nd	-7975
ür	-7976
̀n	-7977
ỡn	-7978
2)}	-7979
5).	-7980
Cậu	-7981
IDS	-7982
Vậy	-7983
adt	-7984
ahu	-7985
aim	-7986
aux	-7987
cio	-7988
cus	-7989
eki	-7990
ely	-7991
eri	-7992
ext	-7993
fat	-7994
gam	-7995
imi	-7996
isi	-7997
isl	-7998
kes	-7999
lam	-8000
lia	-8001
mid	-8002
min	-8003
nom	-8004
nơi	-8005
oba	-8006
opa	-8007
par	-8008
rix	-8009
roy	-8010
ude	-8011
uku	-8012
uli	-8013
uta	-8014
utt	-8015
vào	-8016
yll	-8017
yte	-8018
▁4:	-8019
▁59	-8020
▁85	-8021
▁Dì	-8022
▁Eb	-8023
▁MW	-8024
▁SK	-8025
▁Tờ	-8026
▁Us	-8027
▁ab	-8028
▁ao	-8029
▁dơ	-8030
▁mị	-8031
▁ri	-8032
▁sô	-8033
▁ào	-8034
acht	-8035
agne	-8036
agos	-8037
aise	-8038
anch	-8039
book	-8040
cHFF	-8041
eger	-8042
enes	-8043
enko	-8044
esel	-8045
feld	-8046
icut	-8047
itol	-8048
ives	-8049
onso	-8050
ries	-8051
ript	-8052
shin	-8053
theo	-8054
town	-8055
urch	-8056
wald	-8057
ways	-8058
Đừng	-8059
điều	-8060
▁145	-8061
▁172	-8062
▁176	-8063
▁21,	-8064
▁75%	-8065
▁Acc	-8066
▁Aeg	-8067
▁Alt	-8068
▁Ana	-8069
▁Bil	-8070
▁Cit	-8071
▁Def	-8072
▁Dấu	-8073
▁FDA	-8074
▁Fab	-8075
▁Fed	-8076
▁Gib	-8077
▁Gus	-8078
▁Hok	-8079
▁Hôn	-8080
▁Hơi	-8081
▁Hắc	-8082
▁Ian	-8083
▁Iey	-8084
▁Kav	-8085
▁Lip	-8086
▁Lớp	-8087
▁Mua	-8088
▁Nhi	-8089
▁Pic	-8090
▁Raf	-8091
▁Run	-8092
▁Sad	-8093
▁Sap	-8094
▁Sea	-8095
▁Spe	-8096
▁Sẵn	-8097
▁Ten	-8098
▁Tha	-8099
▁Thí	-8100
▁Tod	-8101
▁Tus	-8102
▁USA	-8103
▁Vit	-8104
▁Vận	-8105
▁Yak	-8106
▁bôi	-8107
▁bùa	-8108
▁bịt	-8109
▁bổn	-8110
▁cạo	-8111
▁dẻo	-8112
▁kẹp	-8113
▁lẩn	-8114
▁nhã	-8115
▁nhẽ	-8116
▁náo	-8117
▁náu	-8118
▁phà	-8119
▁rap	-8120
▁ray	-8121
▁rùa	-8122
▁trọ	-8123
▁tui	-8124
▁Đâu	-8125
▁đề	-8126
▁đùi	-8127
#227;	-8128
Chiến	-8129
allas	-8130
angul	-8131
craft	-8132
ction	-8133
jamin	-8134
ohama	-8135
oniac	-8136
onnie	-8137
ution	-8138
yland	-8139
▁....	-8140
▁1958	-8141
▁1962	-8142
▁Book	-8143
▁Bros	-8144
▁Cann	-8145
▁Cook	-8146
▁Free	-8147
▁Gary	-8148
▁Gaul	-8149
▁Giấy	-8150
▁Guer	-8151
▁Hank	-8152
▁Hist	-8153
▁Hugh	-8154
▁Khắc	-8155
▁Kiev	-8156
▁Ling	-8157
▁Loạt	-8158
▁Lạnh	-8159
▁Lệnh	-8160
▁Merc	-8161
▁Mikh	-8162
▁Mind	-8163
▁Miễn	-8164
▁Ngọn	-8165
▁Niềm	-8166
▁Post	-8167
▁Prom	-8168
▁Pyth	-8169
▁Reid	-8170
▁Soul	-8171
▁Tang	-8172
▁Toán	-8173
▁Trib	-8174
▁Vinh	-8175
▁Virt	-8176
▁Your	-8177
▁chùm	-8178
▁dưng	-8179
▁foot	-8180
▁giùm	-8181
▁gặp	-8182
▁nham	-8183
▁nung	-8184
▁phôi	-8185
▁play	-8186
▁rách	-8187
▁thỉu	-8188
▁tất	-8189
▁tưới	-8190
▁tụng	-8191
▁Đứng	-8192
enheim	-8193
others	-8194
▁1939.	-8195
▁1940.	-8196
▁1952,	-8197
▁1956.	-8198
▁1958,	-8199
▁1982.	-8200
▁1989.	-8201
▁1997.	-8202
▁1998.	-8203
▁2019,	-8204
▁672)}	-8205
▁Aleks	-8206
▁Antig	-8207
▁Huynh	-8208
▁Julie	-8209
▁Kelly	-8210
▁Leeds	-8211
▁Lương	-8212
▁Natal	-8213
▁Ngành	-8214
▁Point	-8215
▁Power	-8216
▁Seung	-8217
▁Singh	-8218
▁State	-8219
▁Women	-8220
▁canxi	-8221
▁khoán	-8222
▁phước	-8223
▁quăng	-8224
▁thủng	-8225
▁đồng	-8226
▁Aleppo	-8227
▁Angela	-8228
▁Apollo	-8229
▁Balkan	-8230
▁Boeing	-8231
▁Borneo	-8232
▁Caribe	-8233
▁Hannah	-8234
▁Harvey	-8235
▁Munich	-8236
▁Potter	-8237
▁Rodrig	-8238
▁Schwar	-8239
▁Series	-8240
▁Societ	-8241
▁Trương	-8242
▁Venice	-8243
▁chuộng	-8244
▁diesel	-8245
▁dioxit	-8246
▁phosph	-8247
▁proton	-8248
▁trướng	-8249
▁đường	-8250
erbaijan	-8251
▁Alexios	-8252
▁Algeria	-8253
▁Barbara	-8254
▁Bolivia	-8255
▁Chaplin	-8256
▁Clinton	-8257
▁Gregory	-8258
▁Journal	-8259
▁Sarawak	-8260
▁Vincent	-8261
▁Wallace	-8262
▁Western	-8263
▁vitamin	-8264
▁Anderson	-8265
▁Brooklyn	-8266
▁Campbell	-8267
▁Pictures	-8268
▁Robinson	-8269
▁Thompson	-8270
▁Tiberius	-8271
▁Yokohama	-8272
▁Byzantine	-8273
▁Melbourne	-8274
▁Alexandria	-8275
▁Kazakhstan	-8276
▁Montgomery	-8277
21	-8278
31	-8279
6:	-8280
AT	-8281
EN	-8282
EP	-8283
RT	-8284
SM	-8285
SP	-8286
ST	-8287
fi	-8288
ih	-8289
iw	-8290
ls	-8291
lu	-8292
ña	-8293
̀m	-8294
ụa	-8295
▁/	-8296
▁q	-8297
▁~	-8298
▁ا	-8299
#41	-8300
-40	-8301
7),	-8302
9).	-8303
Xin	-8304
aha	-8305
ako	-8306
alk	-8307
alm	-8308
alt	-8309
bie	-8310
eco	-8311
eka	-8312
emi	-8313
eps	-8314
eum	-8315
ffe	-8316
gro	-8317
kai	-8318
lie	-8319
orf	-8320
osc	-8321
ouk	-8322
pin	-8323
thứ	-8324
ầm	-8325
ấp	-8326
▁54	-8327
▁66	-8328
▁79	-8329
▁95	-8330
▁CF	-8331
▁CH	-8332
▁Cư	-8333
▁Gy	-8334
▁HD	-8335
▁Kỷ	-8336
▁MO	-8337
▁MV	-8338
▁Wi	-8339
▁Yū	-8340
▁cy	-8341
▁fr	-8342
▁mạ	-8343
▁mớ	-8344
▁sl	-8345
▁sq	-8346
▁tẻ	-8347
▁um	-8348
▁Áp	-8349
,000	-8350
Nhạc	-8351
abad	-8352
aban	-8353
ache	-8354
acus	-8355
ager	-8356
ales	-8357
alla	-8358
appy	-8359
ares	-8360
asan	-8361
aust	-8362
edes	-8363
emon	-8364
enzo	-8365
gram	-8366
ingo	-8367
iếp	-8368
olia	-8369
olin	-8370
onne	-8371
orus	-8372
otti	-8373
oyuz	-8374
phin	-8375
rand	-8376
ress	-8377
thal	-8378
view	-8379
émon	-8380
ược	-8381
▁(3,	-8382
▁106	-8383
▁165	-8384
▁22.	-8385
▁3,5	-8386
▁450	-8387
▁900	-8388
▁API	-8389
▁CEO	-8390
▁Chh	-8391
▁Chữ	-8392
▁Cry	-8393
▁Cấp	-8394
▁Cựu	-8395
▁Dae	-8396
▁Dre	-8397
▁Edu	-8398
▁Gió	-8399
▁Hat	-8400
▁His	-8401
▁Kom	-8402
▁Lối	-8403
▁McG	-8404
▁Mys	-8405
▁Now	-8406
▁Nạn	-8407
▁Nổi	-8408
▁Oak	-8409
▁Opp	-8410
▁Phú	-8411
▁Phố	-8412
▁Sag	-8413
▁Sas	-8414
▁Sax	-8415
▁Seg	-8416
▁Sig	-8417
▁Sky	-8418
▁Sob	-8419
▁Syn	-8420
▁Tol	-8421
▁Tám	-8422
▁Tấm	-8423
▁Tần	-8424
▁Vas	-8425
▁Xét	-8426
▁Xếp	-8427
▁bus	-8428
▁chô	-8429
▁cáu	-8430
▁cói	-8431
▁cặn	-8432
▁dồi	-8433
▁hal	-8434
▁hãn	-8435
▁kèn	-8436
▁lít	-8437
▁lốc	-8438
▁mil	-8439
▁méo	-8440
▁mẫn	-8441
▁mửa	-8442
▁nhĩ	-8443
▁nhơ	-8444
▁nic	-8445
▁ráp	-8446
▁rệt	-8447
▁sun	-8448
▁sẹo	-8449
▁tem	-8450
▁trù	-8451
▁tôm	-8452
▁tạc	-8453
▁tụy	-8454
▁vạn	-8455
▁vụn	-8456
▁xói	-8457
▁Đem	-8458
▁Đền	-8459
▁đặn	-8460
#417;	-8461
aline	-8462
antic	-8463
ender	-8464
ersen	-8465
▁(190	-8466
▁1919	-8467
▁1954	-8468
▁1963	-8469
▁5000	-8470
▁AIDS	-8471
▁Beau	-8472
▁Bron	-8473
▁Bull	-8474
▁Chev	-8475
▁Clar	-8476
▁Dược	-8477
▁Euro	-8478
▁Font	-8479
▁Glas	-8480
▁Guam	-8481
▁Hess	-8482
▁Hoff	-8483
▁Huss	-8484
▁Jump	-8485
▁Khai	-8486
▁Khán	-8487
▁Line	-8488
▁Luis	-8489
▁Otto	-8490
▁Pete	-8491
▁Phép	-8492
▁Pont	-8493
▁Quên	-8494
▁Rosa	-8495
▁Sele	-8496
▁Tart	-8497
▁Ther	-8498
▁Thức	-8499
▁Thừa	-8500
▁Ward	-8501
▁Xanh	-8502
▁banh	-8503
▁chảo	-8504
▁giỡn	-8505
▁gram	-8506
▁gươm	-8507
▁lung	-8508
▁lớn	-8509
▁muôn	-8510
▁ngạo	-8511
▁ngẩn	-8512
▁niêm	-8513
▁rảnh	-8514
▁thềm	-8515
▁trở	-8516
▁viền	-8517
▁yeah	-8518
▁điếc	-8519
#7853;	-8520
League	-8521
apolis	-8522
ffield	-8523
ipedia	-8524
rocław	-8525
timore	-8526
▁1918,	-8527
▁1920.	-8528
▁1933,	-8529
▁1946,	-8530
▁1947,	-8531
▁1948,	-8532
▁1962,	-8533
▁1975.	-8534
▁1978.	-8535
▁1986.	-8536
▁1994.	-8537
▁Abdul	-8538
▁Belle	-8539
▁Cleop	-8540
▁Cương	-8541
▁Daily	-8542
▁Delta	-8543
▁Detro	-8544
▁Ernst	-8545
▁Guard	-8546
▁Helen	-8547
▁Henri	-8548
▁March	-8549
▁Nancy	-8550
▁Phill	-8551
▁Taira	-8552
▁Tajik	-8553
▁Telev	-8554
▁Triệu	-8555
▁Trạch	-8556
▁Turin	-8557
▁Tượng	-8558
▁chanh	-8559
▁chuối	-8560
▁chánh	-8561
▁nghẽn	-8562
▁nguội	-8563
▁Church	-8564
▁County	-8565
▁Forbes	-8566
▁Ieyasu	-8567
▁Instit	-8568
▁Legend	-8569
▁Luther	-8570
▁Monaco	-8571
▁Palmer	-8572
▁Phoebe	-8573
▁Review	-8574
▁Santos	-8575
▁Zambia	-8576
▁pluton	-8577
▁single	-8578
▁Cameron	-8579
▁England	-8580
▁Frances	-8581
▁Gabriel	-8582
▁Galicia	-8583
▁Maurice	-8584
▁Moldova	-8585
▁Nikolai	-8586
▁Science	-8587
▁Ukraine	-8588
▁samurai	-8589
#432;#790	-8590
▁Benjamin	-8591
▁Columbus	-8592
▁Florence	-8593
▁Hamilton	-8594
▁Heinrich	-8595
▁Jennifer	-8596
▁Juventus	-8597
▁Portland	-8598
▁Standard	-8599
▁Baltimore	-8600
▁Cleopatra	-8601
▁Wikipedia	-8602
▁Azerbaijan	-8603
▁Johannesburg	-8604
2%	-8605
24	-8606
74	-8607
84	-8608
AL	-8609
Ad	-8610
BN	-8611
GS	-8612
LV	-8613
PP	-8614
SL	-8615
Ta	-8616
UN	-8617
Wh	-8618
bị	-8619
fr	-8620
jō	-8621
mu	-8622
vì	-8623
yp	-8624
ás	-8625
ül	-8626
▁ờ	-8627
-13	-8628
-16	-8629
-25	-8630
6).	-8631
900	-8632
Nam	-8633
Nhà	-8634
Sao	-8635
USE	-8636
ahn	-8637
ape	-8638
avi	-8639
cle	-8640
ebu	-8641
edd	-8642
edi	-8643
ges	-8644
gow	-8645
gun	-8646
iba	-8647
khi	-8648
lex	-8649
nếu	-8650
ohn	-8651
ops	-8652
orp	-8653
oyd	-8654
uru	-8655
utu	-8656
uzz	-8657
ẩn	-8658
ắp	-8659
Đại	-8660
▁09	-8661
▁5%	-8662
▁89	-8663
▁99	-8664
▁AB	-8665
▁AU	-8666
▁AV	-8667
▁GN	-8668
▁IC	-8669
▁IF	-8670
▁Kw	-8671
▁Ký	-8672
▁NH	-8673
▁Rw	-8674
▁SC	-8675
▁SM	-8676
▁Ti	-8677
▁Tạ	-8678
▁Yi	-8679
▁Zo	-8680
▁bì	-8681
▁cớ	-8682
▁he	-8683
▁iP	-8684
▁kị	-8685
▁my	-8686
▁oh	-8687
▁pp	-8688
▁pr	-8689
▁tú	-8690
▁wh	-8691
▁yể	-8692
▁êm	-8693
▁đu	-8694
#786	-8695
,...	-8696
ades	-8697
ados	-8698
aeus	-8699
ante	-8700
ario	-8701
arro	-8702
atal	-8703
chan	-8704
emia	-8705
emis	-8706
erve	-8707
eshi	-8708
esis	-8709
etra	-8710
etto	-8711
eves	-8712
ffin	-8713
gate	-8714
iane	-8715
iban	-8716
ieng	-8717
imon	-8718
inin	-8719
lins	-8720
mand	-8721
phần	-8722
rama	-8723
rine	-8724
thời	-8725
trên	-8726
umer	-8727
unes	-8728
▁(2,	-8729
▁(20	-8730
▁156	-8731
▁Aki	-8732
▁Arc	-8733
▁Bey	-8734
▁Chả	-8735
▁Cyn	-8736
▁Cẩn	-8737
▁Dep	-8738
▁Dum	-8739
▁Fin	-8740
▁Gau	-8741
▁Gay	-8742
▁Gòn	-8743
▁Hag	-8744
▁How	-8745
▁Kas	-8746
▁Kem	-8747
▁Kin	-8748
▁Liz	-8749
▁MHz	-8750
▁Mom	-8751
▁Màn	-8752
▁Mới	-8753
▁NBC	-8754
▁Oda	-8755
▁Osh	-8756
▁Pir	-8757
▁Pod	-8758
▁Pos	-8759
▁Poz	-8760
▁Put	-8761
▁Rum	-8762
▁Sid	-8763
▁Six	-8764
▁Spr	-8765
▁Stu	-8766
▁Sài	-8767
▁Tae	-8768
▁Tes	-8769
▁Thú	-8770
▁Tre	-8771
▁Trả	-8772
▁UAE	-8773
▁USB	-8774
▁Wii	-8775
▁Wim	-8776
▁Yor	-8777
▁bón	-8778
▁bộ	-8779
▁búa	-8780
▁bấm	-8781
▁càn	-8782
▁cùa	-8783
▁cằn	-8784
▁gán	-8785
▁iOS	-8786
▁len	-8787
▁lip	-8788
▁mag	-8789
▁meg	-8790
▁mỉm	-8791
▁nan	-8792
▁nản	-8793
▁pro	-8794
▁pyr	-8795
▁rao	-8796
▁rúp	-8797
▁rạc	-8798
▁sạc	-8799
▁sỏi	-8800
▁trệ	-8801
▁tuý	-8802
▁tát	-8803
▁vôi	-8804
▁{\3	-8805
▁Đổi	-8806
▁đan	-8807
#226;	-8808
1000}	-8809
5.000	-8810
Thành	-8811
aster	-8812
banon	-8813
ember	-8814
ennes	-8815
ental	-8816
idine	-8817
iland	-8818
lands	-8819
mania	-8820
oline	-8821
oléon	-8822
rough	-8823
trict	-8824
under	-8825
▁1500	-8826
▁1905	-8827
▁1932	-8828
▁1948	-8829
▁1956	-8830
▁1969	-8831
▁1971	-8832
▁1973	-8833
▁Amur	-8834
▁Anim	-8835
▁Barr	-8836
▁Bert	-8837
▁Brah	-8838
▁Bran	-8839
▁Cart	-8840
▁Chăm	-8841
▁Chơi	-8842
▁Dire	-8843
▁Dung	-8844
▁Dạng	-8845
▁Elli	-8846
▁Eucl	-8847
▁Ferm	-8848
▁Giov	-8849
▁Homs	-8850
▁Iowa	-8851
▁Iris	-8852
▁Jima	-8853
▁Lucy	-8854
▁Lành	-8855
▁Lính	-8856
▁Mits	-8857
▁Miền	-8858
▁Ngọc	-8859
▁Nova	-8860
▁Page	-8861
▁Pent	-8862
▁Phao	-8863
▁Plat	-8864
▁Prim	-8865
▁Prov	-8866
▁Rash	-8867
▁Saud	-8868
▁Soph	-8869
▁Szcz	-8870
▁This	-8871
▁Thám	-8872
▁Tiệp	-8873
▁Uống	-8874
▁Voiv	-8875
▁báng	-8876
▁chạp	-8877
▁chọi	-8878
▁code	-8879
▁cầu	-8880
▁giầy	-8881
▁giục	-8882
▁hổng	-8883
▁khâu	-8884
▁khốc	-8885
▁liễu	-8886
▁lắm	-8887
▁meth	-8888
▁nhấm	-8889
▁okay	-8890
▁phớt	-8891
▁quạt	-8892
▁quặc	-8893
▁spin	-8894
▁thạc	-8895
▁zero	-8896
ampton	-8897
dinand	-8898
eyoshi	-8899
ingrad	-8900
inster	-8901
strong	-8902
▁1943.	-8903
▁1953.	-8904
▁1957,	-8905
▁1965,	-8906
▁1978,	-8907
▁Adams	-8908
▁Ahmad	-8909
▁Carey	-8910
▁Chase	-8911
▁Cyrus	-8912
▁Ellen	-8913
▁Field	-8914
▁Franz	-8915
▁Karen	-8916
▁Kyung	-8917
▁Laura	-8918
▁Ligue	-8919
▁Linda	-8920
▁Moore	-8921
▁Obama	-8922
▁Prime	-8923
▁Story	-8924
▁Swift	-8925
▁Timor	-8926
▁Triết	-8927
▁Water	-8928
▁Yoshi	-8929
▁buông	-8930
▁bằng	-8931
▁chiết	-8932
▁chênh	-8933
▁giết	-8934
▁liêng	-8935
▁phanh	-8936
▁phiện	-8937
▁theta	-8938
▁xuồng	-8939
▁12.000	-8940
▁Amanda	-8941
▁Castle	-8942
▁Castro	-8943
▁Dakota	-8944
▁Dallas	-8945
▁Forest	-8946
▁Golden	-8947
▁Kansas	-8948
▁Living	-8949
▁Ludwig	-8950
▁Malaya	-8951
▁Manuel	-8952
▁Marvel	-8953
▁Montre	-8954
▁Planet	-8955
▁Rwanda	-8956
▁Sahara	-8957
▁Thuyết	-8958
▁Tobago	-8959
▁Turner	-8960
▁Warren	-8961
▁Weekly	-8962
▁Winter	-8963
▁choàng	-8964
▁nghiệ	-8965
▁studio	-8966
osterone	-8967
▁Aristot	-8968
▁Detroit	-8969
▁Edwards	-8970
▁Glasgow	-8971
▁Hawking	-8972
▁Jacques	-8973
▁Lebanon	-8974
▁Madison	-8975
▁Maxwell	-8976
▁Pokémon	-8977
▁Product	-8978
▁Scandin	-8979
▁Sherman	-8980
▁Society	-8981
▁Titanic	-8982
▁Napoléon	-8983
▁Nicholas	-8984
▁Silesian	-8985
▁ribosome	-8986
▁Friedrich	-8987
#432;#7901;	-8988
▁#273;#243;	-8989
▁Queensland	-8990
▁Christopher	-8991
▁Connecticut	-8992
▁Konstantinos	-8993
-♪	-8994
1}	-8995
71	-8996
79	-8997
At	-8998
Ba	-8999
Bl	-9000
FS	-9001
IL	-9002
ME	-9003
MO	-9004
SE	-9005
bs	-9006
cô	-9007
ku	-9008
kō	-9009
số	-9010
tu	-9011
tô	-9012
yi	-9013
{\	-9014
đi	-9015
̉m	-9016
ер	-9017
ẳm	-9018
▁ồ	-9019
-1,	-9020
-21	-9021
-24	-9022
-26	-9023
1).	-9024
700	-9025
Chỉ	-9026
Com	-9027
EAN	-9028
Hoa	-9029
PDF	-9030
Thế	-9031
Tất	-9032
alo	-9033
atz	-9034
bol	-9035
bạn	-9036
ebr	-9037
ego	-9038
ekh	-9039
erv	-9040
esi	-9041
fen	-9042
gor	-9043
iks	-9044
ioc	-9045
kar	-9046
key	-9047
lah	-9048
obi	-9049
obu	-9050
oco	-9051
pho	-9052
riv	-9053
rus	-9054
say	-9055
set	-9056
sor	-9057
thu	-9058
umo	-9059
ấn	-9060
ène	-9061
ère	-9062
ệt	-9063
▁4%	-9064
▁58	-9065
▁69	-9066
▁74	-9067
▁Bò	-9068
▁Ce	-9069
▁Cà	-9070
▁Gw	-9071
▁Gö	-9072
▁IA	-9073
▁Jr	-9074
▁LT	-9075
▁SN	-9076
▁Vĩ	-9077
▁WW	-9078
▁Wo	-9079
▁_{	-9080
▁bế	-9081
▁hơ	-9082
▁re	-9083
▁sờ	-9084
▁vv	-9085
▁we	-9086
▁xì	-9087
▁ừm	-9088
▁♪-	-9089
"...	-9090
Cuộc	-9091
acer	-9092
agon	-9093
alus	-9094
amas	-9095
ango	-9096
aran	-9097
asma	-9098
aten	-9099
aver	-9100
bang	-9101
burn	-9102
cart	-9103
ecin	-9104
ectơ	-9105
elyn	-9106
ener	-9107
enne	-9108
enza	-9109
etti	-9110
hard	-9111
imer	-9112
iner	-9113
inia	-9114
inos	-9115
irit	-9116
itas	-9117
ixel	-9118
leng	-9119
mart	-9120
midt	-9121
nhạc	-9122
ocol	-9123
oire	-9124
olev	-9125
onde	-9126
oros	-9127
ossa	-9128
rach	-9129
rell	-9130
rent	-9131
rier	-9132
star	-9133
undy	-9134
▁(12	-9135
▁109	-9136
▁134	-9137
▁149	-9138
▁157	-9139
▁2.0	-9140
▁Aut	-9141
▁Box	-9142
▁Buk	-9143
▁Bữa	-9144
▁CNN	-9145
▁CON	-9146
▁CPU	-9147
▁Cắt	-9148
▁Duy	-9149
▁Eug	-9150
▁Flo	-9151
▁Get	-9152
▁Gur	-9153
▁Has	-9154
▁Hil	-9155
▁Hod	-9156
▁Hua	-9157
▁Hud	-9158
▁Hàm	-9159
▁Hẳn	-9160
▁Laz	-9161
▁Mab	-9162
▁Máu	-9163
▁Mắt	-9164
▁Ngũ	-9165
▁Ngư	-9166
▁Oro	-9167
▁Pao	-9168
▁Phù	-9169
▁Rel	-9170
▁Rot	-9171
▁Row	-9172
▁Sac	-9173
▁Scy	-9174
▁Suy	-9175
▁Tat	-9176
▁Tir	-9177
▁Tyr	-9178
▁Tái	-9179
▁UTC	-9180
▁Vết	-9181
▁are	-9182
▁bố	-9183
▁bịp	-9184
▁clo	-9185
▁gra	-9186
▁gài	-9187
▁gặm	-9188
▁gộp	-9189
▁huệ	-9190
▁khố	-9191
▁lẫy	-9192
▁lẻn	-9193
▁lụa	-9194
▁mar	-9195
▁ngừ	-9196
▁nhủ	-9197
▁nom	-9198
▁số	-9199
▁sử	-9200
▁sủa	-9201
▁tre	-9202
▁vòi	-9203
▁vảy	-9204
▁vỉa	-9205
▁xài	-9206
▁độ	-9207
▁đẫm	-9208
#234;	-9209
5,000	-9210
anger	-9211
annel	-9212
arius	-9213
ascal	-9214
cliff	-9215
earch	-9216
esses	-9217
etown	-9218
house	-9219
iform	-9220
illin	-9221
ngoại	-9222
onica	-9223
overs	-9224
young	-9225
▁(196	-9226
▁(198	-9227
▁100.	-9228
▁1910	-9229
▁1928	-9230
▁1934	-9231
▁1957	-9232
▁1964	-9233
▁Anat	-9234
▁Bart	-9235
▁Beta	-9236
▁Biệt	-9237
▁Chun	-9238
▁Cole	-9239
▁Coll	-9240
▁Cran	-9241
▁Cậu	-9242
▁Dead	-9243
▁Gaga	-9244
▁Gand	-9245
▁Gene	-9246
▁Grey	-9247
▁Hang	-9248
▁Hull	-9249
▁Jang	-9250
▁Kara	-9251
▁Khác	-9252
▁Krym	-9253
▁Lara	-9254
▁Last	-9255
▁Loth	-9256
▁Lòng	-9257
▁Magn	-9258
▁Mars	-9259
▁Midd	-9260
▁More	-9261
▁Mạnh	-9262
▁Nhảy	-9263
▁Nile	-9264
▁Nina	-9265
▁Noah	-9266
▁Oman	-9267
▁Over	-9268
▁Patt	-9269
▁Pomp	-9270
▁Publ	-9271
▁Rồng	-9272
▁Sard	-9273
▁Sept	-9274
▁Spec	-9275
▁Than	-9276
▁Thra	-9277
▁Tiêm	-9278
▁Tích	-9279
▁Yosh	-9280
▁chèo	-9281
▁chót	-9282
▁chật	-9283
▁còng	-9284
▁giun	-9285
▁huân	-9286
▁hăng	-9287
▁khoe	-9288
▁kiều	-9289
▁lời	-9290
▁miên	-9291
▁miệt	-9292
▁nano	-9293
▁ngâm	-9294
▁nhào	-9295
▁nhạo	-9296
▁part	-9297
▁rụng	-9298
▁thây	-9299
▁thét	-9300
▁thạo	-9301
▁tới	-9302
▁xông	-9303
▁Đằng	-9304
▁Đỉnh	-9305
#7869;	-9306
mathbf	-9307
▁1921,	-9308
▁1926,	-9309
▁1946.	-9310
▁1953,	-9311
▁1964,	-9312
▁1972.	-9313
▁1973.	-9314
▁1976.	-9315
▁1989)	-9316
▁ASEAN	-9317
▁Busan	-9318
▁Cisco	-9319
▁Death	-9320
▁Doanh	-9321
▁Drake	-9322
▁Elena	-9323
▁Jamie	-9324
▁Jenny	-9325
▁Krist	-9326
▁Mason	-9327
▁Model	-9328
▁Molly	-9329
▁Phnom	-9330
▁Press	-9331
▁Robot	-9332
▁Santo	-9333
▁Silva	-9334
▁Songs	-9335
▁Soyuz	-9336
▁Susan	-9337
▁Valer	-9338
▁Wells	-9339
▁chắc	-9340
▁chưng	-9341
▁hiểu	-9342
▁loãng	-9343
▁ngoặt	-9344
▁novel	-9345
▁phách	-9346
▁pound	-9347
▁thiếc	-9348
▁thần	-9349
▁điện	-9350
odeship	-9351
▁40.000	-9352
▁Advent	-9353
▁Africa	-9354
▁Aragon	-9355
▁Brunei	-9356
▁Carter	-9357
▁Empire	-9358
▁Engine	-9359
▁Europa	-9360
▁Factor	-9361
▁Foster	-9362
▁Malawi	-9363
▁Marina	-9364
▁Reagan	-9365
▁Square	-9366
▁Visual	-9367
▁Wonder	-9368
▁nguyệt	-9369
▁tambon	-9370
▁tuabin	-9371
▁tuyệt	-9372
enheimer	-9373
▁200.000	-9374
▁Edition	-9375
▁Leopold	-9376
▁Mariana	-9377
▁Newport	-9378
▁Phoenix	-9379
▁Sicilia	-9380
▁Wrocław	-9381
▁neutron	-9382
▁species	-9383
▁steroid	-9384
▁Festival	-9385
▁François	-9386
▁Giovanni	-9387
▁Isabella	-9388
▁Maryland	-9389
▁Ramesses	-9390
▁Republic	-9391
▁Theodore	-9392
▁Warszawa	-9393
▁Aristotle	-9394
▁Armstrong	-9395
▁Caribbean	-9396
▁Ferdinand	-9397
▁Greenland	-9398
▁Hideyoshi	-9399
▁Jefferson	-9400
▁Sebastian	-9401
▁Sheffield	-9402
▁Voivodeship	-9403
)"	-9404
))	-9405
.&	-9406
04	-9407
08	-9408
2;	-9409
7%	-9410
:3	-9411
Am	-9412
BO	-9413
Br	-9414
CV	-9415
DC	-9416
DE	-9417
EE	-9418
Ex	-9419
HO	-9420
Is	-9421
NH	-9422
Na	-9423
OH	-9424
PR	-9425
YP	-9426
cơ	-9427
dr	-9428
hệ	-9429
họ	-9430
ll	-9431
vỗ	-9432
éd	-9433
ör	-9434
đó	-9435
ен	-9436
▁ơ	-9437
2).	-9438
4).	-9439
5),	-9440
7).	-9441
9),	-9442
HCM	-9443
Har	-9444
Hol	-9445
aea	-9446
alb	-9447
alu	-9448
bin	-9449
chu	-9450
ean	-9451
eel	-9452
egu	-9453
esc	-9454
etz	-9455
eyn	-9456
gos	-9457
hod	-9458
iah	-9459
ivi	-9460
iễm	-9461
jet	-9462
kas	-9463
kaz	-9464
lon	-9465
lov	-9466
lus	-9467
máy	-9468
nen	-9469
odo	-9470
ogh	-9471
olt	-9472
pid	-9473
shū	-9474
ugu	-9475
urg	-9476
war	-9477
Đức	-9478
▁08	-9479
▁6:	-9480
▁93	-9481
▁Aj	-9482
▁BM	-9483
▁Bả	-9484
▁Dy	-9485
▁Ey	-9486
▁GA	-9487
▁IG	-9488
▁LH	-9489
▁Ll	-9490
▁Lá	-9491
▁PA	-9492
▁Ré	-9493
▁Tỉ	-9494
▁dí	-9495
▁gu	-9496
▁há	-9497
▁iT	-9498
▁ki	-9499
▁lầ	-9500
▁rư	-9501
▁sc	-9502
▁se	-9503
▁up	-9504
▁vã	-9505
▁đê	-9506
▁đơ	-9507
▁ỏi	-9508
#792	-9509
alan	-9510
amer	-9511
arov	-9512
ashk	-9513
aung	-9514
avan	-9515
aves	-9516
avin	-9517
ayev	-9518
buri	-9519
cycl	-9520
dưới	-9521
eech	-9522
enic	-9523
etsu	-9524
hara	-9525
iden	-9526
idia	-9527
istr	-9528
izza	-9529
kare	-9530
leur	-9531
lish	-9532
long	-9533
nham	-9534
ogue	-9535
oney	-9536
onos	-9537
ovic	-9538
shev	-9539
tery	-9540
tube	-9541
umab	-9542
vùng	-9543
động	-9544
ński	-9545
ừng	-9546
▁(14	-9547
▁(25	-9548
▁(28	-9549
▁***	-9550
▁1.5	-9551
▁118	-9552
▁15%	-9553
▁154	-9554
▁159	-9555
▁360	-9556
▁90,	-9557
▁AFC	-9558
▁Aar	-9559
▁Aer	-9560
▁Agu	-9561
▁Ald	-9562
▁Aus	-9563
▁Blu	-9564
▁Boc	-9565
▁Bắn	-9566
▁Cad	-9567
▁Cec	-9568
▁Cud	-9569
▁Cát	-9570
▁Ess	-9571
▁Fly	-9572
▁Fun	-9573
▁Gây	-9574
▁Góc	-9575
▁Hep	-9576
▁ICA	-9577
▁IMA	-9578
▁Ich	-9579
▁Ish	-9580
▁Iwo	-9581
▁Jak	-9582
▁Kaf	-9583
▁Kub	-9584
▁Kum	-9585
▁Kun	-9586
▁Lay	-9587
▁Lub	-9588
▁Lum	-9589
▁Lạc	-9590
▁McD	-9591
▁Mit	-9592
▁Mũi	-9593
▁Mạc	-9594
▁Nab	-9595
▁Nao	-9596
▁Neo	-9597
▁Nhỏ	-9598
▁Nin	-9599
▁Nol	-9600
▁Nub	-9601
▁Nur	-9602
▁Ori	-9603
▁Pun	-9604
▁Ral	-9605
▁Ret	-9606
▁Riz	-9607
▁Rup	-9608
▁Saf	-9609
▁Sul	-9610
▁Sắt	-9611
▁Tap	-9612
▁Tro	-9613
▁Tạo	-9614
▁Tốc	-9615
▁Tức	-9616
▁Vor	-9617
▁XII	-9618
▁Yuk	-9619
▁asp	-9620
▁but	-9621
▁bọt	-9622
▁col	-9623
▁cõi	-9624
▁căm	-9625
▁eth	-9626
▁lon	-9627
▁lựu	-9628
▁min	-9629
▁nhá	-9630
▁qui	-9631
▁quạ	-9632
▁rup	-9633
▁rán	-9634
▁ráo	-9635
▁soi	-9636
▁tiê	-9637
▁tur	-9638
▁vặn	-9639
▁vịt	-9640
▁xót	-9641
▁xảo	-9642
▁Đáp	-9643
▁đốn	-9644
World	-9645
andra	-9646
antan	-9647
ascus	-9648
astic	-9649
chẳng	-9650
ellow	-9651
ering	-9652
eroin	-9653
estra	-9654
ikkim	-9655
illes	-9656
matia	-9657
openh	-9658
sburg	-9659
stadt	-9660
thông	-9661
▁1900	-9662
▁1915	-9663
▁1935	-9664
▁1949	-9665
▁1978	-9666
▁4000	-9667
▁Adel	-9668
▁Alps	-9669
▁Amen	-9670
▁Anto	-9671
▁Arts	-9672
▁Axit	-9673
▁Berm	-9674
▁Capp	-9675
▁Clev	-9676
▁Cord	-9677
▁Dest	-9678
▁Fant	-9679
▁Fire	-9680
▁Flav	-9681
▁Glen	-9682
▁Hern	-9683
▁Hiro	-9684
▁Hold	-9685
▁Hugo	-9686
▁Kand	-9687
▁Kent	-9688
▁Kirk	-9689
▁Lane	-9690
▁Lann	-9691
▁Liga	-9692
▁Lisa	-9693
▁Mans	-9694
▁Math	-9695
▁Maya	-9696
▁Nord	-9697
▁Nẵng	-9698
▁Petr	-9699
▁Phys	-9700
▁Pink	-9701
▁Poly	-9702
▁Quay	-9703
▁Quin	-9704
▁Roth	-9705
▁Shad	-9706
▁Sukh	-9707
▁Sylv	-9708
▁Sóng	-9709
▁Tell	-9710
▁Thịt	-9711
▁Tomb	-9712
▁Trực	-9713
▁Vers	-9714
▁Vậy	-9715
▁Wasp	-9716
▁Winn	-9717
▁bênh	-9718
▁bởi	-9719
▁cafe	-9720
▁cành	-9721
▁cáck	-9722
▁fran	-9723
▁hiên	-9724
▁hông	-9725
▁lách	-9726
▁lượn	-9727
▁lừng	-9728
▁ngất	-9729
▁ngậm	-9730
▁nhăn	-9731
▁nhặt	-9732
▁nhờn	-9733
▁phẫn	-9734
▁ròng	-9735
▁sand	-9736
▁test	-9737
▁thoa	-9738
▁thâu	-9739
▁thản	-9740
▁thắp	-9741
▁thẳm	-9742
▁trâu	-9743
▁trút	-9744
▁trặc	-9745
▁visa	-9746
▁vuốt	-9747
▁vấn	-9748
▁Đình	-9749
▁đối	-9750
▁đắng	-9751
#7885;	-9752
arling	-9753
cartes	-9754
ighter	-9755
lahoma	-9756
olitan	-9757
ombard	-9758
truyền	-9759
▁(2000	-9760
▁(2010	-9761
▁1912,	-9762
▁1915,	-9763
▁1916,	-9764
▁1938,	-9765
▁1948.	-9766
▁1949,	-9767
▁1952.	-9768
▁1961,	-9769
▁1962.	-9770
▁1965.	-9771
▁1976,	-9772
▁4.000	-9773
▁André	-9774
▁Anime	-9775
▁Annie	-9776
▁Basil	-9777
▁Carac	-9778
▁Dance	-9779
▁Ellis	-9780
▁Ethan	-9781
▁Galil	-9782
▁Herac	-9783
▁Italy	-9784
▁Khiến	-9785
▁Kháng	-9786
▁Kings	-9787
▁Kuala	-9788
▁Lưỡng	-9789
▁Mecca	-9790
▁Quyển	-9791
▁Samoa	-9792
▁Tyler	-9793
▁Vasil	-9794
▁Vista	-9795
▁Westm	-9796
▁Woody	-9797
▁XVIII	-9798
▁Youth	-9799
▁alpha	-9800
▁bướng	-9801
▁chlor	-9802
▁cover	-9803
▁hiện	-9804
▁hoặc	-9805
▁thình	-9806
▁thừng	-9807
▁vectơ	-9808
▁Được	-9809
▁điểm	-9810
▁Arnold	-9811
▁Athlet	-9812
▁Bailey	-9813
▁Barney	-9814
▁Cooper	-9815
▁Ernest	-9816
▁Gibson	-9817
▁Hebrew	-9818
▁Knight	-9819
▁Laurel	-9820
▁Lauren	-9821
▁Lennon	-9822
▁Lionel	-9823
▁Louise	-9824
▁Mobile	-9825
▁Napoli	-9826
▁Những	-9827
▁Online	-9828
▁Pascal	-9829
▁Pepper	-9830
▁Phaolô	-9831
▁Porter	-9832
▁Sheikh	-9833
▁Sikkim	-9834
▁Stuart	-9835
▁Teresa	-9836
▁Watson	-9837
▁acetyl	-9838
▁heroin	-9839
▁iTunes	-9840
▁online	-9841
▁rapper	-9842
▁xuống	-9843
▁500.000	-9844
▁Augusta	-9845
▁Austral	-9846
▁Beatles	-9847
▁Bourbon	-9848
▁Capitol	-9849
▁Indiana	-9850
▁Montana	-9851
▁Nicolas	-9852
▁Rolling	-9853
▁Schmidt	-9854
▁Stevens	-9855
▁Taliban	-9856
▁Thunder	-9857
▁Youtube	-9858
▁Brothers	-9859
▁Children	-9860
▁Damascus	-9861
▁Oklahoma	-9862
▁Philippe	-9863
▁Richmond	-9864
▁Software	-9865
▁Cleveland	-9866
▁Descartes	-9867
▁Institute	-9868
▁Tajikistan	-9869
▁Oppenheimer	-9870
▁Scandinavia	-9871
As	-9872
FI	-9873
Họ	-9874
It	-9875
Re	-9876
TL	-9877
Te	-9878
mà	-9879
rd	-9880
yū	-9881
ód	-9882
ór	-9883
ła	-9884
ỏm	-9885
’’	-9886
▁ủ	-9887
-1.	-9888
10.	-9889
20,	-9890
20.	-9891
?),	-9892
Cho	-9893
Eur	-9894
Men	-9895
Mọi	-9896
Ngh	-9897
TML	-9898
UCN	-9899
You	-9900
aci	-9901
add	-9902
adh	-9903
adn	-9904
aig	-9905
atu	-9906
bil	-9907
boy	-9908
bul	-9909
chy	-9910
cob	-9911
dan	-9912
ebb	-9913
eks	-9914
esl	-9915
fan	-9916
gov	-9917
hiz	-9918
ieg	-9919
igl	-9920
iot	-9921
ipa	-9922
jab	-9923
jar	-9924
kyl	-9925
len	-9926
mat	-9927
mes	-9928
mir	-9929
mun	-9930
oct	-9931
osi	-9932
ouc	-9933
oza	-9934
phe	-9935
phi	-9936
phê	-9937
ple	-9938
shō	-9939
thì	-9940
trừ	-9941
uca	-9942
uga	-9943
vật	-9944
wer	-9945
zcz	-9946
zko	-9947
éné	-9948
éod	-9949
êng	-9950
õng	-9951
đây	-9952
đôi	-9953
ượm	-9954
ịnh	-9955
▁02	-9956
▁76	-9957
▁82	-9958
▁98	-9959
▁Ax	-9960
▁BC	-9961
▁CC	-9962
▁Cz	-9963
▁Io	-9964
▁Lỗ	-9965
▁MA	-9966
▁MU	-9967
▁Mê	-9968
▁Mộ	-9969
▁Of	-9970
▁Oz	-9971
▁RP	-9972
▁SH	-9973
▁SL	-9974
▁TQ	-9975
▁TS	-9976
▁Tô	-9977
▁UK	-9978
▁XP	-9979
▁Xi	-9980
▁Ze	-9981
▁cò	-9982
▁cộ	-9983
▁né	-9984
▁nă	-9985
▁tH	-9986
▁tà	-9987
▁té	-9988
▁vơ	-9989
▁đả	-9990
Hung	-9991
Liên	-9992
Việc	-9993
acca	-9994
acey	-9995
acha	-9996
aeda	-9997
akov	-9998
aldo	-9999
ants	-10000
ards	-10001
arra	-10002
asar	-10003
atic	-10004
bane	-10005
boat	-10006
chez	-10007
core	-10008
cuộc	-10009
cách	-10010
ebes	-10011
egan	-10012
elan	-10013
ency	-10014
eran	-10015
ersh	-10016
iday	-10017
ient	-10018
inas	-10019
inyl	-10020
ivil	-10021
jiro	-10022
jung	-10023
load	-10024
ocen	-10025
onic	-10026
onny	-10027
ople	-10028
osis	-10029
quer	-10030
rest	-10031
roph	-10032
ropy	-10033
sang	-10034
teau	-10035
trol	-10036
trum	-10037
tình	-10038
unda	-10039
undo	-10040
untu	-10041
wall	-10042
▁(13	-10043
▁104	-10044
▁112	-10045
▁11:	-10046
▁128	-10047
▁164	-10048
▁169	-10049
▁171	-10050
▁174	-10051
▁30,	-10052
▁ATP	-10053
▁Bak	-10054
▁Bav	-10055
▁Bin	-10056
▁Bit	-10057
▁Cou	-10058
▁Cặp	-10059
▁Cừu	-10060
▁Cửu	-10061
▁Dãy	-10062
▁Eas	-10063
▁Gai	-10064
▁Gan	-10065
▁Gaz	-10066
▁Hyd	-10067
▁Imp	-10068
▁Jor	-10069
▁Kil	-10070
▁Lal	-10071
▁Lap	-10072
▁Lie	-10073
▁Lod	-10074
▁Lok	-10075
▁Lợi	-10076
▁Mae	-10077
▁Mrs	-10078
▁Mün	-10079
▁Neb	-10080
▁Pac	-10081
▁Pav	-10082
▁Phá	-10083
▁Pia	-10084
▁Pie	-10085
▁Ref	-10086
▁Reu	-10087
▁Rex	-10088
▁Riv	-10089
▁Rốt	-10090
▁SCN	-10091
▁SEA	-10092
▁Suc	-10093
▁Teo	-10094
▁Tot	-10095
▁Trà	-10096
▁Var	-10097
▁Voy	-10098
▁Wow	-10099
▁XIV	-10100
▁Xer	-10101
▁Yus	-10102
▁Zel	-10103
▁box	-10104
▁bít	-10105
▁bịa	-10106
▁cón	-10107
▁cúi	-10108
▁cưa	-10109
▁cẩm	-10110
▁cỡi	-10111
▁dào	-10112
▁dùm	-10113
▁dừa	-10114
▁ent	-10115
▁gal	-10116
▁gel	-10117
▁gly	-10118
▁gầy	-10119
▁hip	-10120
▁hái	-10121
▁hóc	-10122
▁hẻm	-10123
▁ins	-10124
▁keo	-10125
▁kế	-10126
▁lút	-10127
▁lắc	-10128
▁mạt	-10129
▁mịn	-10130
▁not	-10131
▁nín	-10132
▁nóc	-10133
▁nắp	-10134
▁nới	-10135
▁par	-10136
▁phỉ	-10137
▁rec	-10138
▁ria	-10139
▁rậm	-10140
▁ter	-10141
▁trỏ	-10142
▁tụt	-10143
▁vác	-10144
▁vãn	-10145
▁vóc	-10146
▁vệt	-10147
▁xay	-10148
▁xoa	-10149
▁xỉn	-10150
▁yểm	-10151
▁ôxy	-10152
▁Đấu	-10153
▁Đời	-10154
▁đun	-10155
▁ướp	-10156
#242;	-10157
Trung	-10158
actyl	-10159
aguar	-10160
akura	-10161
amide	-10162
andar	-10163
apton	-10164
araon	-10165
azine	-10166
eline	-10167
elope	-10168
encer	-10169
endra	-10170
entin	-10171
epend	-10172
erman	-10173
icial	-10174
icity	-10175
iness	-10176
inson	-10177
nhiều	-10178
night	-10179
oming	-10180
omori	-10181
osaur	-10182
otine	-10183
otrop	-10184
owell	-10185
oxide	-10186
rates	-10187
ridge	-10188
tương	-10189
ánamo	-10190
▁1902	-10191
▁1921	-10192
▁1933	-10193
▁2020	-10194
▁Aman	-10195
▁Asia	-10196
▁Ayut	-10197
▁Blog	-10198
▁Borg	-10199
▁Boul	-10200
▁Boys	-10201
▁Buff	-10202
▁Bund	-10203
▁Chai	-10204
▁Chin	-10205
▁Chín	-10206
▁Chức	-10207
▁Coul	-10208
▁Cưng	-10209
▁Dame	-10210
▁Dash	-10211
▁Diện	-10212
▁Doug	-10213
▁Duke	-10214
▁Erit	-10215
▁Evan	-10216
▁Gill	-10217
▁Grim	-10218
▁Hash	-10219
▁Hunt	-10220
▁Hưng	-10221
▁ICAO	-10222
▁ISBN	-10223
▁Kamp	-10224
▁Khái	-10225
▁Khảo	-10226
▁Kiss	-10227
▁Kurt	-10228
▁Lake	-10229
▁Lord	-10230
▁Lump	-10231
▁McCl	-10232
▁Milo	-10233
▁Mith	-10234
▁Mừng	-10235
▁Need	-10236
▁Nồng	-10237
▁Past	-10238
▁Phot	-10239
▁Phạn	-10240
▁René	-10241
▁Riga	-10242
▁Ring	-10243
▁Sean	-10244
▁Seth	-10245
▁Type	-10246
▁Tầng	-10247
▁Wake	-10248
▁Wong	-10249
▁Yoon	-10250
▁Zero	-10251
▁benz	-10252
▁card	-10253
▁chậu	-10254
▁chẵn	-10255
▁chợt	-10256
▁clan	-10257
▁comp	-10258
▁cước	-10259
▁elip	-10260
▁golf	-10261
▁have	-10262
▁heli	-10263
▁hết	-10264
▁hắn	-10265
▁khảm	-10266
▁logo	-10267
▁mất	-10268
▁mùng	-10269
▁mới	-10270
▁niệu	-10271
▁phao	-10272
▁quẩn	-10273
▁quậy	-10274
▁rhod	-10275
▁việt	-10276
▁vật	-10277
▁Đóng	-10278
▁đãng	-10279
#7883;	-10280
Donald	-10281
Hangul	-10282
ebbels	-10283
manuel	-10284
ograph	-10285
ozione	-10286
presso	-10287
ushima	-10288
▁1870,	-10289
▁1900,	-10290
▁1911,	-10291
▁1923,	-10292
▁1929,	-10293
▁1934,	-10294
▁1941.	-10295
▁1951,	-10296
▁1954.	-10297
▁1955,	-10298
▁1959,	-10299
▁1959.	-10300
▁1961.	-10301
▁1963.	-10302
▁1966,	-10303
▁1971.	-10304
▁1979.	-10305
▁6.000	-10306
▁Adria	-10307
▁Advan	-10308
▁Basel	-10309
▁Bosna	-10310
▁Brody	-10311
▁Cairo	-10312
▁China	-10313
▁Chrom	-10314
▁Chron	-10315
▁Crete	-10316
▁Crist	-10317
▁Davao	-10318
▁Fidel	-10319
▁Fritz	-10320
▁Giêng	-10321
▁Hills	-10322
▁Huyết	-10323
▁Hương	-10324
▁Jerry	-10325
▁Julia	-10326
▁Movie	-10327
▁Nazar	-10328
▁Nicol	-10329
▁Octav	-10330
▁Pegas	-10331
▁Ralph	-10332
▁Ridge	-10333
▁Saudi	-10334
▁Serge	-10335
▁Sever	-10336
▁Shiva	-10337
▁Store	-10338
▁Sunda	-10339
▁Terry	-10340
▁Thắng	-10341
▁Union	-10342
▁Vader	-10343
▁Virus	-10344
▁cuốn	-10345
▁dance	-10346
▁franc	-10347
▁inter	-10348
▁nhung	-10349
▁phiếm	-10350
▁phích	-10351
▁pizza	-10352
▁đừng	-10353
acional	-10354
olution	-10355
▁Andrea	-10356
▁Ashley	-10357
▁Avatar	-10358
▁Beirut	-10359
▁Dragon	-10360
▁Euclid	-10361
▁Explor	-10362
▁Gotham	-10363
▁Gothic	-10364
▁Hornet	-10365
▁Hudson	-10366
▁Maurit	-10367
▁Morris	-10368
▁Nagoya	-10369
▁Nature	-10370
▁Pierre	-10371
▁Rashid	-10372
▁Ronnie	-10373
▁Savage	-10374
▁Schles	-10375
▁Serena	-10376
▁Sicily	-10377
▁Spears	-10378
▁Spring	-10379
▁Torres	-10380
▁Ubuntu	-10381
▁Viktor	-10382
▁giống	-10383
▁tennis	-10384
▁Bahamas	-10385
▁Bermuda	-10386
▁Bradley	-10387
▁Channel	-10388
▁Clement	-10389
▁Cynthia	-10390
▁Hamburg	-10391
▁Hussein	-10392
▁Incheon	-10393
▁Leonard	-10394
▁Maximus	-10395
▁Myanmar	-10396
▁Ptolemy	-10397
▁Scythia	-10398
▁Sheeran	-10399
▁Systems	-10400
▁Virtual	-10401
▁Website	-10402
▁amoniac	-10403
▁glucose	-10404
▁peptide	-10405
▁Computer	-10406
▁Electric	-10407
▁Morrison	-10408
▁Mountain	-10409
▁Penelope	-10410
▁Research	-10411
▁Southern	-10412
▁Szczecin	-10413
▁Tasmania	-10414
▁sandwich	-10415
▁Churchill	-10416
▁Hiroshima	-10417
▁Kurdistan	-10418
▁Underwood	-10419
▁Yorkshire	-10420
#432;#7907;	-10421
▁#273;#227;	-10422
▁Promozione	-10423
▁Television	-10424
▁testosterone	-10425
16	-10426
51	-10427
57	-10428
DL	-10429
Do	-10430
EX	-10431
FL	-10432
Fi	-10433
Fl	-10434
GC	-10435
He	-10436
KA	-10437
KB	-10438
Mỹ	-10439
NO	-10440
NS	-10441
Ne	-10442
OP	-10443
OT	-10444
QL	-10445
cm	-10446
gg	-10447
hy	-10448
kg	-10449
kẻ	-10450
rh	-10451
vi	-10452
vô	-10453
än	-10454
ès	-10455
él	-10456
ís	-10457
ús	-10458
̣a	-10459
ов	-10460
Ấn	-10461
-30	-10462
Bar	-10463
Bay	-10464
Cal	-10465
Cái	-10466
ECD	-10467
ETI	-10468
GBT	-10469
Mal	-10470
Này	-10471
One	-10472
Tây	-10473
apo	-10474
aqu	-10475
bay	-10476
but	-10477
cat	-10478
cht	-10479
chw	-10480
eot	-10481
esp	-10482
hab	-10483
hoa	-10484
hợp	-10485
ifa	-10486
iya	-10487
izz	-10488
kal	-10489
lat	-10490
lee	-10491
low	-10492
mal	-10493
nói	-10494
ogl	-10495
oly	-10496
onc	-10497
oul	-10498
oux	-10499
pic	-10500
pus	-10501
reb	-10502
ril	-10503
rua	-10504
rum	-10505
rút	-10506
sel	-10507
shu	-10508
sie	-10509
tel	-10510
tây	-10511
tất	-10512
udo	-10513
unc	-10514
vir	-10515
wei	-10516
wię	-10517
zeg	-10518
zyn	-10519
ển	-10520
ńsk	-10521
▁"(	-10522
▁04	-10523
▁05	-10524
▁53	-10525
▁5:	-10526
▁73	-10527
▁94	-10528
▁BP	-10529
▁Bj	-10530
▁Bệ	-10531
▁Eh	-10532
▁Ik	-10533
▁Nỗ	-10534
▁PH	-10535
▁PK	-10536
▁PM	-10537
▁TC	-10538
▁TR	-10539
▁Vỏ	-10540
▁Wa	-10541
▁au	-10542
▁bỉ	-10543
▁dè	-10544
▁oz	-10545
▁rà	-10546
▁sá	-10547
▁vo	-10548
▁át	-10549
▁ôi	-10550
▁úp	-10551
-100	-10552
Conn	-10553
Gold	-10554
Khán	-10555
Theo	-10556
aeng	-10557
aide	-10558
alog	-10559
ambi	-10560
area	-10561
arta	-10562
asco	-10563
asia	-10564
atan	-10565
atha	-10566
aude	-10567
avis	-10568
ayne	-10569
born	-10570
cept	-10571
char	-10572
chat	-10573
ches	-10574
chin	-10575
chất	-10576
colm	-10577
cùng	-10578
dịch	-10579
emer	-10580
entz	-10581
erat	-10582
erno	-10583
fort	-10584
frey	-10585
furt	-10586
gang	-10587
icar	-10588
ices	-10589
inho	-10590
ioni	-10591
itic	-10592
mund	-10593
occo	-10594
ophy	-10595
orat	-10596
orum	-10597
oten	-10598
otta	-10599
otto	-10600
quez	-10601
rate	-10602
reak	-10603
ront	-10604
shan	-10605
skie	-10606
undi	-10607
uoka	-10608
uper	-10609
uria	-10610
veng	-10611
việc	-10612
ycin	-10613
ệnh	-10614
Đúng	-10615
Được	-10616
ńska	-10617
▁(30	-10618
▁(9,	-10619
▁1.0	-10620
▁161	-10621
▁168	-10622
▁173	-10623
▁2-0	-10624
▁22,	-10625
▁27.	-10626
▁350	-10627
▁38,	-10628
▁50,	-10629
▁Amb	-10630
▁Bac	-10631
▁Bia	-10632
▁Bot	-10633
▁Bri	-10634
▁Cau	-10635
▁Chứ	-10636
▁Cir	-10637
▁Cấm	-10638
▁Deg	-10639
▁Din	-10640
▁Dob	-10641
▁Doc	-10642
▁Dyn	-10643
▁Edo	-10644
▁Fan	-10645
▁Fat	-10646
▁Fuj	-10647
▁Gap	-10648
▁Gon	-10649
▁Gấu	-10650
▁Hau	-10651
▁Hin	-10652
▁Hop	-10653
▁Huế	-10654
▁Hyl	-10655
▁Hạn	-10656
▁Hẹn	-10657
▁Hỏi	-10658
▁Hồn	-10659
▁Hứa	-10660
▁Ily	-10661
▁Iss	-10662
▁Jai	-10663
▁Kad	-10664
▁Khr	-10665
▁Kid	-10666
▁Kob	-10667
▁Kol	-10668
▁Lem	-10669
▁Lob	-10670
▁Lop	-10671
▁Lov	-10672
▁Lus	-10673
▁Lyd	-10674
▁Maz	-10675
▁Muk	-10676
▁Mái	-10677
▁Mãi	-10678
▁Naj	-10679
▁Nay	-10680
▁Nex	-10681
▁Nhu	-10682
▁Occ	-10683
▁Odo	-10684
▁Oxy	-10685
▁Pam	-10686
▁Pix	-10687
▁Pon	-10688
▁Rai	-10689
▁Rối	-10690
▁SAP	-10691
▁Sep	-10692
▁Sửa	-10693
▁Tad	-10694
▁Tag	-10695
▁Teh	-10696
▁Thé	-10697
▁Thả	-10698
▁Toh	-10699
▁Toà	-10700
▁Tầm	-10701
▁Tội	-10702
▁Tựa	-10703
▁Ult	-10704
▁Uni	-10705
▁Vil	-10706
▁Vul	-10707
▁Won	-10708
▁Zag	-10709
▁Zan	-10710
▁all	-10711
▁băn	-10712
▁bừa	-10713
▁cas	-10714
▁chổ	-10715
▁cur	-10716
▁cố	-10717
▁cỏi	-10718
▁gom	-10719
▁gót	-10720
▁hex	-10721
▁hon	-10722
▁ind	-10723
▁kar	-10724
▁lym	-10725
▁lồi	-10726
▁múi	-10727
▁mặn	-10728
▁mỉa	-10729
▁ngõ	-10730
▁ngơ	-10731
▁nấp	-10732
▁nếp	-10733
▁oán	-10734
▁reo	-10735
▁roi	-10736
▁rầy	-10737
▁sin	-10738
▁sấm	-10739
▁sốc	-10740
▁sồi	-10741
▁tuỳ	-10742
▁tặc	-10743
▁vằn	-10744
▁was	-10745
▁won	-10746
▁yến	-10747
Trước	-10748
abria	-10749
acbon	-10750
agnar	-10751
aisal	-10752
aiser	-10753
ajima	-10754
alaya	-10755
aniel	-10756
annon	-10757
aptop	-10758
araoh	-10759
ative	-10760
berry	-10761
boxyl	-10762
ectin	-10763
egger	-10764
ellan	-10765
ening	-10766
eting	-10767
found	-10768
ippon	-10769
istol	-10770
istor	-10771
oland	-10772
ories	-10773
ought	-10774
quang	-10775
rague	-10776
skaya	-10777
thaya	-10778
trung	-10779
umoto	-10780
undai	-10781
water	-10782
▁(189	-10783
▁1800	-10784
▁1875	-10785
▁1894	-10786
▁1899	-10787
▁1909	-10788
▁1912	-10789
▁1913	-10790
▁1931	-10791
▁Alej	-10792
▁Asha	-10793
▁Bald	-10794
▁Berg	-10795
▁Bord	-10796
▁Brig	-10797
▁Bris	-10798
▁Bách	-10799
▁Cant	-10800
▁Cash	-10801
▁Cebu	-10802
▁Chak	-10803
▁Cham	-10804
▁Chil	-10805
▁Chor	-10806
▁Chọn	-10807
▁Coca	-10808
▁Cong	-10809
▁Cort	-10810
▁Cost	-10811
▁Crom	-10812
▁Crow	-10813
▁Dale	-10814
▁Deng	-10815
▁Diam	-10816
▁Drag	-10817
▁Edge	-10818
▁Edin	-10819
▁Fris	-10820
▁Fuji	-10821
▁Gate	-10822
▁Gust	-10823
▁IUCN	-10824
▁Kash	-10825
▁Kind	-10826
▁List	-10827
▁Luận	-10828
▁Lông	-10829
▁Maha	-10830
▁Mari	-10831
▁Marx	-10832
▁Mats	-10833
▁Ment	-10834
▁Mete	-10835
▁Mori	-10836
▁Note	-10837
▁Osho	-10838
▁Path	-10839
▁Phẫu	-10840
▁Robb	-10841
▁Stag	-10842
▁Step	-10843
▁Sảnh	-10844
▁Tata	-10845
▁Team	-10846
▁Tech	-10847
▁Thai	-10848
▁Truk	-10849
▁Vall	-10850
▁Vent	-10851
▁Viet	-10852
▁Wend	-10853
▁Wild	-10854
▁Xung	-10855
▁baby	-10856
▁bành	-10857
▁bất	-10858
▁bướu	-10859
▁chui	-10860
▁chĩa	-10861
▁cons	-10862
▁cycl	-10863
▁cấp	-10864
▁dang	-10865
▁gieo	-10866
▁gran	-10867
▁hòng	-10868
▁khắt	-10869
▁loan	-10870
▁lỗi	-10871
▁lượm	-10872
▁lộng	-10873
▁mark	-10874
▁menu	-10875
▁ngòi	-10876
▁ngần	-10877
▁ngẫm	-10878
▁nháy	-10879
▁nhút	-10880
▁nhảm	-10881
▁nhẹn	-10882
▁oxit	-10883
▁rưởi	-10884
▁that	-10885
▁thiê	-10886
▁thìa	-10887
▁thùy	-10888
▁thục	-10889
▁tối	-10890
▁vest	-10891
▁vũng	-10892
▁vụng	-10893
▁your	-10894
▁Điền	-10895
▁Đấng	-10896
▁điếu	-10897
▁đấng	-10898
▁đọng	-10899
#7841;	-10900
#7913;	-10901
athéod	-10902
cheron	-10903
eongol	-10904
ferase	-10905
otonin	-10906
▁1913,	-10907
▁1917,	-10908
▁1927,	-10909
▁1931,	-10910
▁1931.	-10911
▁1938.	-10912
▁1947.	-10913
▁1968.	-10914
▁1972,	-10915
▁1977.	-10916
▁1984.	-10917
▁1985.	-10918
▁1990)	-10919
▁Aaron	-10920
▁Aegea	-10921
▁Banks	-10922
▁Betty	-10923
▁Boris	-10924
▁Bravo	-10925
▁Bronx	-10926
▁Bryan	-10927
▁Daegu	-10928
▁Dhabi	-10929
▁Evans	-10930
▁Felix	-10931
▁Final	-10932
▁Guant	-10933
▁Guill	-10934
▁Hardy	-10935
▁Honor	-10936
▁Intel	-10937
▁Inuit	-10938
▁Isaac	-10939
▁Khánh	-10940
▁Lance	-10941
▁Logan	-10942
▁Lynch	-10943
▁Nhiễm	-10944
▁Papua	-10945
▁Parma	-10946
▁Percy	-10947
▁Perth	-10948
▁Phóng	-10949
▁Place	-10950
▁Praha	-10951
▁Ramos	-10952
▁Romeo	-10953
▁Strat	-10954
▁Tamil	-10955
▁Teddy	-10956
▁Thiệt	-10957
▁Titus	-10958
▁Trịnh	-10959
▁Ulsan	-10960
▁chích	-10961
▁cười	-10962
▁frame	-10963
▁khuya	-10964
▁liệu	-10965
▁ngạch	-10966
▁quark	-10967
▁ramen	-10968
ference	-10969
ization	-10970
ridates	-10971
stanbul	-10972
sterdam	-10973
▁2012).	-10974
▁2016).	-10975
▁Angola	-10976
▁Apache	-10977
▁Burton	-10978
▁Calcio	-10979
▁Carrie	-10980
▁Chuyên	-10981
▁Comics	-10982
▁Copenh	-10983
▁Dennis	-10984
▁Geneva	-10985
▁Harris	-10986
▁Heracl	-10987
▁Indian	-10988
▁Indust	-10989
▁Isabel	-10990
▁Jaguar	-10991
▁Joshua	-10992
▁Kavkaz	-10993
▁Kosovo	-10994
▁Lester	-10995
▁Lisbon	-10996
▁Maggie	-10997
▁Michel	-10998
▁Motors	-10999
▁Museum	-11000
▁Nicole	-11001
▁Office	-11002
▁Patric	-11003
▁Phraya	-11004
▁Prince	-11005
▁Rafael	-11006
▁Ragnar	-11007
▁Rupert	-11008
▁Silver	-11009
▁Sophia	-11010
▁Thebes	-11011
▁Ulithi	-11012
▁ballad	-11013
▁chiến	-11014
▁choáng	-11015
▁chướng	-11016
▁chưởng	-11017
▁glycos	-11018
▁nghếch	-11019
▁polyme	-11020
▁sunfat	-11021
adnought	-11022
▁Academy	-11023
▁Adamski	-11024
▁Airways	-11025
▁Bavaria	-11026
▁Bedford	-11027
▁Clapton	-11028
▁Eduardo	-11029
▁Eritrea	-11030
▁Gilbert	-11031
▁Herbert	-11032
▁Hyundai	-11033
▁Kenneth	-11034
▁Laurent	-11035
▁Limited	-11036
▁Lorenzo	-11037
▁Mabuchi	-11038
▁Malcolm	-11039
▁Masters	-11040
▁Natalie	-11041
▁Project	-11042
▁Protein	-11043
▁Severus	-11044
▁Silesia	-11045
▁Spartan	-11046
▁Turkmen	-11047
▁Vanessa	-11048
▁Windsor	-11049
▁ethanol	-11050
▁insulin	-11051
athéodory	-11052
▁Abdullah	-11053
▁Arkansas	-11054
▁Athletic	-11055
▁Atlantic	-11056
▁Brisbane	-11057
▁Broadway	-11058
▁Challeng	-11059
▁District	-11060
▁Explorer	-11061
▁Goebbels	-11062
▁Johnston	-11063
▁Jonathan	-11064
▁Montreal	-11065
▁Nazareth	-11066
▁Adventure	-11067
▁Amsterdam	-11068
▁Ayutthaya	-11069
▁Christine	-11070
▁Hampshire	-11071
▁Henderson	-11072
▁Lannister	-11073
▁Schwarzen	-11074
▁Spartacus	-11075
▁Copenhagen	-11076
▁Guantánamo	-11077
▁Technology	-11078
▁Mithridates	-11079
▁Westminster	-11080
▁Carathéodory	-11081
)-	-11082
.'	-11083
46	-11084
73	-11085
76	-11086
77	-11087
Ab	-11088
BR	-11089
Bộ	-11090
EM	-11091
EV	-11092
Ed	-11093
GI	-11094
Go	-11095
HF	-11096
Hy	-11097
IR	-11098
Lu	-11099
MI	-11100
NE	-11101
OM	-11102
Se	-11103
WV	-11104
bộ	-11105
cá	-11106
fo	-11107
mẹ	-11108
pu	-11109
tự	-11110
uq	-11111
wo	-11112
wr	-11113
ww	-11114
Ôi	-11115
óe	-11116
̀,	-11117
̉a	-11118
̣n	-11119
ар	-11120
ờm	-11121
-14	-11122
-23	-11123
-28	-11124
-70	-11125
25,	-11126
Bad	-11127
Cảm	-11128
Hội	-11129
MTV	-11130
Par	-11131
Pro	-11132
Sam	-11133
San	-11134
She	-11135
Sil	-11136
USA	-11137
aan	-11138
acz	-11139
arf	-11140
ask	-11141
avy	-11142
bot	-11143
cil	-11144
cos	-11145
ebo	-11146
eca	-11147
enb	-11148
fal	-11149
gia	-11150
gra	-11151
gyz	-11152
gần	-11153
had	-11154
icz	-11155
iec	-11156
igi	-11157
iol	-11158
jay	-11159
lab	-11160
lar	-11161
lay	-11162
mất	-11163
non	-11164
oha	-11165
omy	-11166
ono	-11167
oso	-11168
otá	-11169
pat	-11170
pes	-11171
pos	-11172
pur	-11173
rae	-11174
roe	-11175
suk	-11176
tem	-11177
tuy	-11178
tạo	-11179
uer	-11180
uti	-11181
zew	-11182
ầy	-11183
đến	-11184
ơng	-11185
▁"-	-11186
▁06	-11187
▁68	-11188
▁7:	-11189
▁81	-11190
▁83	-11191
▁88	-11192
▁AA	-11193
▁CT	-11194
▁Cú	-11195
▁Cờ	-11196
▁ER	-11197
▁FO	-11198
▁Hm	-11199
▁Hz	-11200
▁Hō	-11201
▁Hổ	-11202
▁IM	-11203
▁JT	-11204
▁LP	-11205
▁Lệ	-11206
▁NT	-11207
▁Nô	-11208
▁OP	-11209
▁Ps	-11210
▁ST	-11211
▁SV	-11212
▁Tō	-11213
▁Tệ	-11214
▁VC	-11215
▁bl	-11216
▁gò	-11217
▁hé	-11218
▁hù	-11219
▁ni	-11220
▁rủ	-11221
▁uý	-11222
▁vư	-11223
▁xỏ	-11224
▁{{	-11225
▁àh	-11226
▁ây	-11227
▁ập	-11228
▁ốm	-11229
-19,	-11230
-195	-11231
-199	-11232
Giải	-11233
Love	-11234
Mart	-11235
Thật	-11236
acio	-11237
adoc	-11238
adus	-11239
alis	-11240
amen	-11241
anne	-11242
anus	-11243
arez	-11244
arto	-11245
artz	-11246
cess	-11247
chel	-11248
chev	-11249
ebec	-11250
ecus	-11251
egal	-11252
ente	-11253
ergy	-11254
escu	-11255
esha	-11256
etat	-11257
etin	-11258
fast	-11259
font	-11260
gluc	-11261
hình	-11262
idas	-11263
idea	-11264
idon	-11265
iera	-11266
ifax	-11267
iger	-11268
imir	-11269
imét	-11270
inth	-11271
ipun	-11272
irst	-11273
ishu	-11274
itar	-11275
ktop	-11276
mose	-11277
nhân	-11278
nhóm	-11279
nica	-11280
nước	-11281
ocin	-11282
odan	-11283
ogne	-11284
omas	-11285
ondo	-11286
onte	-11287
orie	-11288
orst	-11289
osta	-11290
otus	-11291
ouse	-11292
oven	-11293
oyce	-11294
pton	-11295
rano	-11296
rico	-11297
rift	-11298
rios	-11299
rius	-11300
seud	-11301
sson	-11302
thor	-11303
trat	-11304
ucle	-11305
ukos	-11306
uler	-11307
umin	-11308
usep	-11309
utra	-11310
ving	-11311
wara	-11312
đang	-11313
–201	-11314
▁(11	-11315
▁(2.	-11316
▁(22	-11317
▁(23	-11318
▁1,6	-11319
▁101	-11320
▁103	-11321
▁10:	-11322
▁113	-11323
▁12%	-11324
▁126	-11325
▁141	-11326
▁153	-11327
▁16:	-11328
▁2,5	-11329
▁2-1	-11330
▁2.5	-11331
▁203	-11332
▁23.	-11333
▁24,	-11334
▁25%	-11335
▁29,	-11336
▁3.0	-11337
▁90.	-11338
▁Ach	-11339
▁Aff	-11340
▁Akh	-11341
▁Aub	-11342
▁Bee	-11343
▁Ble	-11344
▁CBS	-11345
▁Cic	-11346
▁Cun	-11347
▁Cáp	-11348
▁Cầm	-11349
▁Cốc	-11350
▁Cốt	-11351
▁Dẫn	-11352
▁Dẫu	-11353
▁Eag	-11354
▁Fai	-11355
▁Fay	-11356
▁GNU	-11357
▁Gas	-11358
▁Gin	-11359
▁Gri	-11360
▁Hae	-11361
▁Hob	-11362
▁Hum	-11363
▁Hết	-11364
▁Ibn	-11365
▁Ike	-11366
▁Inv	-11367
▁Jae	-11368
▁Jav	-11369
▁Kau	-11370
▁Kaw	-11371
▁Kay	-11372
▁Kyr	-11373
▁Mãn	-11374
▁Mật	-11375
▁Mời	-11376
▁NBA	-11377
▁Nem	-11378
▁Ngữ	-11379
▁Nun	-11380
▁Phe	-11381
▁Pom	-11382
▁Pug	-11383
▁Ras	-11384
▁Rik	-11385
▁Rip	-11386
▁Rug	-11387
▁Sey	-11388
▁Sis	-11389
▁Sit	-11390
▁Sop	-11391
▁Sue	-11392
▁Sắc	-11393
▁Sớm	-11394
▁Tau	-11395
▁Tav	-11396
▁Thơ	-11397
▁Tit	-11398
▁Trở	-11399
▁Two	-11400
▁Tào	-11401
▁Tải	-11402
▁Tấn	-11403
▁UFO	-11404
▁Wag	-11405
▁Zar	-11406
▁Zen	-11407
▁app	-11408
▁bái	-11409
▁bói	-11410
▁cap	-11411
▁cat	-11412
▁chà	-11413
▁chè	-11414
▁coc	-11415
▁cod	-11416
▁cày	-11417
▁còi	-11418
▁cúc	-11419
▁dec	-11420
▁dos	-11421
▁dĩa	-11422
▁dấy	-11423
▁gớm	-11424
▁had	-11425
▁hen	-11426
▁hiđ	-11427
▁hyp	-11428
▁háo	-11429
▁hộ	-11430
▁hức	-11431
▁lay	-11432
▁lạp	-11433
▁lộc	-11434
▁mol	-11435
▁mài	-11436
▁mậu	-11437
▁ngỏ	-11438
▁nhô	-11439
▁nực	-11440
▁que	-11441
▁ret	-11442
▁rụi	-11443
▁sol	-11444
▁sâm	-11445
▁sấu	-11446
▁sầu	-11447
▁sục	-11448
▁ten	-11449
▁tua	-11450
▁vis	-11451
▁vét	-11452
▁vấp	-11453
▁vọt	-11454
▁xui	-11455
▁xốp	-11456
▁đéo	-11457
▁đít	-11458
▁đúp	-11459
▁đục	-11460
Music	-11461
acher	-11462
antes	-11463
apest	-11464
arrat	-11465
asaki	-11466
athon	-11467
encia	-11468
eople	-11469
esław	-11470
ewart	-11471
gorod	-11472
iance	-11473
ideon	-11474
ieber	-11475
illac	-11476
ollar	-11477
onsin	-11478
osuka	-11479
overn	-11480
rench	-11481
stand	-11482
stown	-11483
trino	-11484
ulose	-11485
union	-11486
ustic	-11487
ympic	-11488
▁1080	-11489
▁1890	-11490
▁1895	-11491
▁1903	-11492
▁1917	-11493
▁1925	-11494
▁1927	-11495
▁1977	-11496
▁Babb	-11497
▁Bast	-11498
▁Bath	-11499
▁Batt	-11500
▁Bear	-11501
▁Bird	-11502
▁Bong	-11503
▁Bots	-11504
▁Brid	-11505
▁Buzz	-11506
▁Chen	-11507
▁Chia	-11508
▁Chik	-11509
▁Cond	-11510
▁Cool	-11511
▁Dana	-11512
▁Dawn	-11513
▁Deep	-11514
▁Dion	-11515
▁Dora	-11516
▁Dres	-11517
▁Dừng	-11518
▁Emil	-11519
▁Fame	-11520
▁Flow	-11521
▁Full	-11522
▁Gael	-11523
▁Garc	-11524
▁Giấc	-11525
▁Hero	-11526
▁Hood	-11527
▁Hope	-11528
▁IMAX	-11529
▁Inca	-11530
▁Iron	-11531
▁Ishi	-11532
▁Ital	-11533
▁Jans	-11534
▁João	-11535
▁Kafr	-11536
▁Know	-11537
▁Koch	-11538
▁Kory	-11539
▁LGBT	-11540
▁Lund	-11541
▁Lĩnh	-11542
▁Mald	-11543
▁Mali	-11544
▁Mare	-11545
▁Must	-11546
▁Nghi	-11547
▁Nhóc	-11548
▁Nhằm	-11549
▁Niel	-11550
▁OECD	-11551
▁Omar	-11552
▁Orth	-11553
▁Pear	-11554
▁Prix	-11555
▁Rost	-11556
▁SETI	-11557
▁Sakh	-11558
▁Salt	-11559
▁Serb	-11560
▁Serg	-11561
▁Sham	-11562
▁Shan	-11563
▁Suez	-11564
▁Sull	-11565
▁Surv	-11566
▁Swaz	-11567
▁Thea	-11568
▁Thạc	-11569
▁Thảo	-11570
▁Tiệc	-11571
▁Vevo	-11572
▁Wang	-11573
▁Want	-11574
▁Xích	-11575
▁Yale	-11576
▁alen	-11577
▁bịch	-11578
▁cacb	-11579
▁clip	-11580
▁coll	-11581
▁cyan	-11582
▁cứu	-11583
▁gạch	-11584
▁huýt	-11585
▁hội	-11586
▁hợp	-11587
▁khoá	-11588
▁kết	-11589
▁liêu	-11590
▁lửng	-11591
▁mắng	-11592
▁ngấm	-11593
▁ngợm	-11594
▁nhai	-11595
▁nhan	-11596
▁nhuệ	-11597
▁nhõm	-11598
▁nhọc	-11599
▁nhộn	-11600
▁phai	-11601
▁phốt	-11602
▁rang	-11603
▁soda	-11604
▁teen	-11605
▁thoi	-11606
▁thử	-11607
▁thốt	-11608
▁tráo	-11609
▁vali	-11610
▁xiên	-11611
▁xuôi	-11612
▁điềm	-11613
▁đội	-11614
▁đặt	-11615
adocia	-11616
aparte	-11617
bledon	-11618
caster	-11619
castle	-11620
ecoach	-11621
erland	-11622
iation	-11623
ighton	-11624
roline	-11625
shevik	-11626
▁1860,	-11627
▁1902,	-11628
▁1912.	-11629
▁1927.	-11630
▁1928,	-11631
▁1932,	-11632
▁1949.	-11633
▁1964.	-11634
▁1981.	-11635
▁1993)	-11636
▁2.500	-11637
▁2000)	-11638
▁2020,	-11639
▁2020.	-11640
▁Alert	-11641
▁Amenh	-11642
▁Anast	-11643
▁Arena	-11644
▁Aveng	-11645
▁Beast	-11646
▁Bella	-11647
▁Benev	-11648
▁Bruno	-11649
▁Buddy	-11650
▁Build	-11651
▁Chuỗi	-11652
▁Chừng	-11653
▁Clara	-11654
▁Cloud	-11655
▁Comic	-11656
▁Corse	-11657
▁Count	-11658
▁Cross	-11659
▁Cuddy	-11660
▁Edith	-11661
▁Fermi	-11662
▁Finch	-11663
▁Flash	-11664
▁Ghost	-11665
▁Gioan	-11666
▁Greek	-11667
▁Happy	-11668
▁Heath	-11669
▁Hotel	-11670
▁Huyền	-11671
▁Imper	-11672
▁Index	-11673
▁Jesse	-11674
▁Krupp	-11675
▁Lloyd	-11676
▁Marta	-11677
▁Micro	-11678
▁Minor	-11679
▁Money	-11680
▁Moses	-11681
▁Nhiếp	-11682
▁Norte	-11683
▁Palau	-11684
▁Parad	-11685
▁Paral	-11686
▁Pepsi	-11687
▁Phant	-11688
▁Phone	-11689
▁Plata	-11690
▁Polyn	-11691
▁Ports	-11692
▁Punic	-11693
▁Quint	-11694
▁Ramon	-11695
▁Reich	-11696
▁Russo	-11697
▁Sabah	-11698
▁Salam	-11699
▁Scarl	-11700
▁Siber	-11701
▁Small	-11702
▁Stall	-11703
▁Start	-11704
▁Storm	-11705
▁Tashk	-11706
▁Tatar	-11707
▁Tesla	-11708
▁Thorn	-11709
▁Three	-11710
▁Thịnh	-11711
▁Tonga	-11712
▁Total	-11713
▁Towns	-11714
▁Train	-11715
▁Wikim	-11716
▁Woods	-11717
▁Works	-11718
▁biệt	-11719
▁bệnh	-11720
▁khoát	-11721
▁khoăn	-11722
▁metal	-11723
▁ngoãn	-11724
▁phần	-11725
▁phông	-11726
▁quốc	-11727
▁rupee	-11728
▁tiếp	-11729
▁trans	-11730
▁từng	-11731
▁virut	-11732
▁Đừng	-11733
borough	-11734
dington	-11735
▁10,000	-11736
▁Angels	-11737
▁Aurora	-11738
▁Barnes	-11739
▁Bayern	-11740
▁Belize	-11741
▁Bernie	-11742
▁Bridge	-11743
▁Brooke	-11744
▁Butler	-11745
▁Clarke	-11746
▁Conrad	-11747
▁Conway	-11748
▁Curtis	-11749
▁Denver	-11750
▁Direct	-11751
▁Dublin	-11752
▁Duncan	-11753
▁Faisal	-11754
▁Family	-11755
▁Freder	-11756
▁Future	-11757
▁Gideon	-11758
▁Giusep	-11759
▁Grammy	-11760
▁Halsey	-11761
▁Harper	-11762
▁Hector	-11763
▁Hubble	-11764
▁Jeanne	-11765
▁Lumpur	-11766
▁Marcel	-11767
▁Medici	-11768
▁Medina	-11769
▁Metrop	-11770
▁Modern	-11771
▁Mozart	-11772
▁Nguyệt	-11773
▁Nhưỡng	-11774
▁Palace	-11775
▁Panzer	-11776
▁Powell	-11777
▁Pyrene	-11778
▁Quebec	-11779
▁Ramsey	-11780
▁Romero	-11781
▁Septim	-11782
▁Shadow	-11783
▁Shield	-11784
▁Silent	-11785
▁Soccer	-11786
▁Sparta	-11787
▁Sunday	-11788
▁Takeda	-11789
▁axetat	-11790
▁laptop	-11791
▁nghiến	-11792
▁phường	-11793
▁plasma	-11794
▁quyền	-11795
▁thuốc	-11796
isconsin	-11797
renaline	-11798
▁(2002),	-11799
▁Alfonso	-11800
▁Baldwin	-11801
▁Bristol	-11802
▁Carlsen	-11803
▁Coulson	-11804
▁Country	-11805
▁Digital	-11806
▁Dresden	-11807
▁English	-11808
▁Everest	-11809
▁Fighter	-11810
▁Freddie	-11811
▁Friends	-11812
▁Fukuoka	-11813
▁Galileo	-11814
▁Hepburn	-11815
▁Hermann	-11816
▁History	-11817
▁Hoffman	-11818
▁Liberia	-11819
▁Lombard	-11820
▁Mandela	-11821
▁Melissa	-11822
▁Miranda	-11823
▁Morocco	-11824
▁München	-11825
▁Natural	-11826
▁Portman	-11827
▁Preston	-11828
▁Profess	-11829
▁Reynold	-11830
▁Sharjah	-11831
▁Spencer	-11832
▁Stanton	-11833
▁Stephan	-11834
▁Stewart	-11835
▁Sumatra	-11836
▁Tribune	-11837
▁Tupolev	-11838
▁Winston	-11839
▁halogen	-11840
▁jeongol	-11841
▁pharaon	-11842
▁plutoni	-11843
enicillin	-11844
foundland	-11845
▁Adelaide	-11846
▁Adriatic	-11847
▁Botswana	-11848
▁Burgundy	-11849
▁Business	-11850
▁Claudius	-11851
▁Felicity	-11852
▁Himalaya	-11853
▁Leonardo	-11854
▁Magazine	-11855
▁Minamoto	-11856
▁Nakajima	-11857
▁Novgorod	-11858
▁Seleukos	-11859
▁Slovenia	-11860
▁Veronica	-11861
▁Yokosuka	-11862
▁Amenhotep	-11863
▁Antigonos	-11864
▁Edinburgh	-11865
▁Mauritius	-11866
▁Swaziland	-11867
▁Wimbledon	-11868
▁serotonin	-11869
▁Charleston	-11870
▁Stagecoach	-11871
▁Winchester	-11872
▁Electronics	-11873
▁Productions	-11874
▁Newfoundland	-11875
▁Turkmenistan	-11876
▁Constantinople	-11877
▁Schwarzenegger	-11878
!,	-11879
.;	-11880
54	-11881
?'	-11882
Ai	-11883
BE	-11884
Cơ	-11885
ML	-11886
Ma	-11887
Mẹ	-11888
ND	-11889
NT	-11890
No	-11891
Nu	-11892
Or	-11893
PC	-11894
PU	-11895
RB	-11896
SO	-11897
Từ	-11898
We	-11899
aa	-11900
cs	-11901
cả	-11902
ms	-11903
mở	-11904
rt	-11905
rí	-11906
sẽ	-11907
uw	-11908
yk	-11909
yy	-11910
zz	-11911
Âu	-11912
är	-11913
éb	-11914
õa	-11915
öl	-11916
Để	-11917
đa	-11918
̀a	-11919
́a	-11920
на	-11921
ỡi	-11922
–7	-11923
–8	-11924
−1	-11925
-29	-11926
-47	-11927
-50	-11928
-64	-11929
-84	-11930
199	-11931
201	-11932
5%,	-11933
CAF	-11934
CII	-11935
Can	-11936
EST	-11937
Kim	-11938
Lou	-11939
Net	-11940
Nga	-11941
Như	-11942
Phụ	-11943
Pol	-11944
Que	-11945
Sim	-11946
Soc	-11947
aby	-11948
ahi	-11949
alc	-11950
anu	-11951
aso	-11952
awk	-11953
bat	-11954
bel	-11955
bow	-11956
bên	-11957
bản	-11958
bắt	-11959
cao	-11960
cie	-11961
dez	-11962
ede	-11963
emb	-11964
eru	-11965
ety	-11966
fly	-11967
fus	-11968
gir	-11969
gus	-11970
gồm	-11971
hou	-11972
học	-11973
ibn	-11974
ifi	-11975
iru	-11976
ivo	-11977
izi	-11978
jos	-11979
kei	-11980
khu	-11981
kon	-11982
kor	-11983
leg	-11984
lim	-11985
nor	-11986
omm	-11987
quá	-11988
rem	-11989
rox	-11990
ruz	-11991
sai	-11992
soo	-11993
thm	-11994
ugg	-11995
unk	-11996
urd	-11997
vre	-11998
xes	-11999
zig	-12000
zno	-12001
ậm	-12002
▁"1	-12003
▁''	-12004
▁-1	-12005
▁1)	-12006
▁1-	-12007
▁6%	-12008
▁8%	-12009
▁8:	-12010
▁EC	-12011
▁Ec	-12012
▁FR	-12013
▁HK	-12014
▁Hè	-12015
▁IT	-12016
▁Kỉ	-12017
▁MT	-12018
▁Mp	-12019
▁Má	-12020
▁NI	-12021
▁NK	-12022
▁NS	-12023
▁Og	-12024
▁PR	-12025
▁PZ	-12026
▁Pé	-12027
▁Ri	-12028
▁Rö	-12029
▁Sr	-12030
▁Sứ	-12031
▁Tú	-12032
▁UV	-12033
▁Vy	-12034
▁Vả	-12035
▁XL	-12036
▁Xà	-12037
▁Xử	-12038
▁YP	-12039
▁ak	-12040
▁cH	-12041
▁ce	-12042
▁er	-12043
▁ge	-12044
▁kè	-12045
▁lư	-12046
▁lố	-12047
▁mo	-12048
▁mè	-12049
▁mề	-12050
▁nể	-12051
▁po	-12052
▁py	-12053
▁pô	-12054
▁tè	-12055
▁tý	-12056
▁uỷ	-12057
▁ve	-12058
▁vò	-12059
▁ói	-12060
▁Ơn	-12061
000.	-12062
Amer	-12063
Chúa	-12064
City	-12065
Cube	-12066
Công	-12067
John	-12068
Life	-12069
Shar	-12070
Thời	-12071
What	-12072
aben	-12073
aces	-12074
adin	-12075
adys	-12076
afia	-12077
ages	-12078
agin	-12079
alth	-12080
amia	-12081
amid	-12082
amys	-12083
anas	-12084
anti	-12085
ardy	-12086
asta	-12087
atur	-12088
away	-12089
benz	-12090
bine	-12091
borg	-12092
bral	-12093
bull	-12094
chuk	-12095
eaux	-12096
edra	-12097
egie	-12098
ehyd	-12099
enda	-12100
epam	-12101
erry	-12102
esse	-12103
evel	-12104
eyer	-12105
face	-12106
giữa	-12107
head	-12108
hire	-12109
hiti	-12110
home	-12111
hành	-12112
iant	-12113
icle	-12114
idin	-12115
ieve	-12116
igma	-12117
iles	-12118
ilon	-12119
iman	-12120
incy	-12121
itor	-12122
iếu	-12123
kido	-12124
kinh	-12125
lang	-12126
lein	-12127
link	-12128
mark	-12129
mons	-12130
ness	-12131
nett	-12132
nier	-12133
odor	-12134
ofia	-12135
ogun	-12136
olph	-12137
omir	-12138
omys	-12139
onda	-12140
oran	-12141
oric	-12142
ovis	-12143
phía	-12144
phải	-12145
pian	-12146
quit	-12147
rans	-12148
rant	-12149
rice	-12150
ride	-12151
rike	-12152
rill	-12153
rose	-12154
rost	-12155
rows	-12156
sses	-12157
stal	-12158
suma	-12159
tham	-12160
thực	-12161
time	-12162
trái	-12163
tổng	-12164
uage	-12165
unga	-12166
urik	-12167
usan	-12168
usha	-12169
viên	-12170
wide	-12171
yron	-12172
énin	-12173
ưới	-12174
▁(24	-12175
▁(3.	-12176
▁(4,	-12177
▁(8,	-12178
▁---	-12179
▁1,1	-12180
▁1,2	-12181
▁1,8	-12182
▁1-0	-12183
▁1-2	-12184
▁119	-12185
▁124	-12186
▁127	-12187
▁137	-12188
▁143	-12189
▁158	-12190
▁163	-12191
▁166	-12192
▁25.	-12193
▁28,	-12194
▁44,	-12195
▁737	-12196
▁8.1	-12197
▁911	-12198
▁99,	-12199
▁Aik	-12200
▁Ain	-12201
▁Aph	-12202
▁Ard	-12203
▁Bis	-12204
▁Bub	-12205
▁Bưu	-12206
▁Bến	-12207
▁Bột	-12208
▁CYP	-12209
▁Cai	-12210
▁Cay	-12211
▁Cin	-12212
▁Cly	-12213
▁Coh	-12214
▁Cul	-12215
▁Cut	-12216
▁Cán	-12217
▁DEA	-12218
▁Dag	-12219
▁Dah	-12220
▁Dat	-12221
▁Dau	-12222
▁Dio	-12223
▁Dul	-12224
▁Dây	-12225
▁ESP	-12226
▁Ecc	-12227
▁Eld	-12228
▁Gda	-12229
▁Gel	-12230
▁Gry	-12231
▁Hom	-12232
▁ICO	-12233
▁Ice	-12234
▁Jen	-12235
▁Joo	-12236
▁Jov	-12237
▁Jut	-12238
▁Khá	-12239
▁Kis	-12240
▁Kiy	-12241
▁Kof	-12242
▁Koh	-12243
▁Kok	-12244
▁Kop	-12245
▁Kot	-12246
▁Kuz	-12247
▁Kéo	-12248
▁Kêu	-12249
▁LED	-12250
▁LHQ	-12251
▁Lag	-12252
▁Let	-12253
▁Lon	-12254
▁Low	-12255
▁Lun	-12256
▁Lôi	-12257
▁Lạy	-12258
▁Lỗi	-12259
▁Lửa	-12260
▁Lựa	-12261
▁MGM	-12262
▁McL	-12263
▁McM	-12264
▁Mia	-12265
▁Mok	-12266
▁Mây	-12267
▁Mèo	-12268
▁Mùi	-12269
▁NSA	-12270
▁Nad	-12271
▁Ner	-12272
▁Nho	-12273
▁Nhị	-12274
▁Nit	-12275
▁Ném	-12276
▁Nỗi	-12277
▁Nửa	-12278
▁Ora	-12279
▁Pha	-12280
▁Phủ	-12281
▁Pig	-12282
▁Rac	-12283
▁Ran	-12284
▁Rav	-12285
▁SAR	-12286
▁SMS	-12287
▁Sei	-12288
▁Soo	-12289
▁Suk	-12290
▁Tac	-12291
▁Thr	-12292
▁Tic	-12293
▁Trợ	-12294
▁Tut	-12295
▁Tóc	-12296
▁Tết	-12297
▁Uly	-12298
▁Ung	-12299
▁Ush	-12300
▁Von	-12301
▁Was	-12302
▁Yas	-12303
▁Yuc	-12304
▁Yur	-12305
▁Zay	-12306
▁ang	-12307
▁baz	-12308
▁bèn	-12309
▁bẩy	-12310
▁bẹp	-12311
▁bốt	-12312
▁chừ	-12313
▁cún	-12314
▁dan	-12315
▁dop	-12316
▁dẫm	-12317
▁eIF	-12318
▁eng	-12319
▁est	-12320
▁gas	-12321
▁gào	-12322
▁gầm	-12323
▁hoi	-12324
▁hoả	-12325
▁hun	-12326
▁héo	-12327
▁hẻo	-12328
▁kén	-12329
▁lab	-12330
▁lep	-12331
▁lẽo	-12332
▁lốp	-12333
▁mad	-12334
▁mào	-12335
▁mác	-12336
▁new	-12337
▁nga	-12338
▁nhũ	-12339
▁nít	-12340
▁phả	-12341
▁ron	-12342
▁rêu	-12343
▁rẩy	-12344
▁sen	-12345
▁shō	-12346
▁son	-12347
▁sur	-12348
▁séc	-12349
▁sấy	-12350
▁sọc	-12351
▁sứa	-12352
▁toi	-12353
▁tuế	-12354
▁tớ	-12355
▁tử	-12356
▁urê	-12357
▁vir	-12358
▁vol	-12359
▁vắt	-12360
▁vẹt	-12361
▁www	-12362
▁xua	-12363
▁yết	-12364
▁Đạn	-12365
▁Đạt	-12366
▁Đọc	-12367
▁Đợt	-12368
▁đay	-12369
▁đồ	-12370
▁đạm	-12371
▁ưng	-12372
#237;	-12373
Drive	-12374
agawa	-12375
andro	-12376
anner	-12377
annis	-12378
arian	-12379
arlem	-12380
arque	-12381
ayama	-12382
berra	-12383
chlor	-12384
conom	-12385
ekhem	-12386
elius	-12387
eller	-12388
elles	-12389
emann	-12390
entan	-12391
ergic	-12392
iflor	-12393
igami	-12394
igata	-12395
imoto	-12396
inder	-12397
inese	-12398
ingen	-12399
itate	-12400
light	-12401
nhard	-12402
ocene	-12403
ollah	-12404
organ	-12405
othai	-12406
otsky	-12407
owice	-12408
rides	-12409
rique	-12410
trans	-12411
tress	-12412
unaga	-12413
urich	-12414
ussia	-12415
ượng	-12416
▁1200	-12417
▁1850	-12418
▁1859	-12419
▁1865	-12420
▁1893	-12421
▁1901	-12422
▁1904	-12423
▁1907	-12424
▁1911	-12425
▁1916	-12426
▁1922	-12427
▁1923	-12428
▁1929	-12429
▁1936	-12430
▁1938	-12431
▁2500	-12432
▁Abel	-12433
▁Amin	-12434
▁Appl	-12435
▁Aver	-12436
▁Bach	-12437
▁Blan	-12438
▁Body	-12439
▁Bret	-12440
▁Bung	-12441
▁Buồn	-12442
▁Carm	-12443
▁Carp	-12444
▁Chat	-12445
▁Chem	-12446
▁Chit	-12447
▁Chìa	-12448
▁Code	-12449
▁Copa	-12450
▁Corb	-12451
▁Core	-12452
▁Cult	-12453
▁Cười	-12454
▁Diaz	-12455
▁Diệp	-12456
▁Dort	-12457
▁Dành	-12458
▁Fiji	-12459
▁Flyn	-12460
▁From	-12461
▁Gent	-12462
▁Gogh	-12463
▁Gore	-12464
▁HTML	-12465
▁Hara	-12466
▁Hisp	-12467
▁Hits	-12468
▁Holl	-12469
▁Huff	-12470
▁Hằng	-12471
▁Jedi	-12472
▁Jeon	-12473
▁Kant	-12474
▁Kens	-12475
▁Khab	-12476
▁Kier	-12477
▁Knox	-12478
▁LTTE	-12479
▁Lega	-12480
▁Lens	-12481
▁Lily	-12482
▁Linn	-12483
▁Liêu	-12484
▁Mail	-12485
▁Meth	-12486
▁Moss	-12487
▁Muội	-12488
▁Một	-12489
▁Nakh	-12490
▁Neil	-12491
▁Nest	-12492
▁Next	-12493
▁Nhịp	-12494
▁Nice	-12495
▁Nine	-12496
▁Noel	-12497
▁Only	-12498
▁Oran	-12499
▁Pand	-12500
▁Penh	-12501
▁Piet	-12502
▁Plus	-12503
▁Pran	-12504
▁Pret	-12505
▁Rama	-12506
▁Ranh	-12507
▁Sait	-12508
▁Saul	-12509
▁Savo	-12510
▁Schl	-12511
▁Sega	-12512
▁Shir	-12513
▁Shop	-12514
▁Side	-12515
▁Sign	-12516
▁Sime	-12517
▁Spin	-12518
▁Stal	-12519
▁Stir	-12520
▁Take	-12521
▁Talk	-12522
▁Tess	-12523
▁Thut	-12524
▁Thuỵ	-12525
▁Tito	-12526
▁Tiết	-12527
▁Troy	-12528
▁Trục	-12529
▁Twin	-12530
▁Vald	-12531
▁Vand	-12532
▁Vang	-12533
▁Vida	-12534
▁Viol	-12535
▁Volt	-12536
▁Vĩnh	-12537
▁What	-12538
▁With	-12539
▁Work	-12540
▁Yong	-12541
▁Zeus	-12542
▁amyl	-12543
▁brom	-12544
▁cell	-12545
▁chen	-12546
▁chuô	-12547
▁chói	-12548
▁chần	-12549
▁chốc	-12550
▁chửi	-12551
▁fraz	-12552
▁gall	-12553
▁ganh	-12554
▁giấm	-12555
▁iPad	-12556
▁măng	-12557
▁nhàm	-12558
▁nháp	-12559
▁nhún	-12560
▁nhớ	-12561
▁nhấc	-12562
▁quấn	-12563
▁rong	-12564
▁rạch	-12565
▁thuy	-12566
▁thỏi	-12567
▁tivi	-12568
▁trát	-12569
▁trỗi	-12570
▁trụi	-12571
▁tòng	-12572
▁võng	-12573
▁vực	-12574
▁vồng	-12575
▁well	-12576
▁xiếc	-12577
▁xoăn	-12578
▁Đăng	-12579
▁điểu	-12580
▁đều	-12581
▁đổi	-12582
▁đời	-12583
▁đếch	-12584
#7891;	-12585
#7919;	-12586
000000	-12587
afford	-12588
ahuatl	-12589
airobi	-12590
aptist	-12591
ayashi	-12592
chwitz	-12593
endish	-12594
ermain	-12595
eville	-12596
hanouk	-12597
ingham	-12598
inness	-12599
ipunan	-12600
ission	-12601
neider	-12602
onnais	-12603
optera	-12604
tainer	-12605
▁(1989	-12606
▁1.200	-12607
▁1.400	-12608
▁1848,	-12609
▁1882,	-12610
▁1890,	-12611
▁1896,	-12612
▁1915.	-12613
▁1918.	-12614
▁1919,	-12615
▁1922,	-12616
▁1924.	-12617
▁1925,	-12618
▁1960)	-12619
▁1969.	-12620
▁1987.	-12621
▁9.000	-12622
▁ASCII	-12623
▁Amber	-12624
▁Andes	-12625
▁Anita	-12626
▁Baden	-12627
▁Blair	-12628
▁Blake	-12629
▁Blood	-12630
▁Bolog	-12631
▁Bonif	-12632
▁Capua	-12633
▁Carly	-12634
▁Court	-12635
▁Creek	-12636
▁Crime	-12637
▁Damon	-12638
▁Darcy	-12639
▁Devon	-12640
▁Diana	-12641
▁Edgar	-12642
▁Euler	-12643
▁Force	-12644
▁Glenn	-12645
▁Haifa	-12646
▁Higgs	-12647
▁Indra	-12648
▁Isaak	-12649
▁Jaime	-12650
▁Khinh	-12651
▁Korea	-12652
▁Lepid	-12653
▁Lions	-12654
▁Luang	-12655
▁Lydia	-12656
▁Macao	-12657
▁Mafia	-12658
▁Magna	-12659
▁Maine	-12660
▁Maker	-12661
▁Manga	-12662
▁Marqu	-12663
▁Melan	-12664
▁Miner	-12665
▁Nazir	-12666
▁Never	-12667
▁Nương	-12668
▁Param	-12669
▁Paula	-12670
▁Pitts	-12671
▁Pixar	-12672
▁Porto	-12673
▁Price	-12674
▁Quant	-12675
▁Rhode	-12676
▁Rizal	-12677
▁Samar	-12678
▁Seven	-12679
▁Short	-12680
▁Spiel	-12681
▁Stade	-12682
▁Sunni	-12683
▁Sword	-12684
▁Symph	-12685
▁Takah	-12686
▁Thess	-12687
▁Thiệu	-12688
▁Thoát	-12689
▁Thuần	-12690
▁Thuộc	-12691
▁Tiger	-12692
▁Torre	-12693
▁Tuyết	-12694
▁Tuyển	-12695
▁Tyson	-12696
▁Ultra	-12697
▁Vinci	-12698
▁boong	-12699
▁chắn	-12700
▁drama	-12701
▁elect	-12702
▁enzym	-12703
▁flash	-12704
▁gamma	-12705
▁giông	-12706
▁khiên	-12707
▁lipid	-12708
▁morph	-12709
▁nghẹt	-12710
▁ngoạn	-12711
▁nhược	-12712
▁nước	-12713
▁phình	-12714
▁ruộng	-12715
▁thiến	-12716
▁vinyl	-12717
aldehyd	-12718
braltar	-12719
iformes	-12720
lington	-12721
▁16.000	-12722
▁2007).	-12723
▁Albums	-12724
▁Bogotá	-12725
▁Brooks	-12726
▁Bukhar	-12727
▁Caribê	-12728
▁Darius	-12729
▁Doctor	-12730
▁Double	-12731
▁Energy	-12732
▁Evelyn	-12733
▁Falcon	-12734
▁Felipe	-12735
▁Fisher	-12736
▁Franco	-12737
▁Gambia	-12738
▁Gandhi	-12739
▁Gdańsk	-12740
▁Horton	-12741
▁Huawei	-12742
▁Hubert	-12743
▁Jeremy	-12744
▁Juliet	-12745
▁Kaiser	-12746
▁Khrush	-12747
▁Kimber	-12748
▁Korean	-12749
▁Kyrgyz	-12750
▁Leslie	-12751
▁Marine	-12752
▁McCart	-12753
▁Mercia	-12754
▁Merlyn	-12755
▁Midway	-12756
▁Monroe	-12757
▁Nippon	-12758
▁Orange	-12759
▁Oricon	-12760
▁Penang	-12761
▁People	-12762
▁Pleist	-12763
▁Pythag	-12764
▁Quincy	-12765
▁Rahman	-12766
▁Reeves	-12767
▁Rostov	-12768
▁Rovers	-12769
▁Secret	-12770
▁Senior	-12771
▁Sheila	-12772
▁Skyler	-12773
▁Sports	-12774
▁States	-12775
▁Tahiti	-12776
▁Toyota	-12777
▁Wagner	-12778
▁Wesley	-12779
▁cacbua	-12780
▁casino	-12781
▁inches	-12782
▁nitric	-12783
▁nitrua	-12784
▁quyết	-12785
▁thiết	-12786
▁thống	-12787
▁visual	-12788
........	-12789
American	-12790
ationale	-12791
▁Alberto	-12792
▁Alfredo	-12793
▁Antoine	-12794
▁Astoria	-12795
▁Capital	-12796
▁Captain	-12797
▁Claudia	-12798
▁Clayton	-12799
▁Command	-12800
▁Concert	-12801
▁Destiny	-12802
▁Dolores	-12803
▁Eastern	-12804
▁Fantasy	-12805
▁Franken	-12806
▁Georges	-12807
▁Godfrey	-12808
▁Grayson	-12809
▁Halifax	-12810
▁Hawkins	-12811
▁Heights	-12812
▁Holland	-12813
▁Insider	-12814
▁Jenkins	-12815
▁Krypton	-12816
▁Latakia	-12817
▁Lorentz	-12818
▁Maarrat	-12819
▁Malacca	-12820
▁Martine	-12821
▁Michele	-12822
▁Mikhael	-12823
▁Nairobi	-12824
▁Pasteur	-12825
▁Princip	-12826
▁Ricardo	-12827
▁Romance	-12828
▁Satsuma	-12829
▁Simpson	-12830
▁Singles	-12831
▁Stannis	-12832
▁Streets	-12833
▁Trotsky	-12834
▁Whitney	-12835
▁nghiệp	-12836
formation	-12837
▁Andersen	-12838
▁Barbados	-12839
▁Bernardo	-12840
▁Budapest	-12841
▁Carnegie	-12842
▁Castillo	-12843
▁Charlton	-12844
▁Cromwell	-12845
▁Giuseppe	-12846
▁Greatest	-12847
▁Guinness	-12848
▁Hannover	-12849
▁Istanbul	-12850
▁Maldives	-12851
▁Mohammed	-12852
▁Nacional	-12853
▁Northern	-12854
▁Olympics	-12855
▁Patricia	-12856
▁Phillips	-12857
▁Reynolds	-12858
▁Sihanouk	-12859
▁Starling	-12860
▁Superman	-12861
▁collagen	-12862
▁neutrino	-12863
▁nicotine	-12864
readnought	-12865
▁Animation	-12866
▁Auschwitz	-12867
▁Benevento	-12868
▁Bonaparte	-12869
▁Boucheron	-12870
▁Byzantium	-12871
▁Caledonia	-12872
▁Catalonia	-12873
▁Christina	-12874
▁Christmas	-12875
▁Gibraltar	-12876
▁Katipunan	-12877
▁Nashville	-12878
▁Rodrigues	-12879
▁Septimius	-12880
▁Sukhothai	-12881
▁Wisconsin	-12882
▁Worldwide	-12883
ternational	-12884
▁Cappadocia	-12885
▁Paralympic	-12886
▁Petersburg	-12887
▁Pittsburgh	-12888
▁Revolution	-12889
▁Sunderland	-12890
▁Wellington	-12891
▁Constantius	-12892
▁Livingstone	-12893
▁Indianapolis	-12894
*.	-12895
,'	-12896
,”	-12897
09	-12898
59	-12899
:"	-12900
AU	-12901
Af	-12902
Ah	-12903
BB	-12904
BP	-12905
CE	-12906
CM	-12907
CS	-12908
Ca	-12909
En	-12910
FP	-12911
IG	-12912
Ir	-12913
JA	-12914
LO	-12915
OK	-12916
PA	-12917
PI	-12918
PT	-12919
RC	-12920
SD	-12921
TI	-12922
Vô	-12923
WC	-12924
bà	-12925
du	-12926
kể	-12927
kỳ	-12928
lé	-12929
py	-12930
pơ	-12931
qa	-12932
sf	-12933
vy	-12934
vị	-12935
ws	-12936
xã	-12937
áv	-12938
ío	-12939
ól	-12940
óó	-12941
ān	-12942
đê	-12943
đồ	-12944
̃u	-12945
не	-12946
ор	-12947
ịa	-12948
ỷu	-12949
▁ê	-12950
#29	-12951
-3,	-12952
-55	-12953
-60	-12954
.".	-12955
72;	-12956
?",	-12957
?".	-12958
?).	-12959
All	-12960
BWV	-12961
Box	-12962
Cha	-12963
CoA	-12964
Câu	-12965
Est	-12966
FTA	-12967
Hen	-12968
Her	-12969
KBH	-12970
Mus	-12971
New	-12972
RAM	-12973
Ray	-12974
Rep	-12975
Rob	-12976
Sch	-12977
Spe	-12978
Top	-12979
^{2	-12980
aca	-12981
ack	-12982
afi	-12983
aks	-12984
asi	-12985
ayy	-12986
bal	-12987
bro	-12988
ced	-12989
cin	-12990
cái	-12991
cậu	-12992
dar	-12993
deb	-12994
dic	-12995
dom	-12996
egh	-12997
ems	-12998
eok	-12999
epp	-13000
eye	-13001
fin	-13002
flo	-13003
ful	-13004
gai	-13005
gio	-13006
giờ	-13007
hau	-13008
hee	-13009
hop	-13010
ief	-13011
iej	-13012
iro	-13013
iza	-13014
ián	-13015
jaz	-13016
kid	-13017
las	-13018
lav	-13019
lúc	-13020
lại	-13021
lần	-13022
mod	-13023
mán	-13024
môn	-13025
mùa	-13026
nag	-13027
nań	-13028
nhũ	-13029
nis	-13030
obo	-13031
ogo	-13032
oun	-13033
oxy	-13034
pen	-13035
qua	-13036
qui	-13037
rel	-13038
ror	-13039
rys	-13040
rất	-13041
rập	-13042
sao	-13043
sti	-13044
tal	-13045
tec	-13046
tef	-13047
too	-13048
trị	-13049
tus	-13050
uns	-13051
urs	-13052
val	-13053
vit	-13054
vua	-13055
xon	-13056
xyl	-13057
xây	-13058
yrr	-13059
zel	-13060
zon	-13061
ẫn	-13062
ẩm	-13063
éal	-13064
ồn	-13065
đại	-13066
ướn	-13067
–18	-13068
▁"'	-13069
▁$1	-13070
▁-2	-13071
▁07	-13072
▁2%	-13073
▁2-	-13074
▁3)	-13075
▁4)	-13076
▁78	-13077
▁8-	-13078
▁86	-13079
▁AK	-13080
▁AT	-13081
▁BR	-13082
▁Bổ	-13083
▁CM	-13084
▁CR	-13085
▁CV	-13086
▁Cỗ	-13087
▁Dw	-13088
▁Dạ	-13089
▁Dễ	-13090
▁Dị	-13091
▁Eg	-13092
▁Ek	-13093
▁Eu	-13094
▁GE	-13095
▁GS	-13096
▁HA	-13097
▁Hộ	-13098
▁If	-13099
▁Jó	-13100
▁Lh	-13101
▁Lê	-13102
▁Lò	-13103
▁Lỡ	-13104
▁MB	-13105
▁NY	-13106
▁RV	-13107
▁SD	-13108
▁SW	-13109
▁Sô	-13110
▁Sợ	-13111
▁Tí	-13112
▁Tề	-13113
▁Va	-13114
▁Zw	-13115
▁ap	-13116
▁av	-13117
▁bú	-13118
▁ev	-13119
▁gả	-13120
▁hủ	-13121
▁kH	-13122
▁ll	-13123
▁lả	-13124
▁lự	-13125
▁om	-13126
▁ps	-13127
▁sỡ	-13128
▁sụ	-13129
▁tỵ	-13130
▁uế	-13131
▁Đỗ	-13132
▁đọ	-13133
▁Ưu	-13134
▁ầm	-13135
Cola	-13136
Fran	-13137
Gate	-13138
IATA	-13139
Ngôi	-13140
Phim	-13141
Spot	-13142
Tình	-13143
West	-13144
abil	-13145
acet	-13146
adan	-13147
ahar	-13148
ains	-13149
akul	-13150
alit	-13151
aper	-13152
apor	-13153
aram	-13154
aret	-13155
arre	-13156
arum	-13157
ashv	-13158
athy	-13159
atti	-13160
atts	-13161
auer	-13162
bank	-13163
berl	-13164
calo	-13165
chon	-13166
chưa	-13167
cius	-13168
coni	-13169
cter	-13170
ding	-13171
ebel	-13172
ecom	-13173
edom	-13174
emat	-13175
enue	-13176
erta	-13177
esch	-13178
esta	-13179
etok	-13180
evan	-13181
fell	-13182
ffer	-13183
fica	-13184
flix	-13185
frac	-13186
ftwa	-13187
gain	-13188
gard	-13189
giải	-13190
guet	-13191
heim	-13192
horn	-13193
ieri	-13194
ikan	-13195
ilet	-13196
ilin	-13197
illi	-13198
ilos	-13199
ilus	-13200
inda	-13201
ingu	-13202
ioid	-13203
ipio	-13204
iros	-13205
isse	-13206
ists	-13207
ivar	-13208
iếm	-13209
iễn	-13210
iềng	-13211
juku	-13212
leet	-13213
lers	-13214
lood	-13215
math	-13216
mers	-13217
mour	-13218
ohex	-13219
olar	-13220
olfo	-13221
oody	-13222
oque	-13223
oras	-13224
otin	-13225
oule	-13226
ours	-13227
oway	-13228
phis	-13229
quốc	-13230
rann	-13231
rary	-13232
reet	-13233
rero	-13234
rial	-13235
roft	-13236
skiy	-13237
sons	-13238
stra	-13239
text	-13240
thật	-13241
uber	-13242
ulet	-13243
ulia	-13244
ulus	-13245
uste	-13246
usty	-13247
utsu	-13248
utus	-13249
vert	-13250
yang	-13251
ydon	-13252
ymer	-13253
ynet	-13254
ynia	-13255
ynth	-13256
ysis	-13257
ytes	-13258
édér	-13259
ópez	-13260
ẳng	-13261
đồng	-13262
–190	-13263
–200	-13264
▁(0.	-13265
▁(2)	-13266
▁(21	-13267
▁(27	-13268
▁0,1	-13269
▁1,3	-13270
▁1.6	-13271
▁115	-13272
▁14%	-13273
▁147	-13274
▁151	-13275
▁162	-13276
▁2).	-13277
▁205	-13278
▁240	-13279
▁30.	-13280
▁31.	-13281
▁310	-13282
▁35.	-13283
▁40,	-13284
▁40.	-13285
▁45.	-13286
▁58,	-13287
▁58.	-13288
▁60,	-13289
▁64,	-13290
▁70,	-13291
▁80,	-13292
▁95%	-13293
▁ASD	-13294
▁Alz	-13295
▁Bod	-13296
▁Bry	-13297
▁Byd	-13298
▁Bạo	-13299
▁Bồi	-13300
▁Cow	-13301
▁Cox	-13302
▁Cra	-13303
▁Cru	-13304
▁Cub	-13305
▁Cáo	-13306
▁Dup	-13307
▁Equ	-13308
▁Ery	-13309
▁Eud	-13310
▁Fro	-13311
▁Già	-13312
▁Goo	-13313
▁Haf	-13314
▁Haz	-13315
▁Hoá	-13316
▁Hoả	-13317
▁Hur	-13318
▁Inn	-13319
▁Jag	-13320
▁Jes	-13321
▁Jet	-13322
▁Jis	-13323
▁Kah	-13324
▁Kap	-13325
▁Kel	-13326
▁Kra	-13327
▁LAN	-13328
▁LST	-13329
▁Lic	-13330
▁Lil	-13331
▁Loc	-13332
▁MBC	-13333
▁MMO	-13334
▁Mei	-13335
▁Miz	-13336
▁Mát	-13337
▁Mül	-13338
▁Mưa	-13339
▁Nai	-13340
▁Ned	-13341
▁Nou	-13342
▁Nối	-13343
▁Pik	-13344
▁Rak	-13345
▁Rao	-13346
▁Rig	-13347
▁Rin	-13348
▁Riy	-13349
▁Roc	-13350
▁Rus	-13351
▁SIM	-13352
▁Set	-13353
▁Sho	-13354
▁Shu	-13355
▁Tek	-13356
▁Tạm	-13357
▁Umm	-13358
▁Ves	-13359
▁Vid	-13360
▁Vig	-13361
▁Viz	-13362
▁Vod	-13363
▁Vạn	-13364
▁Vốn	-13365
▁WHO	-13366
▁WWE	-13367
▁Wak	-13368
▁Wed	-13369
▁Wei	-13370
▁Wel	-13371
▁Woo	-13372
▁XVI	-13373
▁Yan	-13374
▁Yar	-13375
▁bon	-13376
▁bầm	-13377
▁bần	-13378
▁coh	-13379
▁cop	-13380
▁cật	-13381
▁củi	-13382
▁day	-13383
▁don	-13384
▁dìm	-13385
▁dạt	-13386
▁dốt	-13387
▁fac	-13388
▁fam	-13389
▁flu	-13390
▁fra	-13391
▁ghề	-13392
▁giã	-13393
▁gập	-13394
▁gật	-13395
▁her	-13396
▁huh	-13397
▁hấu	-13398
▁hốc	-13399
▁két	-13400
▁kền	-13401
▁lat	-13402
▁lys	-13403
▁lõa	-13404
▁lằn	-13405
▁lẻo	-13406
▁mer	-13407
▁môt	-13408
▁mõm	-13409
▁mút	-13410
▁nhổ	-13411
▁noi	-13412
▁nêm	-13413
▁nữ	-13414
▁nặc	-13415
▁oxi	-13416
▁pod	-13417
▁què	-13418
▁rẫy	-13419
▁set	-13420
▁suc	-13421
▁sợ	-13422
▁sảo	-13423
▁sậy	-13424
▁teo	-13425
▁toạ	-13426
▁trĩ	-13427
▁tít	-13428
▁túp	-13429
▁tỏi	-13430
▁tủa	-13431
▁vít	-13432
▁xao	-13433
▁xoá	-13434
▁xắn	-13435
▁ôxi	-13436
▁Đùa	-13437
▁Đẹp	-13438
▁Đều	-13439
▁đái	-13440
#297;	-13441
.....	-13442
Chính	-13443
Tháng	-13444
ablan	-13445
ación	-13446
actam	-13447
adena	-13448
agram	-13449
allow	-13450
amura	-13451
angel	-13452
anium	-13453
asmus	-13454
avong	-13455
aware	-13456
azaki	-13457
cules	-13458
ellig	-13459
ensen	-13460
epine	-13461
eries	-13462
ianne	-13463
icano	-13464
idase	-13465
ifada	-13466
ilipp	-13467
immer	-13468
inity	-13469
ipper	-13470
iritu	-13471
iscus	-13472
isión	-13473
ledge	-13474
nheim	-13475
nounc	-13476
olulu	-13477
oross	-13478
othra	-13479
phiên	-13480
phone	-13481
porin	-13482
quest	-13483
rahim	-13484
umber	-13485
ustaf	-13486
uthor	-13487
ández	-13488
ưởng	-13489
▁1808	-13490
▁1870	-13491
▁1876	-13492
▁1897	-13493
▁1906	-13494
▁1926	-13495
▁8000	-13496
▁Amos	-13497
▁Anti	-13498
▁Atom	-13499
▁Bets	-13500
▁Bomb	-13501
▁Boyd	-13502
▁Bram	-13503
▁Brom	-13504
▁Buch	-13505
▁Cait	-13506
▁Camb	-13507
▁Chac	-13508
▁Chad	-13509
▁Chhu	-13510
▁Chụp	-13511
▁Cold	-13512
▁Conf	-13513
▁Cont	-13514
▁Cumm	-13515
▁Cyan	-13516
▁DBMS	-13517
▁Dahl	-13518
▁Days	-13519
▁Deir	-13520
▁Dent	-13521
▁Dinh	-13522
▁Dopp	-13523
▁Dors	-13524
▁Drey	-13525
▁Emir	-13526
▁Eniw	-13527
▁Enix	-13528
▁Expo	-13529
▁Extr	-13530
▁Face	-13531
▁Fast	-13532
▁Five	-13533
▁Gale	-13534
▁Gaon	-13535
▁Gees	-13536
▁Gond	-13537
▁Gonz	-13538
▁Gott	-13539
▁Gren	-13540
▁Gulf	-13541
▁Half	-13542
▁Haut	-13543
▁Here	-13544
▁Hors	-13545
▁Hyun	-13546
▁Hùng	-13547
▁Illy	-13548
▁Jazz	-13549
▁Jeol	-13550
▁Joan	-13551
▁Joel	-13552
▁June	-13553
▁Khun	-13554
▁Khám	-13555
▁Khải	-13556
▁Kiên	-13557
▁Kiệt	-13558
▁Kond	-13559
▁Kras	-13560
▁Krem	-13561
▁Kush	-13562
▁Labs	-13563
▁Lanc	-13564
▁Leic	-13565
▁Liều	-13566
▁Look	-13567
▁Lost	-13568
▁Maas	-13569
▁Marg	-13570
▁Marl	-13571
▁Mile	-13572
▁Ming	-13573
▁Mord	-13574
▁Mour	-13575
▁Mảnh	-13576
▁Narc	-13577
▁Nats	-13578
▁Neum	-13579
▁Nghề	-13580
▁Niss	-13581
▁Nott	-13582
▁Oslo	-13583
▁Phái	-13584
▁Phán	-13585
▁Poll	-13586
▁Pueb	-13587
▁Quán	-13588
▁Rhod	-13589
▁Ries	-13590
▁Rush	-13591
▁SUSE	-13592
▁Shap	-13593
▁Shib	-13594
▁Sind	-13595
▁Slam	-13596
▁Ster	-13597
▁Stro	-13598
▁Stur	-13599
▁Suýt	-13600
▁Teat	-13601
▁Teng	-13602
▁That	-13603
▁Tiếc	-13604
▁True	-13605
▁Trum	-13606
▁Trải	-13607
▁Turn	-13608
▁Utah	-13609
▁Vale	-13610
▁Verm	-13611
▁Vern	-13612
▁Virg	-13613
▁Vist	-13614
▁Volk	-13615
▁Vượt	-13616
▁Walk	-13617
▁Wing	-13618
▁XIII	-13619
▁Year	-13620
▁Yuri	-13621
▁Zhao	-13622
▁acet	-13623
▁axít	-13624
▁bỉnh	-13625
▁carb	-13626
▁chèn	-13627
▁chỗ	-13628
▁chừa	-13629
▁cond	-13630
▁cẳng	-13631
▁demo	-13632
▁dông	-13633
▁eBay	-13634
▁form	-13635
▁ghim	-13636
▁găng	-13637
▁hist	-13638
▁hook	-13639
▁kỉnh	-13640
▁live	-13641
▁luồn	-13642
▁luộc	-13643
▁lóng	-13644
▁lười	-13645
▁lảng	-13646
▁mRNA	-13647
▁mill	-13648
▁mini	-13649
▁mỗi	-13650
▁mức	-13651
▁mượt	-13652
▁ngờ	-13653
▁nhúc	-13654
▁nhầy	-13655
▁nhằn	-13656
▁nhịn	-13657
▁nhớt	-13658
▁nuối	-13659
▁oanh	-13660
▁open	-13661
▁phố	-13662
▁rình	-13663
▁rượt	-13664
▁rạng	-13665
▁sủng	-13666
▁tell	-13667
▁ther	-13668
▁thóc	-13669
▁thốn	-13670
▁tội	-13671
▁viol	-13672
▁văng	-13673
▁yard	-13674
▁ôxít	-13675
▁Điên	-13676
▁đấu	-13677
▁độc	-13678
#7921;	-13679
Arthur	-13680
Europe	-13681
Script	-13682
accine	-13683
achsen	-13684
active	-13685
aeamys	-13686
ailles	-13687
amount	-13688
cliffe	-13689
evideo	-13690
ffeine	-13691
goszcz	-13692
iaceae	-13693
icanus	-13694
illand	-13695
insula	-13696
inting	-13697
izzard	-13698
nguyên	-13699
ofield	-13700
ophone	-13701
orning	-13702
phorus	-13703
ubishi	-13704
uction	-13705
ussels	-13706
utsche	-13707
énégal	-13708
▁#272;	-13709
▁1.300	-13710
▁1840,	-13711
▁1861,	-13712
▁1904,	-13713
▁1914,	-13714
▁1925.	-13715
▁1933.	-13716
▁1936.	-13717
▁1967.	-13718
▁1983.	-13719
▁1995)	-13720
▁7.000	-13721
▁8.000	-13722
▁ALKBH	-13723
▁Abdel	-13724
▁Abram	-13725
▁After	-13726
▁Alban	-13727
▁Alger	-13728
▁Andor	-13729
▁Anglo	-13730
▁Aquit	-13731
▁Atari	-13732
▁Athen	-13733
▁Aztec	-13734
▁Bened	-13735
▁Bever	-13736
▁Bénin	-13737
▁Chiếm	-13738
▁Chánh	-13739
▁Chủng	-13740
▁Civil	-13741
▁Coast	-13742
▁Cohen	-13743
▁Colin	-13744
▁Coral	-13745
▁Coron	-13746
▁Corte	-13747
▁Craig	-13748
▁Cường	-13749
▁Daryl	-13750
▁Demet	-13751
▁Derek	-13752
▁Donna	-13753
▁Drive	-13754
▁Ebola	-13755
▁Essex	-13756
▁Flynn	-13757
▁Front	-13758
▁Gauss	-13759
▁Gavin	-13760
▁Gener	-13761
▁Giêsu	-13762
▁Golan	-13763
▁Gould	-13764
▁Hejaz	-13765
▁Hindi	-13766
▁Hoang	-13767
▁Horse	-13768
▁Hyder	-13769
▁Irene	-13770
▁Jared	-13771
▁Johan	-13772
▁Johor	-13773
▁Jorge	-13774
▁Julio	-13775
▁Keith	-13776
▁Khufu	-13777
▁Khuôn	-13778
▁Khổng	-13779
▁Kling	-13780
▁Leigh	-13781
▁Lenin	-13782
▁Leone	-13783
▁Liber	-13784
▁Liszt	-13785
▁Lotte	-13786
▁López	-13787
▁Magic	-13788
▁Maori	-13789
▁Marty	-13790
▁Medic	-13791
▁Moran	-13792
▁Morph	-13793
▁Nefer	-13794
▁Paolo	-13795
▁Peace	-13796
▁Penny	-13797
▁Petit	-13798
▁Piper	-13799
▁Plant	-13800
▁Plaza	-13801
▁Prusa	-13802
▁Puget	-13803
▁Qaeda	-13804
▁Quest	-13805
▁Reyes	-13806
▁Roads	-13807
▁Saman	-13808
▁Sammy	-13809
▁Satan	-13810
▁Saxon	-13811
▁Scher	-13812
▁Schum	-13813
▁Shaun	-13814
▁Sofia	-13815
▁Sonny	-13816
▁Speed	-13817
▁Third	-13818
▁Thuận	-13819
▁Thạch	-13820
▁Today	-13821
▁Toshi	-13822
▁Tower	-13823
▁Tunis	-13824
▁Tutsi	-13825
▁Urban	-13826
▁Volga	-13827
▁Wally	-13828
▁Weber	-13829
▁Willy	-13830
▁Wolff	-13831
▁Yusuf	-13832
▁biến	-13833
▁buổi	-13834
▁cello	-13835
▁cuối	-13836
▁cuống	-13837
▁della	-13838
▁giữa	-13839
▁hiđrô	-13840
▁khuỷu	-13841
▁loanh	-13842
▁micro	-13843
▁nhập	-13844
▁nhích	-13845
▁phồng	-13846
▁quẳng	-13847
▁salad	-13848
▁tuông	-13849
▁viện	-13850
▁đứng	-13851
Germain	-13852
Univers	-13853
ambique	-13854
asaurus	-13855
ashvili	-13856
ellenza	-13857
ftwaffe	-13858
imethyl	-13859
ography	-13860
otropin	-13861
ramento	-13862
▁(1997)	-13863
▁(2009)	-13864
▁15.000	-13865
▁2010).	-13866
▁2014).	-13867
▁2017).	-13868
▁25.000	-13869
▁Amenem	-13870
▁Andrei	-13871
▁Andrey	-13872
▁Austin	-13873
▁Basque	-13874
▁Beatty	-13875
▁Brutus	-13876
▁Chocol	-13877
▁Chuông	-13878
▁Econom	-13879
▁Elliot	-13880
▁Enrico	-13881
▁Esther	-13882
▁Flying	-13883
▁Fraser	-13884
▁French	-13885
▁García	-13886
▁Gustaf	-13887
▁Gustav	-13888
▁Hallow	-13889
▁Hansen	-13890
▁Harald	-13891
▁Heaven	-13892
▁Holmes	-13893
▁Ingrid	-13894
▁Jessie	-13895
▁Julian	-13896
▁Kerala	-13897
▁Khlong	-13898
▁Konami	-13899
▁Krakow	-13900
▁Linkin	-13901
▁Madame	-13902
▁Maduro	-13903
▁Magdal	-13904
▁Makoto	-13905
▁Marino	-13906
▁McCain	-13907
▁Milano	-13908
▁Mirage	-13909
▁Monter	-13910
▁Montes	-13911
▁Nghiêm	-13912
▁Người	-13913
▁Olivia	-13914
▁Pierce	-13915
▁Police	-13916
▁Pompey	-13917
▁Poznań	-13918
▁Prague	-13919
▁Ptolem	-13920
▁Punjab	-13921
▁Ranger	-13922
▁Resort	-13923
▁Riyadh	-13924
▁Saturn	-13925
▁Scotia	-13926
▁Sekhem	-13927
▁Sergei	-13928
▁Shōnen	-13929
▁Social	-13930
▁Somali	-13931
▁Stefan	-13932
▁Steins	-13933
▁Stevie	-13934
▁Toledo	-13935
▁Travis	-13936
▁Volume	-13937
▁Yellow	-13938
▁Yoshim	-13939
▁Zurich	-13940
▁aikido	-13941
▁cation	-13942
▁chường	-13943
▁corona	-13944
▁khiêng	-13945
▁nhoáng	-13946
▁phenol	-13947
▁phượng	-13948
▁poster	-13949
▁sulfur	-13950
▁thuộc	-13951
▁tiếng	-13952
▁triệu	-13953
▁truồng	-13954
▁trượng	-13955
▁tưởng	-13956
▁violin	-13957
hydrogen	-13958
▁100,000	-13959
▁600.000	-13960
▁Allison	-13961
▁Bougain	-13962
▁Breguet	-13963
▁Britney	-13964
▁Buffalo	-13965
▁Burundi	-13966
▁Candice	-13967
▁Caracas	-13968
▁Caspian	-13969
▁Castile	-13970
▁Chapman	-13971
▁Collins	-13972
▁Corinth	-13973
▁Council	-13974
▁Dengeki	-13975
▁Diamond	-13976
▁Evening	-13977
▁Factory	-13978
▁Fernand	-13979
▁Freeman	-13980
▁Hammond	-13981
▁Hanover	-13982
▁Heather	-13983
▁Holiday	-13984
▁Hopkins	-13985
▁Ibrahim	-13986
▁Justice	-13987
▁Kashmir	-13988
▁Lambert	-13989
▁Langley	-13990
▁Lazarus	-13991
▁Liberty	-13992
▁Mikhail	-13993
▁Moravia	-13994
▁Mystery	-13995
▁Nahuatl	-13996
▁Nielsen	-13997
▁Pegasus	-13998
▁Pereira	-13999
▁Phantom	-14000
▁Preview	-14001
▁Proctor	-14002
▁Reserve	-14003
▁Ronaldo	-14004
▁Russian	-14005
▁Service	-14006
▁Shannon	-14007
▁Special	-14008
▁Springs	-14009
▁Stadium	-14010
▁Stanisl	-14011
▁Station	-14012
▁Tonight	-14013
▁Travers	-14014
▁Trinity	-14015
▁Tripura	-14016
▁Ulysses	-14017
▁Vistula	-14018
▁Walmart	-14019
▁Wyoming	-14020
▁chuyển	-14021
▁desktop	-14022
▁dioxide	-14023
▁entropy	-14024
▁thường	-14025
▁trailer	-14026
▁truyền	-14027
▁trưởng	-14028
ification	-14029
▁Aircraft	-14030
▁Alliance	-14031
▁Augsburg	-14032
▁Augustin	-14033
▁Avengers	-14034
▁Blizzard	-14035
▁Bolesław	-14036
▁Bordeaux	-14037
▁Brighton	-14038
▁Brussels	-14039
▁Caesarea	-14040
▁Canberra	-14041
▁Cornwall	-14042
▁Dalmatia	-14043
▁Delaware	-14044
▁Emmanuel	-14045
▁Eniwetok	-14046
▁Espiritu	-14047
▁European	-14048
▁Guardian	-14049
▁Hebrides	-14050
▁Hercules	-14051
▁Honolulu	-14052
▁Imperial	-14053
▁Isaakios	-14054
▁Martinez	-14055
▁Midlands	-14056
▁Motorola	-14057
▁Mourinho	-14058
▁Nobunaga	-14059
▁Official	-14060
▁Platform	-14061
▁Princess	-14062
▁Pyrenees	-14063
▁Scarlett	-14064
▁Sporting	-14065
▁Stirling	-14066
▁Tashkent	-14067
▁Thutmose	-14068
▁acetylch	-14069
▁caffeine	-14070
▁dopamine	-14071
▁frazioni	-14072
▁hydroxyl	-14073
▁Bolshevik	-14074
▁Bydgoszcz	-14075
▁Cavendish	-14076
▁Havilland	-14077
▁Heraclius	-14078
▁Hylaeamys	-14079
▁Leicester	-14080
▁Leningrad	-14081
▁Lightning	-14082
▁Luftwaffe	-14083
▁MacArthur	-14084
▁McCartney	-14085
▁Newcastle	-14086
▁Paramount	-14087
▁Peninsula	-14088
▁Philippos	-14089
▁Polynesia	-14090
▁Spielberg	-14091
▁Valentine	-14092
▁Wikimedia	-14093
▁container	-14094
▁marketing	-14095
#432;#7899;	-14096
▁Bennington	-14097
▁Eccellenza	-14098
▁Electronic	-14099
▁Georgetown	-14100
▁Gyeongsang	-14101
▁Kensington	-14102
▁Mitsubishi	-14103
▁Montevideo	-14104
▁Mozambique	-14105
▁Philippine	-14106
▁Portsmouth	-14107
▁Schumacher	-14108
▁Wallenberg	-14109
▁Winterfell	-14110
▁Constantine	-14111
International	-14112
▁Bougainville	-14113
▁Metropolitan	-14114
▁Professional	-14115
!.	-14116
":	-14117
,}	-14118
07	-14119
4-	-14120
56	-14121
5:	-14122
94	-14123
AG	-14124
Ac	-14125
BY	-14126
Be	-14127
FG	-14128
Fe	-14129
Gu	-14130
HA	-14131
HD	-14132
Ho	-14133
If	-14134
Il	-14135
Ko	-14136
LM	-14137
LU	-14138
Mu	-14139
NR	-14140
Oh	-14141
PF	-14142
RI	-14143
Si	-14144
TY	-14145
Ti	-14146
To	-14147
Ts	-14148
Tớ	-14149
UI	-14150
VA	-14151
WP	-14152
WS	-14153
hu	-14154
iu	-14155
jm	-14156
jp	-14157
kế	-14158
nu	-14159
pô	-14160
uj	-14161
uo	-14162
về	-14163
yō	-14164
ák	-14165
ät	-14166
ìu	-14167
ós	-14168
ýc	-14169
Đã	-14170
łę	-14171
ūn	-14172
ат	-14173
ра	-14174
ễu	-14175
▁%	-14176
▁_	-14177
▁â	-14178
▁α	-14179
▁о	-14180
▁ụ	-14181
)).	-14182
)”.	-14183
-27	-14184
-3.	-14185
-34	-14186
-90	-14187
1,2	-14188
11,	-14189
11.	-14190
20)	-14191
28,	-14192
32)	-14193
:03	-14194
ARC	-14195
ART	-14196
Ara	-14197
Bao	-14198
Bản	-14199
Bắc	-14200
Bởi	-14201
COM	-14202
Chu	-14203
ClO	-14204
ELD	-14205
Gal	-14206
Gir	-14207
Hai	-14208
Hey	-14209
INN	-14210
Int	-14211
Lon	-14212
Mob	-14213
Mày	-14214
NCH	-14215
Phi	-14216
Sar	-14217
Sin	-14218
Tay	-14219
Tuy	-14220
Ver	-14221
Xem	-14222
ads	-14223
aft	-14224
aia	-14225
apa	-14226
aty	-14227
aws	-14228
ayr	-14229
bas	-14230
bis	-14231
boa	-14232
bok	-14233
cap	-14234
dia	-14235
dot	-14236
eba	-14237
ebi	-14238
enc	-14239
eom	-14240
eos	-14241
etl	-14242
fil	-14243
giá	-14244
gle	-14245
gon	-14246
hae	-14247
hei	-14248
hir	-14249
hon	-14250
hwa	-14251
iak	-14252
icô	-14253
iph	-14254
irō	-14255
jas	-14256
kat	-14257
lew	-14258
lic	-14259
lip	-14260
los	-14261
lot	-14262
lời	-14263
mag	-14264
mai	-14265
mor	-14266
mur	-14267
myō	-14268
mét	-14269
mọi	-14270
mới	-14271
nge	-14272
now	-14273
nut	-14274
nên	-14275
nền	-14276
oea	-14277
oge	-14278
ogn	-14279
omé	-14280
oti	-14281
otr	-14282
oty	-14283
oue	-14284
owo	-14285
oys	-14286
pol	-14287
rek	-14288
rev	-14289
rio	-14290
ruk	-14291
rup	-14292
rut	-14293
ríg	-14294
sar	-14295
sur	-14296
sức	-14297
thr	-14298
thư	-14299
tle	-14300
tâm	-14301
tân	-14302
ubi	-14303
upe	-14304
vor	-14305
văn	-14306
yer	-14307
zan	-14308
zef	-14309
zki	-14310
zôn	-14311
}}\	-14312
ấm	-14313
ève	-14314
été	-14315
ños	-14316
ône	-14317
ốt	-14318
üss	-14319
đơn	-14320
đưa	-14321
đạo	-14322
đối	-14323
łos	-14324
ẩng	-14325
–13	-14326
–15	-14327
▁#1	-14328
▁03	-14329
▁2)	-14330
▁3-	-14331
▁4-	-14332
▁87	-14333
▁Aw	-14334
▁BG	-14335
▁Bf	-14336
▁Bô	-14337
▁CJ	-14338
▁Ci	-14339
▁Dê	-14340
▁EM	-14341
▁FK	-14342
▁FX	-14343
▁GC	-14344
▁GP	-14345
▁GW	-14346
▁Hả	-14347
▁Iz	-14348
▁JJ	-14349
▁Ja	-14350
▁KC	-14351
▁KK	-14352
▁LG	-14353
▁ML	-14354
▁Mb	-14355
▁Mt	-14356
▁PL	-14357
▁PO	-14358
▁PV	-14359
▁Pf	-14360
▁RM	-14361
▁SE	-14362
▁SO	-14363
▁SR	-14364
▁SU	-14365
▁Sỹ	-14366
▁Tơ	-14367
▁VA	-14368
▁VH	-14369
▁Vä	-14370
▁Vẻ	-14371
▁Wu	-14372
▁XH	-14373
▁Zn	-14374
▁ag	-14375
▁cừ	-14376
▁ek	-14377
▁gừ	-14378
▁hờ	-14379
▁hử	-14380
▁lm	-14381
▁ml	-14382
▁mó	-14383
▁mỳ	-14384
▁nu	-14385
▁nỉ	-14386
▁pi	-14387
▁rộ	-14388
▁sà	-14389
▁us	-14390
▁vs	-14391
▁xư	-14392
▁xổ	-14393
▁xở	-14394
▁Ái	-14395
▁Ảo	-14396
-130	-14397
-16,	-14398
-19.	-14399
-198	-14400
:00.	-14401
Best	-14402
Danh	-14403
Just	-14404
Live	-14405
Ngày	-14406
Phần	-14407
Trái	-14408
Tổng	-14409
Việt	-14410
^{2}	-14411
_{2}	-14412
abit	-14413
acen	-14414
acia	-14415
aday	-14416
aden	-14417
aios	-14418
ajal	-14419
aldi	-14420
alon	-14421
aluc	-14422
amel	-14423
anes	-14424
aney	-14425
anha	-14426
anor	-14427
apre	-14428
arak	-14429
aric	-14430
arii	-14431
arle	-14432
arty	-14433
asak	-14434
asis	-14435
aste	-14436
atre	-14437
atta	-14438
atum	-14439
atán	-14440
aunt	-14441
ayen	-14442
azzo	-14443
bara	-14444
bled	-14445
bria	-14446
brok	-14447
bình	-14448
chia	-14449
chis	-14450
chân	-14451
egna	-14452
eker	-14453
endi	-14454
eneg	-14455
enze	-14456
eper	-14457
ermo	-14458
eson	-14459
este	-14460
ests	-14461
etas	-14462
ethi	-14463
etho	-14464
fect	-14465
fire	-14466
fred	-14467
ghuz	-14468
glyc	-14469
gold	-14470
hime	-14471
hion	-14472
hiri	-14473
hood	-14474
hàng	-14475
icho	-14476
ichy	-14477
idum	-14478
idus	-14479
iens	-14480
iful	-14481
ijah	-14482
iket	-14483
ikon	-14484
ilog	-14485
imar	-14486
imet	-14487
iola	-14488
ipal	-14489
ipat	-14490
ires	-14491
iria	-14492
irin	-14493
isto	-14494
ithu	-14495
itia	-14496
ivan	-14497
izer	-14498
iểm	-14499
iệm	-14500
iệt	-14501
jang	-14502
jong	-14503
kaku	-14504
kers	-14505
kham	-14506
kong	-14507
leen	-14508
loài	-14509
loại	-14510
mina	-14511
mine	-14512
mith	-14513
mont	-14514
moud	-14515
nell	-14516
nets	-14517
ngay	-14518
nger	-14519
ngôn	-14520
niss	-14521
obin	-14522
obos	-14523
ofer	-14524
ohan	-14525
okan	-14526
olam	-14527
oncé	-14528
onym	-14529
opus	-14530
orca	-14531
orms	-14532
osin	-14533
oter	-14534
otsk	-14535
pher	-14536
phản	-14537
ping	-14538
pole	-14539
popo	-14540
prot	-14541
quet	-14542
quil	-14543
rind	-14544
seau	-14545
siêu	-14546
spur	-14547
sten	-14548
then	-14549
tini	-14550
tinu	-14551
tion	-14552
tiền	-14553
tone	-14554
tori	-14555
tors	-14556
tram	-14557
trus	-14558
tsin	-14559
tuần	-14560
tăng	-14561
ukan	-14562
umen	-14563
urat	-14564
urus	-14565
usho	-14566
ushu	-14567
utto	-14568
west	-14569
wish	-14570
yeon	-14571
ylen	-14572
ynch	-14573
ztyn	-14574
ávez	-14575
ồng	-14576
önig	-14577
Đông	-14578
–197	-14579
▁(26	-14580
▁(4.	-14581
▁(50	-14582
▁(6,	-14583
▁(7.	-14584
▁1).	-14585
▁1.2	-14586
▁1.8	-14587
▁1/3	-14588
▁116	-14589
▁125	-14590
▁12:	-14591
▁136	-14592
▁144	-14593
▁23,	-14594
▁25,	-14595
▁26,	-14596
▁26.	-14597
▁270	-14598
▁305	-14599
▁36,	-14600
▁36.	-14601
▁4).	-14602
▁60.	-14603
▁64-	-14604
▁65%	-14605
▁98%	-14606
▁99%	-14607
▁Abe	-14608
▁Ahn	-14609
▁Ank	-14610
▁Ans	-14611
▁Arn	-14612
▁Ars	-14613
▁Aux	-14614
▁BMW	-14615
▁Biz	-14616
▁Bãi	-14617
▁Cag	-14618
▁Ces	-14619
▁Chū	-14620
▁Cân	-14621
▁Cẩm	-14622
▁Dia	-14623
▁Did	-14624
▁Dil	-14625
▁Dip	-14626
▁Dog	-14627
▁Dow	-14628
▁Dry	-14629
▁Dut	-14630
▁Dạy	-14631
▁Dậy	-14632
▁Dẹp	-14633
▁Ech	-14634
▁Esk	-14635
▁Eum	-14636
▁Fah	-14637
▁Fis	-14638
▁Fit	-14639
▁Fra	-14640
▁Fry	-14641
▁GPL	-14642
▁Gem	-14643
▁Gim	-14644
▁Gir	-14645
▁Gom	-14646
▁Gum	-14647
▁Guz	-14648
▁Gửi	-14649
▁Hex	-14650
▁Hip	-14651
▁Hmm	-14652
▁Hoh	-14653
▁Hye	-14654
▁Hyp	-14655
▁Hít	-14656
▁Hỗn	-14657
▁Hộp	-14658
▁IOC	-14659
▁IRS	-14660
▁ISS	-14661
▁Ill	-14662
▁Job	-14663
▁Jop	-14664
▁KBS	-14665
▁Khỉ	-14666
▁Kow	-14667
▁Kut	-14668
▁Lak	-14669
▁Led	-14670
▁Ler	-14671
▁Lex	-14672
▁Lug	-14673
▁Lys	-14674
▁Làn	-14675
▁Lầu	-14676
▁Lộc	-14677
▁Lợn	-14678
▁MAC	-14679
▁MSN	-14680
▁Meh	-14681
▁Mek	-14682
▁Mix	-14683
▁Moi	-14684
▁Mue	-14685
▁Mut	-14686
▁Ngộ	-14687
▁Nhẹ	-14688
▁Nấm	-14689
▁Ola	-14690
▁Ols	-14691
▁Ork	-14692
▁Our	-14693
▁Pai	-14694
▁Poh	-14695
▁RAM	-14696
▁RMS	-14697
▁Raw	-14698
▁Raz	-14699
▁Rib	-14700
▁Rid	-14701
▁Rôm	-14702
▁Rắc	-14703
▁SQL	-14704
▁Sae	-14705
▁See	-14706
▁Sek	-14707
▁Sex	-14708
▁Sok	-14709
▁Spl	-14710
▁Suh	-14711
▁Sán	-14712
▁Sữa	-14713
▁Thy	-14714
▁Thẻ	-14715
▁Tib	-14716
▁Tip	-14717
▁Tou	-14718
▁UFC	-14719
▁Vad	-14720
▁Vau	-14721
▁Vắc	-14722
▁Wah	-14723
▁Wan	-14724
▁Whi	-14725
▁XML	-14726
▁Yah	-14727
▁Yao	-14728
▁Yaz	-14729
▁Yel	-14730
▁Yes	-14731
▁Yon	-14732
▁Yun	-14733
▁Yup	-14734
▁Yếu	-14735
▁Zor	-14736
▁aco	-14737
▁bel	-14738
▁ber	-14739
▁bén	-14740
▁băm	-14741
▁bới	-14742
▁bứt	-14743
▁cau	-14744
▁chê	-14745
▁cup	-14746
▁cọc	-14747
▁dia	-14748
▁dễ	-14749
▁dấn	-14750
▁dầm	-14751
▁gig	-14752
▁giở	-14753
▁găm	-14754
▁gạc	-14755
▁han	-14756
▁har	-14757
▁hel	-14758
▁him	-14759
▁hop	-14760
▁hàu	-14761
▁hất	-14762
▁hốt	-14763
▁hời	-14764
▁ibn	-14765
▁iot	-14766
▁kan	-14767
▁ket	-14768
▁kin	-14769
▁lib	-14770
▁lim	-14771
▁liu	-14772
▁low	-14773
▁luy	-14774
▁lìa	-14775
▁lõm	-14776
▁lụy	-14777
▁mao	-14778
▁mot	-14779
▁mận	-14780
▁mụn	-14781
▁nhử	-14782
▁nài	-14783
▁núm	-14784
▁núp	-14785
▁nạo	-14786
▁nấy	-14787
▁oai	-14788
▁oct	-14789
▁off	-14790
▁pao	-14791
▁phò	-14792
▁pic	-14793
▁ran	-14794
▁rat	-14795
▁reg	-14796
▁rep	-14797
▁res	-14798
▁rèm	-14799
▁răn	-14800
▁rươ	-14801
▁rắm	-14802
▁rợn	-14803
▁sel	-14804
▁sub	-14805
▁sạt	-14806
▁sếu	-14807
▁tet	-14808
▁thớ	-14809
▁tệ	-14810
▁tửu	-14811
▁vul	-14812
▁vệ	-14813
▁vữa	-14814
▁xúi	-14815
▁xỉu	-14816
▁xốt	-14817
▁Đau	-14818
▁Đầy	-14819
▁đỡ	-14820
CACAF	-14821
Cloud	-14822
Craft	-14823
First	-14824
Inter	-14825
Sweet	-14826
Thiên	-14827
Thông	-14828
Works	-14829
ables	-14830
abuki	-14831
abyte	-14832
achia	-14833
ading	-14834
agher	-14835
ahari	-14836
annes	-14837
arium	-14838
atron	-14839
atter	-14840
ayyad	-14841
borne	-14842
cegov	-14843
child	-14844
dison	-14845
elian	-14846
emens	-14847
emyon	-14848
eolus	-14849
eomen	-14850
ernel	-14851
estro	-14852
ettys	-14853
ffiti	-14854
floor	-14855
force	-14856
giers	-14857
giống	-14858
illon	-14859
imier	-14860
iones	-14861
ipzig	-14862
isher	-14863
iskey	-14864
isner	-14865
itect	-14866
itics	-14867
ities	-14868
itron	-14869
mandy	-14870
ngoài	-14871
odesk	-14872
ofsky	-14873
oichi	-14874
okawa	-14875
ombie	-14876
onchi	-14877
ophen	-14878
orian	-14879
osuke	-14880
ouard	-14881
ovela	-14882
pachi	-14883
phora	-14884
quila	-14885
raine	-14886
reira	-14887
riend	-14888
rince	-14889
thuộc	-14890
toria	-14891
ulata	-14892
unity	-14893
urday	-14894
urias	-14895
urion	-14896
ushin	-14897
utsal	-14898
world	-14899
yclin	-14900
▁#790	-14901
▁(12,	-14902
▁(192	-14903
▁(194	-14904
▁1700	-14905
▁1815	-14906
▁1860	-14907
▁1874	-14908
▁1889	-14909
▁1898	-14910
▁2021	-14911
▁2022	-14912
▁Abby	-14913
▁Acha	-14914
▁Adri	-14915
▁Aizu	-14916
▁Alma	-14917
▁Amor	-14918
▁Anch	-14919
▁Anpơ	-14920
▁Aram	-14921
▁Aron	-14922
▁Arri	-14923
▁Baku	-14924
▁Bali	-14925
▁Bari	-14926
▁Base	-14927
▁Beam	-14928
▁Bend	-14929
▁Biel	-14930
▁Both	-14931
▁Bowl	-14932
▁Brat	-14933
▁Brow	-14934
▁Burj	-14935
▁Case	-14936
▁Chip	-14937
▁Choi	-14938
▁Chop	-14939
▁Chow	-14940
▁Chuk	-14941
▁Chấp	-14942
▁Cinc	-14943
▁Cobb	-14944
▁Coel	-14945
▁Coff	-14946
▁Cork	-14947
▁Corp	-14948
▁Cors	-14949
▁Cour	-14950
▁Cris	-14951
▁Crot	-14952
▁Crus	-14953
▁Cạnh	-14954
▁Dart	-14955
▁Disc	-14956
▁Dist	-14957
▁Diêm	-14958
▁Djed	-14959
▁Doha	-14960
▁Dome	-14961
▁Easy	-14962
▁Elis	-14963
▁Feyn	-14964
▁Finn	-14965
▁Fion	-14966
▁Fisk	-14967
▁Flem	-14968
▁Frau	-14969
▁Fund	-14970
▁Gibb	-14971
▁Gina	-14972
▁Glab	-14973
▁Gnie	-14974
▁Grac	-14975
▁Gunn	-14976
▁Gyal	-14977
▁Hime	-14978
▁Holt	-14979
▁Hắn	-14980
▁Hōjō	-14981
▁Idol	-14982
▁Jhar	-14983
▁Jill	-14984
▁Judy	-14985
▁Kami	-14986
▁Kauf	-14987
▁Khor	-14988
▁Kira	-14989
▁Kolk	-14990
▁Komn	-14991
▁Krom	-14992
▁Kure	-14993
▁Kyle	-14994
▁Lena	-14995
▁León	-14996
▁Lăng	-14997
▁MPEG	-14998
▁Mant	-14999
▁Maps	-15000
▁Mata	-15001
▁Mayo	-15002
▁Mine	-15003
▁Mitt	-15004
▁Mons	-15005
▁Mull	-15006
▁Mult	-15007
▁Nemo	-15008
▁Nero	-15009
▁Nhập	-15010
▁Nike	-15011
▁Ninh	-15012
▁Niên	-15013
▁Nâng	-15014
▁Olga	-15015
▁Orch	-15016
▁Orig	-15017
▁Perc	-15018
▁Phan	-15019
▁Phấn	-15020
▁Pike	-15021
▁Pinh	-15022
▁Pira	-15023
▁Pitt	-15024
▁Pope	-15025
▁Pull	-15026
▁Quái	-15027
▁Rene	-15028
▁Rice	-15029
▁Rise	-15030
▁Rudy	-15031
▁Ruiz	-15032
▁SARS	-15033
▁SEAL	-15034
▁Saav	-15035
▁Said	-15036
▁Sain	-15037
▁Sana	-15038
▁Sapp	-15039
▁Scho	-15040
▁Shak	-15041
▁Shel	-15042
▁Shet	-15043
▁Shia	-15044
▁Shig	-15045
▁Shik	-15046
▁Ship	-15047
▁Sibu	-15048
▁Sims	-15049
▁Skin	-15050
▁Stra	-15051
▁Tara	-15052
▁Thon	-15053
▁Thâm	-15054
▁Torn	-15055
▁Trai	-15056
▁Tran	-15057
▁Tree	-15058
▁Trev	-15059
▁Trou	-15060
▁Trầm	-15061
▁Tống	-15062
▁Uran	-15063
▁Vega	-15064
▁Vold	-15065
▁Wadi	-15066
▁Webb	-15067
▁Wemb	-15068
▁Wish	-15069
▁Witt	-15070
▁Wort	-15071
▁XVII	-15072
▁Xang	-15073
▁Yank	-15074
▁Yeon	-15075
▁Yidd	-15076
▁Zach	-15077
▁Zeno	-15078
▁Zoom	-15079
▁bari	-15080
▁bazơ	-15081
▁bức	-15082
▁bảnh	-15083
▁calo	-15084
▁chàm	-15085
▁chùi	-15086
▁chập	-15087
▁chắp	-15088
▁chắt	-15089
▁chồn	-15090
▁chội	-15091
▁cred	-15092
▁cóng	-15093
▁diêm	-15094
▁dong	-15095
▁down	-15096
▁glut	-15097
▁gold	-15098
▁high	-15099
▁hoóc	-15100
▁hậu	-15101
▁hóng	-15102
▁khay	-15103
▁khải	-15104
▁king	-15105
▁loét	-15106
▁lẳng	-15107
▁mart	-15108
▁miếu	-15109
▁máng	-15110
▁mấy	-15111
▁mãng	-15112
▁mênh	-15113
▁mắt	-15114
▁mướn	-15115
▁ngấu	-15116
▁ngầu	-15117
▁nhại	-15118
▁nhấp	-15119
▁nhối	-15120
▁nucl	-15121
▁phật	-15122
▁phồn	-15123
▁port	-15124
▁quai	-15125
▁rùng	-15126
▁sexy	-15127
▁sắp	-15128
▁them	-15129
▁then	-15130
▁thêu	-15131
▁thòi	-15132
▁tiễu	-15133
▁toan	-15134
▁trau	-15135
▁trệt	-15136
▁trọc	-15137
▁tập	-15138
▁vời	-15139
▁vựng	-15140
▁what	-15141
▁xẻng	-15142
▁ôzôn	-15143
▁Đinh	-15144
▁Đức	-15145
▁đoái	-15146
▁đùng	-15147
▁đặc	-15148
▁đứa	-15149
Israel	-15150
Lonely	-15151
acchar	-15152
addafi	-15153
adette	-15154
adores	-15155
albard	-15156
apagos	-15157
apixel	-15158
ashima	-15159
bonate	-15160
cheneg	-15161
ection	-15162
edrine	-15163
egraph	-15164
eldorf	-15165
eleine	-15166
emagne	-15167
emberg	-15168
enteen	-15169
esliga	-15170
etania	-15171
ferrat	-15172
forman	-15173
gamesh	-15174
ground	-15175
ichlor	-15176
ifolia	-15177
ilding	-15178
innati	-15179
ishima	-15180
ishing	-15181
kowski	-15182
ocaust	-15183
onnell	-15184
ousand	-15185
phalia	-15186
phalos	-15187
phosph	-15188
rakawa	-15189
ricane	-15190
rovnik	-15191
ríguez	-15192
stance	-15193
terdam	-15194
ulouse	-15195
▁#224;	-15196
▁(1899	-15197
▁(1990	-15198
▁1800.	-15199
▁1830,	-15200
▁1845,	-15201
▁1865,	-15202
▁1872,	-15203
▁1880,	-15204
▁1881,	-15205
▁1887,	-15206
▁1888,	-15207
▁1889,	-15208
▁1891,	-15209
▁1898,	-15210
▁1913.	-15211
▁1914.	-15212
▁1917.	-15213
▁1919.	-15214
▁1922.	-15215
▁1923.	-15216
▁1926.	-15217
▁1934.	-15218
▁1942)	-15219
▁1955.	-15220
▁1957.	-15221
▁1971)	-15222
▁1982)	-15223
▁1986)	-15224
▁1987)	-15225
▁1994)	-15226
▁1996)	-15227
▁5.500	-15228
▁Adele	-15229
▁Again	-15230
▁Allah	-15231
▁Arrow	-15232
▁Asian	-15233
▁Astro	-15234
▁Atkin	-15235
▁Beech	-15236
▁Benny	-15237
▁Berry	-15238
▁Betsy	-15239
▁Bloom	-15240
▁Blues	-15241
▁Board	-15242
▁Boone	-15243
▁Boyle	-15244
▁Burke	-15245
▁Byron	-15246
▁Casey	-15247
▁Chern	-15248
▁Chiêu	-15249
▁Chong	-15250
▁Conan	-15251
▁Cyril	-15252
▁Dhaka	-15253
▁Diane	-15254
▁Dynam	-15255
▁Eliot	-15256
▁Elvis	-15257
▁Erica	-15258
▁Erich	-15259
▁Esper	-15260
▁Falls	-15261
▁Fanny	-15262
▁Faroe	-15263
▁Fight	-15264
▁Fring	-15265
▁Frost	-15266
▁Fuego	-15267
▁Gaius	-15268
▁Gates	-15269
▁Genji	-15270
▁Giant	-15271
▁Glouc	-15272
▁Grove	-15273
▁Guide	-15274
▁Hague	-15275
▁Hazel	-15276
▁Healy	-15277
▁Intef	-15278
▁Invis	-15279
▁Joker	-15280
▁Jonah	-15281
▁Kabul	-15282
▁Karak	-15283
▁Katie	-15284
▁Kerry	-15285
▁Kesha	-15286
▁Khoản	-15287
▁Khung	-15288
▁Klaus	-15289
▁Kuril	-15290
▁Kursk	-15291
▁König	-15292
▁Lagos	-15293
▁Layal	-15294
▁Linus	-15295
▁Logic	-15296
▁Lotus	-15297
▁Lower	-15298
▁Lucca	-15299
▁Lucia	-15300
▁Maeda	-15301
▁Magie	-15302
▁Manag	-15303
▁Manny	-15304
▁Manus	-15305
▁Messi	-15306
▁Moody	-15307
▁Mycob	-15308
▁NAFTA	-15309
▁Nhiên	-15310
▁Nishi	-15311
▁Oghuz	-15312
▁Ozawa	-15313
▁Plato	-15314
▁Prent	-15315
▁Prinz	-15316
▁Putin	-15317
▁Pérez	-15318
▁Quinn	-15319
▁Raven	-15320
▁Riêng	-15321
▁Roche	-15322
▁Sally	-15323
▁Salon	-15324
▁Scala	-15325
▁Shang	-15326
▁Sharp	-15327
▁Sindh	-15328
▁Steam	-15329
▁Still	-15330
▁Stoke	-15331
▁Subic	-15332
▁Sugar	-15333
▁Surin	-15334
▁Suwon	-15335
▁Tales	-15336
▁Tatra	-15337
▁Templ	-15338
▁Terra	-15339
▁Tetra	-15340
▁Thang	-15341
▁Thong	-15342
▁Thật	-15343
▁Tomas	-15344
▁Totte	-15345
▁Touch	-15346
▁Toyot	-15347
▁Trust	-15348
▁Tráng	-15349
▁Trích	-15350
▁Trưng	-15351
▁Trượt	-15352
▁Trứng	-15353
▁Vijay	-15354
▁Vince	-15355
▁Voice	-15356
▁Walsh	-15357
▁Warri	-15358
▁Watan	-15359
▁Wheel	-15360
▁XXIII	-15361
▁Yamag	-15362
▁alkyl	-15363
▁amino	-15364
▁anhyd	-15365
▁cabin	-15366
▁chửng	-15367
▁diễn	-15368
▁dưới	-15369
▁hiệu	-15370
▁khước	-15371
▁kiếm	-15372
▁kiến	-15373
▁light	-15374
▁nghệ	-15375
▁nucle	-15376
▁phẩm	-15377
▁polyp	-15378
▁suyễn	-15379
▁tango	-15380
▁telen	-15381
▁tetra	-15382
▁tiến	-15383
▁điển	-15384
ablanca	-15385
acteria	-15386
autiful	-15387
caloosa	-15388
emistry	-15389
eomenes	-15390
imation	-15391
ination	-15392
ithecus	-15393
logical	-15394
othraki	-15395
rington	-15396
ropical	-15397
▁#7903;	-15398
▁(2003)	-15399
▁13.000	-15400
▁17.000	-15401
▁2006).	-15402
▁2008).	-15403
▁2011).	-15404
▁2013–1	-15405
▁Abboud	-15406
▁Adrian	-15407
▁Aikido	-15408
▁Alamos	-15409
▁Albany	-15410
▁Alexis	-15411
▁Angkor	-15412
▁Author	-15413
▁Avenue	-15414
▁Barbar	-15415
▁Bieber	-15416
▁Bolton	-15417
▁Bombay	-15418
▁Bourne	-15419
▁Bureau	-15420
▁Cantor	-15421
▁Carlis	-15422
▁Celtic	-15423
▁Chakri	-15424
▁Chiang	-15425
▁Choice	-15426
▁Chávez	-15427
▁Commer	-15428
▁Connie	-15429
▁Cortez	-15430
▁Dorado	-15431
▁Dwight	-15432
▁Elijah	-15433
▁Eugène	-15434
▁Fergus	-15435
▁Galile	-15436
▁Garden	-15437
▁Genova	-15438
▁Genève	-15439
▁Gettys	-15440
▁Govern	-15441
▁Ground	-15442
▁Göring	-15443
▁Havana	-15444
▁Health	-15445
▁Herald	-15446
▁Hughes	-15447
▁Ismail	-15448
▁Joplin	-15449
▁Judith	-15450
▁Latina	-15451
▁Legion	-15452
▁Lights	-15453
▁Lucius	-15454
▁Marcos	-15455
▁Marius	-15456
▁Martín	-15457
▁Milton	-15458
▁Mitter	-15459
▁Mueang	-15460
▁Myanma	-15461
▁Nagano	-15462
▁Nghiệp	-15463
▁Nikita	-15464
▁Oblast	-15465
▁Oswald	-15466
▁Palais	-15467
▁Player	-15468
▁Rabaul	-15469
▁Ramsay	-15470
▁Rights	-15471
▁Saipan	-15472
▁Sandra	-15473
▁Scipio	-15474
▁Semyon	-15475
▁Sharon	-15476
▁Simeon	-15477
▁Slavic	-15478
▁Suzuki	-15479
▁Tatras	-15480
▁Tehran	-15481
▁Temple	-15482
▁Thames	-15483
▁Thrace	-15484
▁Tigran	-15485
▁Truyện	-15486
▁Turing	-15487
▁Verona	-15488
▁Vision	-15489
▁Vivian	-15490
▁Willis	-15491
▁Window	-15492
▁Wolver	-15493
▁Xerxes	-15494
▁Zimmer	-15495
▁aspart	-15496
▁chuẩn	-15497
▁chồng	-15498
▁chứng	-15499
▁dollar	-15500
▁engine	-15501
▁khoanh	-15502
▁opioid	-15503
▁rights	-15504
▁stream	-15505
▁toilet	-15506
▁tượng	-15507
▁vector	-15508
European	-15509
cegovina	-15510
ependent	-15511
tinental	-15512
▁(2006).	-15513
▁150.000	-15514
▁2012-13	-15515
▁250,000	-15516
▁Advance	-15517
▁Algiers	-15518
▁Andaluc	-15519
▁Andreas	-15520
▁Arcadia	-15521
▁Babbage	-15522
▁Ballard	-15523
▁Belfast	-15524
▁Benfica	-15525
▁Bennett	-15526
▁Beyoncé	-15527
▁Bologna	-15528
▁Brother	-15529
▁Concord	-15530
▁Crystal	-15531
▁Daniels	-15532
▁Doppler	-15533
▁Eleanor	-15534
▁Element	-15535
▁Elliott	-15536
▁Erasmus	-15537
▁Eumenes	-15538
▁Faraday	-15539
▁Feynman	-15540
▁Firenze	-15541
▁Fontana	-15542
▁Gardner	-15543
▁Germany	-15544
▁Gniezno	-15545
▁Gorbach	-15546
▁Hampton	-15547
▁Hernand	-15548
▁Higashi	-15549
▁Higuchi	-15550
▁Hotspur	-15551
▁Jakarta	-15552
▁Jutland	-15553
▁Kamchat	-15554
▁Kampala	-15555
▁Karachi	-15556
▁Kolkata	-15557
▁Kuznets	-15558
▁Leipzig	-15559
▁Leopard	-15560
▁Limpopo	-15561
▁Manetho	-15562
▁Martins	-15563
▁Maureen	-15564
▁Memphis	-15565
▁Mendoza	-15566
▁Messiah	-15567
▁Middlet	-15568
▁Mohamed	-15569
▁Mozilla	-15570
▁Mustang	-15571
▁Netflix	-15572
▁Nichols	-15573
▁Odoacer	-15574
▁Olympia	-15575
▁Paulina	-15576
▁Pauling	-15577
▁Pentium	-15578
▁Pharaoh	-15579
▁Phillip	-15580
▁Profile	-15581
▁Program	-15582
▁Quentin	-15583
▁Rebecca	-15584
▁Roberto	-15585
▁Roberts	-15586
▁Saracen	-15587
▁Shinobu	-15588
▁Shinoda	-15589
▁Simmons	-15590
▁Strauss	-15591
▁Suharto	-15592
▁Sénégal	-15593
▁Tacitus	-15594
▁Telecom	-15595
▁Thracia	-15596
▁Toonchi	-15597
▁Tristan	-15598
▁Umayyad	-15599
▁Valerie	-15600
▁Vermont	-15601
▁Voyager	-15602
▁Walpole	-15603
▁Wembley	-15604
▁Yiddish	-15605
▁Yucatán	-15606
▁acetate	-15607
▁console	-15608
▁nghiệm	-15609
▁proline	-15610
▁trường	-15611
▁turbine	-15612
▁vaccine	-15613
adotropin	-15614
▁Achaemen	-15615
▁Antonius	-15616
▁Asturias	-15617
▁Autodesk	-15618
▁Aviation	-15619
▁Benedict	-15620
▁Bernhard	-15621
▁Bukharin	-15622
▁CONCACAF	-15623
▁Cadillac	-15624
▁Calabria	-15625
▁Communic	-15626
▁Cummings	-15627
▁Dominica	-15628
▁Doraemon	-15629
▁Dortmund	-15630
▁Dothraki	-15631
▁GameCube	-15632
▁Guerrero	-15633
▁Hispania	-15634
▁Kingston	-15635
▁Kumamoto	-15636
▁Language	-15637
▁Lothbrok	-15638
▁Marianne	-15639
▁McDonald	-15640
▁Mercedes	-15641
▁Miyazaki	-15642
▁Nakamura	-15643
▁Normandy	-15644
▁Novoross	-15645
▁Pasadena	-15646
▁Pecheneg	-15647
▁Pretoria	-15648
▁Printing	-15649
▁Samantha	-15650
▁Saturday	-15651
▁Schwaben	-15652
▁Services	-15653
▁Svalbard	-15654
▁Thousand	-15655
▁Tiberium	-15656
▁Together	-15657
▁Toulouse	-15658
▁Valentin	-15659
▁Voltaire	-15660
▁Wolfgang	-15661
▁acoustic	-15662
▁espresso	-15663
▁graffiti	-15664
▁hydroxit	-15665
▁marathon	-15666
▁sulfuric	-15667
▁Alejandro	-15668
▁Alexandra	-15669
▁Amenemhat	-15670
▁Augustine	-15671
▁Challenge	-15672
▁Chocolate	-15673
▁Cleomenes	-15674
▁Dartmouth	-15675
▁Dubrovnik	-15676
▁Gallagher	-15677
▁Gilgamesh	-15678
▁Halloween	-15679
▁Hyderabad	-15680
▁Instagram	-15681
▁Invisible	-15682
▁Justinian	-15683
▁Kobayashi	-15684
▁Lancaster	-15685
▁Lionsgate	-15686
▁Parkinson	-15687
▁Rodríguez	-15688
▁Rotterdam	-15689
▁Schleswig	-15690
▁Schneider	-15691
▁Seventeen	-15692
▁StarCraft	-15693
▁Sylvester	-15694
▁Tottenham	-15695
▁megapixel	-15696
▁phosphate	-15697
▁plutonium	-15698
hydrogenase	-15699
phalosporin	-15700
transferase	-15701
▁Adrenaline	-15702
▁Bundesliga	-15703
▁Casablanca	-15704
▁Cincinnati	-15705
▁Conference	-15706
▁Federation	-15707
▁Gettysburg	-15708
▁Gloucester	-15709
▁Khrushchev	-15710
▁Mitterrand	-15711
▁Montferrat	-15712
▁Ptolemaios	-15713
▁Pythagoras	-15714
▁Sacramento	-15715
▁Stalingrad	-15716
▁Tuscaloosa	-15717
▁Versailles	-15718
▁Charlemagne	-15719
▁Enterprises	-15720
▁Hercegovina	-15721
▁Information	-15722
▁methylamine	-15723
▁displaystyle	-15724
▁dehydrogenase	-15725
!)	-15726
$.	-15727
%,	-15728
'"	-15729
'(	-15730
)”	-15731
+1	-15732
,,	-15733
3}	-15734
63	-15735
:4	-15736
:5	-15737
Ag	-15738
BF	-15739
BL	-15740
Bố	-15741
CI	-15742
DB	-15743
DO	-15744
DX	-15745
De	-15746
Dr	-15747
Dù	-15748
GL	-15749
GT	-15750
Ga	-15751
Ge	-15752
Hu	-15753
IE	-15754
IK	-15755
Jo	-15756
Kế	-15757
LL	-15758
Li	-15759
Me	-15760
Mi	-15761
NK	-15762
Nữ	-15763
Ok	-15764
On	-15765
PM	-15766
PO	-15767
Pa	-15768
RF	-15769
RG	-15770
Su	-15771
Tu	-15772
Tự	-15773
XX	-15774
YD	-15775
cứ	-15776
ds	-15777
dự	-15778
gm	-15779
gô	-15780
hm	-15781
lv	-15782
sq	-15783
sy	-15784
sử	-15785
tư	-15786
tổ	-15787
tỷ	-15788
xe	-15789
ÊN	-15790
ça	-15791
éf	-15792
ég	-15793
ùy	-15794
đo	-15795
độ	-15796
ơm	-15797
́m	-15798
ин	-15799
тв	-15800
ều	-15801
–3	-15802
–9	-15803
!".	-15804
---	-15805
-1-	-15806
-22	-15807
-37	-15808
-38	-15809
-4,	-15810
-46	-15811
-52	-15812
-61	-15813
-62	-15814
.),	-15815
1,1	-15816
112	-15817
144	-15818
25%	-15819
30)	-15820
5.4	-15821
59;	-15822
650	-15823
7,2	-15824
817	-15825
:04	-15826
:87	-15827
?”.	-15828
Air	-15829
And	-15830
Ang	-15831
Ann	-15832
Any	-15833
Atl	-15834
BOL	-15835
Ber	-15836
Big	-15837
Bub	-15838
Bus	-15839
Báo	-15840
Bây	-15841
Còn	-15842
DHC	-15843
Duh	-15844
EEE	-15845
End	-15846
Far	-15847
For	-15848
Gam	-15849
How	-15850
Hòa	-15851
INC	-15852
ISS	-15853
Jet	-15854
Man	-15855
Mil	-15856
Mod	-15857
NET	-15858
Pop	-15859
ROM	-15860
Run	-15861
Sol	-15862
Squ	-15863
Tim	-15864
Tên	-15865
Tập	-15866
Woo	-15867
abo	-15868
afe	-15869
aja	-15870
amy	-15871
aná	-15872
aos	-15873
así	-15874
avo	-15875
axi	-15876
azi	-15877
azy	-15878
bee	-15879
bet	-15880
bom	-15881
báo	-15882
bây	-15883
bất	-15884
bởi	-15885
cad	-15886
cea	-15887
cep	-15888
chữ	-15889
cây	-15890
cực	-15891
dad	-15892
dag	-15893
dah	-15894
div	-15895
ecz	-15896
eij	-15897
eir	-15898
eod	-15899
epe	-15900
eve	-15901
gad	-15902
gao	-15903
geb	-15904
ghe	-15905
git	-15906
hed	-15907
hóa	-15908
iae	-15909
idn	-15910
ieb	-15911
iku	-15912
ilh	-15913
ilt	-15914
irc	-15915
jad	-15916
jer	-15917
jid	-15918
ket	-15919
kha	-15920
kie	-15921
kos	-15922
kum	-15923
lea	-15924
lem	-15925
lez	-15926
lio	-15927
loe	-15928
lys	-15929
map	-15930
mic	-15931
myo	-15932
màu	-15933
nan	-15934
nas	-15935
not	-15936
oby	-15937
ogg	-15938
osr	-15939
owe	-15940
ozo	-15941
pak	-15942
pax	-15943
pie	-15944
pot	-15945
quy	-15946
raq	-15947
roz	-15948
run	-15949
ruv	-15950
rya	-15951
ryū	-15952
sun	-15953
sus	-15954
tag	-15955
tek	-15956
thể	-15957
thị	-15958
tựa	-15959
ugo	-15960
uno	-15961
urō	-15962
usu	-15963
utz	-15964
uys	-15965
uyu	-15966
uzu	-15967
ved	-15968
vet	-15969
vey	-15970
wak	-15971
wat	-15972
wen	-15973
wey	-15974
yar	-15975
yon	-15976
yre	-15977
yro	-15978
zej	-15979
zik	-15980
ẩu	-15981
ếp	-15982
íaz	-15983
örk	-15984
ürk	-15985
đất	-15986
đặt	-15987
ера	-15988
–20	-15989
▁$5	-15990
▁'.	-15991
▁(0	-15992
▁(~	-15993
▁3%	-15994
▁6–	-15995
▁7–	-15996
▁9:	-15997
▁BB	-15998
▁BI	-15999
▁BO	-16000
▁Bề	-16001
▁Bự	-16002
▁CB	-16003
▁CQ	-16004
▁Dư	-16005
▁EA	-16006
▁Ef	-16007
▁FS	-16008
▁HP	-16009
▁HT	-16010
▁IR	-16011
▁Iv	-16012
▁Lv	-16013
▁Lí	-16014
▁Mg	-16015
▁Mn	-16016
▁Mā	-16017
▁Mụ	-16018
▁NE	-16019
▁PE	-16020
▁QT	-16021
▁RF	-16022
▁RT	-16023
▁Sø	-16024
▁TA	-16025
▁Tể	-16026
▁UC	-16027
▁VP	-16028
▁Ve	-16029
▁Vá	-16030
▁Vở	-16031
▁Wł	-16032
▁Ya	-16033
▁Zy	-16034
▁bạ	-16035
▁bẹ	-16036
▁cù	-16037
▁dó	-16038
▁dẻ	-16039
▁fe	-16040
▁gỉ	-16041
▁gồ	-16042
▁gở	-16043
▁hp	-16044
▁hê	-16045
▁hă	-16046
▁ka	-16047
▁lì	-16048
▁lẹ	-16049
▁oc	-16050
▁ol	-16051
▁pe	-16052
▁si	-16053
▁sn	-16054
▁sò	-16055
▁sỏ	-16056
▁tã	-16057
▁tì	-16058
▁tễ	-16059
▁tỳ	-16060
▁vá	-16061
▁wo	-16062
▁xê	-16063
▁yo	-16064
▁Án	-16065
▁Ân	-16066
▁Éc	-16067
▁đĩ	-16068
▁Ở	-16069
▁ẩu	-16070
▁ẹo	-16071
▁ẻo	-16072
-1-1	-16073
-11,	-16074
-12,	-16075
-187	-16076
-232	-16077
-300	-16078
...)	-16079
01),	-16080
30),	-16081
Arch	-16082
Book	-16083
Chào	-16084
Cont	-16085
Cách	-16086
Ever	-16087
GASA	-16088
Head	-16089
Hiện	-16090
ICEF	-16091
Khoa	-16092
Kobe	-16093
Luật	-16094
Mike	-16095
Mình	-16096
Paul	-16097
Pont	-16098
Quân	-16099
Real	-16100
SUSE	-16101
Sinh	-16102
Team	-16103
Thụy	-16104
Viện	-16105
Wind	-16106
_{1}	-16107
acci	-16108
achu	-16109
achy	-16110
acin	-16111
adne	-16112
adol	-16113
agab	-16114
agat	-16115
aina	-16116
airn	-16117
airs	-16118
aisy	-16119
akin	-16120
alam	-16121
algo	-16122
alty	-16123
amar	-16124
amba	-16125
ambo	-16126
ampa	-16127
anan	-16128
andi	-16129
andr	-16130
ands	-16131
andt	-16132
apai	-16133
appa	-16134
arai	-16135
araj	-16136
arib	-16137
arno	-16138
asin	-16139
aume	-16140
auri	-16141
auru	-16142
avid	-16143
awan	-16144
biến	-16145
blan	-16146
bong	-16147
bons	-16148
bred	-16149
carb	-16150
case	-16151
cean	-16152
chak	-16153
chem	-16154
chứa	-16155
cino	-16156
clet	-16157
cred	-16158
ctic	-16159
cuối	-16160
cyon	-16161
danh	-16162
down	-16163
drub	-16164
dừng	-16165
ecta	-16166
ecut	-16167
egos	-16168
elor	-16169
emoc	-16170
ench	-16171
enti	-16172
eous	-16173
erle	-16174
erom	-16175
eros	-16176
erty	-16177
ertz	-16178
etha	-16179
etts	-16180
etus	-16181
gado	-16182
gaki	-16183
gart	-16184
girl	-16185
giáo	-16186
giấy	-16187
gson	-16188
guan	-16189
hall	-16190
haus	-16191
hiko	-16192
hoek	-16193
houn	-16194
hrer	-16195
idan	-16196
idis	-16197
igao	-16198
igne	-16199
ilio	-16200
iloé	-16201
ilyn	-16202
imba	-16203
imbr	-16204
imus	-16205
incl	-16206
indo	-16207
indy	-16208
inem	-16209
inga	-16210
inha	-16211
inka	-16212
isol	-16213
itin	-16214
itra	-16215
izon	-16216
iété	-16217
jeon	-16218
jevo	-16219
jima	-16220
jord	-16221
kans	-16222
kega	-16223
kina	-16224
korn	-16225
life	-16226
lint	-16227
look	-16228
lord	-16229
lắng	-16230
mere	-16231
nghe	-16232
ngôi	-16233
nhìn	-16234
nius	-16235
obar	-16236
obee	-16237
ococ	-16238
ocon	-16239
ogat	-16240
oint	-16241
okyo	-16242
olla	-16243
olus	-16244
omar	-16245
omol	-16246
oned	-16247
onie	-16248
opyr	-16249
oris	-16250
orqu	-16251
otho	-16252
otiv	-16253
oupe	-16254
outs	-16255
oval	-16256
ovan	-16257
ovia	-16258
owan	-16259
oxit	-16260
phat	-16261
phot	-16262
phys	-16263
pill	-16264
pura	-16265
quận	-16266
rane	-16267
reau	-16268
riet	-16269
ripp	-16270
rise	-16271
sach	-16272
shaw	-16273
sing	-16274
sáng	-16275
tafa	-16276
tech	-16277
teng	-16278
tero	-16279
thay	-16280
thly	-16281
tiêu	-16282
toon	-16283
toàn	-16284
tria	-16285
tsen	-16286
tông	-16287
udad	-16288
udai	-16289
uder	-16290
udes	-16291
ugge	-16292
ulli	-16293
umip	-16294
unya	-16295
urst	-16296
usai	-16297
utsk	-16298
utta	-16299
vald	-16300
vana	-16301
vani	-16302
vern	-16303
vers	-16304
vong	-16305
vàng	-16306
vâng	-16307
vòng	-16308
walk	-16309
week	-16310
weil	-16311
yles	-16312
ylla	-16313
yung	-16314
zero	-16315
zzar	-16316
árez	-16317
Đồng	-16318
điểm	-16319
đóng	-16320
đông	-16321
đúng	-16322
–189	-16323
▁(29	-16324
▁(32	-16325
▁(34	-16326
▁(37	-16327
▁(5,	-16328
▁(9.	-16329
▁--&	-16330
▁0,5	-16331
▁1),	-16332
▁1-3	-16333
▁123	-16334
▁132	-16335
▁133	-16336
▁146	-16337
▁1–1	-16338
▁2.6	-16339
▁206	-16340
▁208	-16341
▁212	-16342
▁215	-16343
▁25:	-16344
▁29.	-16345
▁3-4	-16346
▁31,	-16347
▁32-	-16348
▁33,	-16349
▁330	-16350
▁35%	-16351
▁4%.	-16352
▁4,5	-16353
▁41,	-16354
▁45,	-16355
▁6-7	-16356
▁640	-16357
▁65.	-16358
▁75.	-16359
▁750	-16360
▁77.	-16361
▁8.0	-16362
▁80.	-16363
▁85%	-16364
▁86.	-16365
▁978	-16366
▁ABC	-16367
▁ACh	-16368
▁ADP	-16369
▁ATM	-16370
▁Age	-16371
▁Any	-16372
▁Ats	-16373
▁Ayd	-16374
▁Baz	-16375
▁Bid	-16376
▁Blü	-16377
▁Bom	-16378
▁Bop	-16379
▁Boz	-16380
▁Bạc	-16381
▁CDC	-16382
▁CSS	-16383
▁Cef	-16384
▁Chō	-16385
▁Chợ	-16386
▁Cot	-16387
▁Dod	-16388
▁Dos	-16389
▁EAS	-16390
▁EOS	-16391
▁Elf	-16392
▁Enz	-16393
▁Esc	-16394
▁Eva	-16395
▁FTP	-16396
▁Fag	-16397
▁Fau	-16398
▁Fav	-16399
▁Fen	-16400
▁Fib	-16401
▁Fow	-16402
▁GCC	-16403
▁GSM	-16404
▁Gav	-16405
▁Gig	-16406
▁Gle	-16407
▁Gut	-16408
▁HBO	-16409
▁HCM	-16410
▁HLV	-16411
▁Hab	-16412
▁Hei	-16413
▁Hos	-16414
▁Hoà	-16415
▁Huh	-16416
▁Hul	-16417
▁Hẻm	-16418
▁Hỡi	-16419
▁Hữu	-16420
▁IGN	-16421
▁IPA	-16422
▁IPO	-16423
▁Ida	-16424
▁Ign	-16425
▁Iro	-16426
▁Isk	-16427
▁JMA	-16428
▁Jal	-16429
▁Jas	-16430
▁Jiz	-16431
▁Joc	-16432
▁Jod	-16433
▁Kao	-16434
▁Kia	-16435
▁Kod	-16436
▁Kou	-16437
▁Koz	-16438
▁Kre	-16439
▁Kru	-16440
▁Lac	-16441
▁Lah	-16442
▁Lea	-16443
▁Lek	-16444
▁Lùn	-16445
▁Lạt	-16446
▁MLS	-16447
▁Maw	-16448
▁Mez	-16449
▁Mio	-16450
▁Mér	-16451
▁Mét	-16452
▁Mực	-16453
▁Nah	-16454
▁Nas	-16455
▁Nec	-16456
▁Neg	-16457
▁Nes	-16458
▁Ngà	-16459
▁Nil	-16460
▁Nir	-16461
▁Nod	-16462
▁Non	-16463
▁Nắm	-16464
▁OFC	-16465
▁Ong	-16466
▁Oph	-16467
▁Ort	-16468
▁Ots	-16469
▁PZL	-16470
▁Peg	-16471
▁Piz	-16472
▁Ply	-16473
▁Pyo	-16474
▁Pyt	-16475
▁RCA	-16476
▁RIA	-16477
▁RIS	-16478
▁RPG	-16479
▁Roh	-16480
▁Ryū	-16481
▁Río	-16482
▁Rắn	-16483
▁Rời	-16484
▁SDR	-16485
▁SOS	-16486
▁Sed	-16487
▁Sik	-16488
▁Sne	-16489
▁Sou	-16490
▁Swe	-16491
▁Sào	-16492
▁Sâu	-16493
▁TBS	-16494
▁Teb	-16495
▁Tet	-16496
▁Tia	-16497
▁Tra	-16498
▁Tuc	-16499
▁Twe	-16500
▁Tàn	-16501
▁Từ	-16502
▁Tận	-16503
▁UWP	-16504
▁Urb	-16505
▁Urs	-16506
▁Ved	-16507
▁Vòm	-16508
▁Wad	-16509
▁Wet	-16510
▁Wir	-16511
▁Wis	-16512
▁XXI	-16513
▁Zak	-16514
▁Zoe	-16515
▁amp	-16516
▁arc	-16517
▁ash	-16518
▁aud	-16519
▁big	-16520
▁bur	-16521
▁bạt	-16522
▁bấp	-16523
▁bậy	-16524
▁bời	-16525
▁cob	-16526
▁cos	-16527
▁cyt	-16528
▁cử	-16529
▁cấn	-16530
▁den	-16531
▁dim	-16532
▁dằn	-16533
▁dặt	-16534
▁dẹt	-16535
▁dột	-16536
▁ell	-16537
▁fax	-16538
▁fer	-16539
▁fil	-16540
▁fur	-16541
▁geo	-16542
▁giẻ	-16543
▁gon	-16544
▁gợn	-16545
▁hat	-16546
▁hem	-16547
▁hệ	-16548
▁hăm	-16549
▁hấn	-16550
▁hắc	-16551
▁hợm	-16552
▁imp	-16553
▁key	-16554
▁khẽ	-16555
▁khờ	-16556
▁leg	-16557
▁log	-16558
▁lop	-16559
▁lpi	-16560
▁lán	-16561
▁láo	-16562
▁lóe	-16563
▁lạy	-16564
▁lẫm	-16565
▁lợp	-16566
▁maf	-16567
▁mui	-16568
▁muô	-16569
▁mở	-16570
▁mẩn	-16571
▁mọt	-16572
▁ngả	-16573
▁nhọ	-16574
▁nhỡ	-16575
▁nôi	-16576
▁năn	-16577
▁nọc	-16578
▁obi	-16579
▁one	-16580
▁ord	-16581
▁out	-16582
▁pal	-16583
▁pan	-16584
▁pep	-16585
▁pil	-16586
▁pải	-16587
▁rif	-16588
▁roc	-16589
▁rot	-16590
▁rum	-16591
▁ruy	-16592
▁rìu	-16593
▁sab	-16594
▁she	-16595
▁sho	-16596
▁sim	-16597
▁sir	-16598
▁sảy	-16599
▁sẫm	-16600
▁sặc	-16601
▁sủi	-16602
▁tal	-16603
▁tar	-16604
▁thr	-16605
▁ton	-16606
▁trư	-16607
▁trứ	-16608
▁tào	-16609
▁tạt	-16610
▁tẹo	-16611
▁tột	-16612
▁tợn	-16613
▁uhm	-16614
▁uki	-16615
▁uất	-16616
▁vàn	-16617
▁vợ	-16618
▁vạt	-16619
▁xát	-16620
▁xẩy	-16621
▁xắt	-16622
▁xẻo	-16623
▁xửa	-16624
▁Để	-16625
▁Đảm	-16626
▁Đập	-16627
▁Đồi	-16628
▁đao	-16629
▁đèo	-16630
▁đên	-16631
▁đóm	-16632
▁đùn	-16633
▁đản	-16634
▁đểu	-16635
.000.	-16636
Austr	-16637
Chiếc	-16638
Duhur	-16639
Gener	-16640
Louis	-16641
MEBOL	-16642
Never	-16643
Speed	-16644
Video	-16645
White	-16646
_{2}-	-16647
abase	-16648
abian	-16649
aburō	-16650
achim	-16651
acruz	-16652
actor	-16653
adius	-16654
afone	-16655
ahara	-16656
allel	-16657
alore	-16658
alski	-16659
amata	-16660
angor	-16661
anian	-16662
annah	-16663
arang	-16664
arash	-16665
arten	-16666
asing	-16667
asure	-16668
ateau	-16669
ating	-16670
atoga	-16671
autia	-16672
awatt	-16673
bonne	-16674
borgh	-16675
break	-16676
chrom	-16677
cưỡng	-16678
drich	-16679
ecial	-16680
enkov	-16681
ennai	-16682
entai	-16683
enton	-16684
erald	-16685
ersei	-16686
eryth	-16687
esley	-16688
estes	-16689
ethys	-16690
ettin	-16691
evsky	-16692
ffrey	-16693
graph	-16694
green	-16695
hians	-16696
hound	-16697
iades	-16698
icode	-16699
iddle	-16700
ified	-16701
ignon	-16702
iling	-16703
ilion	-16704
illan	-16705
ilogy	-16706
inney	-16707
inosa	-16708
inski	-16709
inter	-16710
ische	-16711
ishin	-16712
isode	-16713
isoft	-16714
istic	-16715
isław	-16716
itary	-16717
itzer	-16718
jarat	-16719
kaido	-16720
khand	-16721
kyung	-16722
lorat	-16723
loria	-16724
metal	-16725
obyte	-16726
odate	-16727
odont	-16728
oides	-16729
olita	-16730
ollod	-16731
omega	-16732
ometh	-16733
onate	-16734
ongse	-16735
onnet	-16736
opers	-16737
oprop	-16738
opsis	-16739
orgio	-16740
orrow	-16741
orsch	-16742
oshin	-16743
ostra	-16744
ource	-16745
ovina	-16746
owitz	-16747
oyama	-16748
phong	-16749
piper	-16750
plugg	-16751
quine	-16752
racle	-16753
raina	-16754
range	-16755
recht	-16756
rigan	-16757
right	-16758
rland	-16759
rofen	-16760
rolet	-16761
tacht	-16762
terol	-16763
thias	-16764
thiết	-16765
timus	-16766
trand	-16767
uacan	-16768
umbai	-16769
ument	-16770
unzel	-16771
usaki	-16772
uster	-16773
uting	-16774
uvate	-16775
uyama	-16776
wayne	-16777
xinus	-16778
yanua	-16779
ystok	-16780
ético	-16781
енера	-16782
▁"100	-16783
▁(1):	-16784
▁(180	-16785
▁(185	-16786
▁(191	-16787
▁100,	-16788
▁1400	-16789
▁1793	-16790
▁1837	-16791
▁1862	-16792
▁1863	-16793
▁1868	-16794
▁1914	-16795
▁1924	-16796
▁6000	-16797
▁911.	-16798
▁APEC	-16799
▁Aber	-16800
▁Ajax	-16801
▁Akad	-16802
▁Alec	-16803
▁Ally	-16804
▁Amal	-16805
▁Amar	-16806
▁Amel	-16807
▁Amun	-16808
▁Arag	-16809
▁Arai	-16810
▁Aral	-16811
▁Audi	-16812
▁Aung	-16813
▁Aviv	-16814
▁Azaz	-16815
▁Bale	-16816
▁Balt	-16817
▁Barn	-16818
▁Belo	-16819
▁Benz	-16820
▁Bess	-16821
▁Bien	-16822
▁Bisc	-16823
▁Bish	-16824
▁Boss	-16825
▁Bành	-16826
▁Caen	-16827
▁Casa	-16828
▁Cerv	-16829
▁Chau	-16830
▁Chom	-16831
▁Chén	-16832
▁Chùa	-16833
▁Chăn	-16834
▁Clan	-16835
▁Clif	-16836
▁Coch	-16837
▁Come	-16838
▁Como	-16839
▁Copp	-16840
▁Cout	-16841
▁Craw	-16842
▁Cron	-16843
▁Cube	-16844
▁Data	-16845
▁Dell	-16846
▁Drop	-16847
▁Duch	-16848
▁Duff	-16849
▁Díaz	-16850
▁Düss	-16851
▁Elbe	-16852
▁Emmy	-16853
▁Evil	-16854
▁Eyes	-16855
▁Falc	-16856
▁Fann	-16857
▁Faso	-16858
▁Feel	-16859
▁Ferr	-16860
▁Fior	-16861
▁Flag	-16862
▁Folk	-16863
▁Food	-16864
▁Frey	-16865
▁Frid	-16866
▁GABA	-16867
▁Gabe	-16868
▁Geum	-16869
▁Gint	-16870
▁Giul	-16871
▁Giza	-16872
▁Giờ	-16873
▁Glee	-16874
▁Gluc	-16875
▁Gong	-16876
[...]
