<unk>	0
<s>	0
</s>	0
▁t	-0
he	-1
▁a	-2
in	-3
re	-4
▁the	-5
on	-6
▁w	-7
er	-8
▁s	-9
ou	-10
at	-11
an	-12
▁o	-13
is	-14
▁c	-15
it	-16
en	-17
ed	-18
or	-19
▁b	-20
▁f	-21
▁m	-22
es	-23
nd	-24
ing	-25
▁of	-26
al	-27
ar	-28
▁to	-29
▁p	-30
▁in	-31
▁d	-32
▁I	-33
▁h	-34
▁th	-35
▁and	-36
as	-37
om	-38
le	-39
ic	-40
▁y	-41
▁T	-42
ion	-43
ll	-44
▁n	-45
▁g	-46
▁l	-47
▁you	-48
ve	-49
▁A	-50
us	-51
▁S	-52
ow	-53
ot	-54
▁re	-55
▁be	-56
ent	-57
ly	-58
▁e	-59
▁is	-60
et	-61
▁on	-62
ct	-63
id	-64
ro	-65
▁he	-66
st	-67
ay	-68
im	-69
am	-70
▁C	-71
▁that	-72
ad	-73
ig	-74
▁The	-75
▁for	-76
▁M	-77
ver	-78
ld	-79
ut	-80
ce	-81
▁was	-82
▁it	-83
▁W	-84
▁we	-85
▁1	-86
ir	-87
ur	-88
▁wh	-89
▁B	-90
▁H	-91
▁st	-92
ch	-93
ith	-94
se	-95
ter	-96
ation	-97
il	-98
ol	-99
▁P	-100
▁with	-101
▁an	-102
out	-103
un	-104
▁as	-105
..	-106
▁k	-107
her	-108
ra	-109
▁N	-110
▁ha	-111
if	-112
▁2	-113
▁D	-114
ri	-115
▁me	-116
ke	-117
▁(	-118
ul	-119
ht	-120
and	-121
op	-122
▁Y	-123
ill	-124
▁F	-125
▁se	-126
▁are	-127
od	-128
▁L	-129
▁de	-130
rom	-131
▁G	-132
▁con	-133
th	-134
ant	-135
▁R	-136
▁at	-137
um	-138
▁r	-139
▁this	-140
ist	-141
▁com	-142
▁by	-143
ag	-144
▁have	-145
▁O	-146
ore	-147
ust	-148
est	-149
os	-150
▁E	-151
ate	-152
ight	-153
ers	-154
▁ne	-155
pp	-156
ain	-157
▁do	-158
▁not	-159
▁or	-160
▁from	-161
art	-162
▁J	-163
our	-164
▁-	-165
▁al	-166
00	-167
ould	-168
▁pro	-169
▁19	-170
em	-171
▁go	-172
▁"	-173
ive	-174
ab	-175
▁su	-176
el	-177
ally	-178
ess	-179
ies	-180
▁can	-181
▁It	-182
▁ex	-183
res	-184
ity	-185
▁kn	-186
▁Th	-187
pe	-188
red	-189
▁You	-190
▁sh	-191
all	-192
▁u	-193
▁le	-194
▁v	-195
ort	-196
ome	-197
▁In	-198
▁us	-199
▁ab	-200
▁j	-201
qu	-202
▁ch	-203
iv	-204
▁know	-205
▁K	-206
ong	-207
...	-208
end	-209
nt	-210
▁wor	-211
▁all	-212
ber	-213
ap	-214
ie	-215
ak	-216
rou	-217
ard	-218
ast	-219
ok	-220
▁your	-221
ia	-222
▁pl	-223
▁U	-224
▁my	-225
ment	-226
▁And	-227
ell	-228
▁his	-229
▁lo	-230
ame	-231
▁whe	-232
ud	-233
▁so	-234
▁were	-235
ich	-236
gh	-237
ry	-238
ear	-239
ge	-240
ian	-241
ine	-242
ide	-243
▁He	-244
▁one	-245
▁they	-246
one	-247
ated	-248
▁her	-249
▁but	-250
▁what	-251
▁out	-252
ake	-253
▁li	-254
ci	-255
▁about	-256
ure	-257
ect	-258
ac	-259
ost	-260
ep	-261
▁20	-262
▁int	-263
very	-264
▁who	-265
ime	-266
▁there	-267
ous	-268
▁has	-269
▁had	-270
ind	-271
ary	-272
ther	-273
ink	-274
▁up	-275
▁un	-276
▁like	-277
▁comp	-278
ip	-279
▁just	-280
▁which	-281
▁man	-282
▁We	-283
so	-284
og	-285
▁Ch	-286
per	-287
▁Wh	-288
▁she	-289
irst	-290
ish	-291
av	-292
ions	-293
ang	-294
▁St	-295
▁So	-296
ub	-297
iz	-298
cc	-299
▁get	-300
ff	-301
▁V	-302
act	-303
▁don	-304
ru	-305
▁been	-306
use	-307
▁him	-308
▁bec	-309
are	-310
ice	-311
▁201	-312
▁want	-313
ans	-314
▁would	-315
ace	-316
ical	-317
▁part	-318
pt	-319
▁first	-320
▁some	-321
fter	-322
age	-323
▁their	-324
▁will	-325
pl	-326
▁pe	-327
▁them	-328
▁cont	-329
▁ar	-330
▁ag	-331
▁en	-332
▁other	-333
▁also	-334
▁any	-335
wo	-336
▁think	-337
ound	-338
ire	-339
▁ad	-340
ue	-341
▁here	-342
▁im	-343
ign	-344
▁year	-345
▁cl	-346
ople	-347
▁sa	-348
ult	-349
▁more	-350
▁time	-351
ord	-352
▁no	-353
du	-354
▁inc	-355
▁if	-356
ater	-357
ree	-358
own	-359
ause	-360
▁200	-361
ose	-362
▁when	-363
mer	-364
ount	-365
ib	-366
▁res	-367
▁off	-368
ond	-369
ase	-370
▁This	-371
ven	-372
▁work	-373
ance	-374
hing	-375
▁per	-376
ew	-377
ays	-378
itt	-379
ere	-380
▁sp	-381
▁But	-382
ach	-383
orm	-384
▁pr	-385
▁people	-386
▁over	-387
▁right	-388
▁did	-389
▁tr	-390
▁two	-391
▁co	-392
reat	-393
ence	-394
▁te	-395
▁dis	-396
ial	-397
ite	-398
▁now	-399
ations	-400
▁into	-401
other	-402
ved	-403
▁She	-404
omet	-405
▁fo	-406
ory	-407
ile	-408
▁could	-409
na	-410
vel	-411
▁spe	-412
▁3	-413
▁app	-414
ings	-415
▁than	-416
nder	-417
ction	-418
▁its	-419
▁bet	-420
▁only	-421
▁our	-422
ition	-423
▁see	-424
▁Un	-425
▁need	-426
we	-427
▁got	-428
able	-429
ild	-430
▁how	-431
ict	-432
▁No	-433
ens	-434
tern	-435
ark	-436
hed	-437
▁after	-438
▁On	-439
port	-440
ress	-441
ade	-442
▁They	-443
▁act	-444
vers	-445
▁pre	-446
orn	-447
▁then	-448
▁des	-449
ife	-450
▁call	-451
▁ser	-452
▁where	-453
urn	-454
ates	-455
▁ro	-456
▁under	-457
ces	-458
ft	-459
▁going	-460
▁rec	-461
▁these	-462
au	-463
sel	-464
).	-465
iss	-466
ght	-467
▁am	-468
▁mo	-469
▁new	-470
rit	-471
oy	-472
ec	-473
wn	-474
int	-475
ited	-476
ational	-477
lo	-478
ng	-479
land	-480
ah	-481
erm	-482
▁years	-483
ough	-484
▁That	-485
ors	-486
▁comm	-487
▁qu	-488
▁every	-489
ced	-490
▁gu	-491
),	-492
▁most	-493
ons	-494
▁fe	-495
uring	-496
round	-497
▁What	-498
▁somet	-499
ased	-500
ph	-501
▁sc	-502
alk	-503
lud	-504
▁look	-505
aw	-506
iff	-507
▁br	-508
ath	-509
ied	-510
▁sy	-511
ents	-512
▁way	-513
▁po	-514
ank	-515
▁make	-516
▁may	-517
uch	-518
amp	-519
igh	-520
fore	-521
▁take	-522
rough	-523
▁used	-524
ily	-525
ually	-526
▁sec	-527
ather	-528
▁bu	-529
▁ph	-530
ious	-531
form	-532
ave	-533
▁say	-534
ren	-535
▁rem	-536
▁very	-537
▁again	-538
ince	-539
les	-540
▁Al	-541
▁There	-542
▁18	-543
hen	-544
lic	-545
▁cons	-546
▁Mar	-547
▁because	-548
ys	-549
▁world	-550
▁includ	-551
▁Ar	-552
rib	-553
▁gr	-554
ail	-555
▁How	-556
."	-557
▁diff	-558
ook	-559
▁As	-560
▁found	-561
gan	-562
▁said	-563
mber	-564
▁reg	-565
▁ind	-566
▁through	-567
olog	-568
onna	-569
ween	-570
te	-571
▁4	-572
▁play	-573
▁If	-574
▁tell	-575
cial	-576
▁start	-577
▁really	-578
rain	-579
ric	-580
ese	-581
▁down	-582
▁dec	-583
▁produ	-584
ody	-585
▁good	-586
ual	-587
▁count	-588
way	-589
▁something	-590
oth	-591
ob	-592
▁fl	-593
▁such	-594
▁Well	-595
▁5	-596
▁Is	-597
self	-598
▁many	-599
▁acc	-600
▁should	-601
▁between	-602
lect	-603
oss	-604
▁gonna	-605
ident	-606
▁cent	-607
ower	-608
ug	-609
▁gen	-610
▁inv	-611
outh	-612
▁well	-613
▁rel	-614
oc	-615
▁supp	-616
▁form	-617
▁much	-618
▁sm	-619
▁long	-620
tain	-621
▁num	-622
thing	-623
▁happ	-624
ittle	-625
be	-626
ular	-627
ific	-628
ward	-629
▁life	-630
ise	-631
stem	-632
▁sub	-633
▁even	-634
▁An	-635
ars	-636
▁three	-637
ron	-638
▁Sh	-639
get	-640
ject	-641
ought	-642
ever	-643
▁199	-644
meric	-645
ble	-646
ative	-647
ities	-648
000	-649
old	-650
▁ac	-651
als	-652
▁fam	-653
▁sur	-654
▁end	-655
▁kill	-656
▁made	-657
ics	-658
▁before	-659
▁ev	-660
▁ear	-661
▁pol	-662
▁hel	-663
ving	-664
any	-665
vern	-666
ix	-667
▁does	-668
ating	-669
▁little	-670
▁let	-671
up	-672
▁never	-673
ull	-674
▁bel	-675
▁Americ	-676
▁Le	-677
llow	-678
ting	-679
▁mon	-680
▁around	-681
▁come	-682
▁own	-683
io	-684
▁car	-685
▁name	-686
ty	-687
▁day	-688
aking	-689
▁help	-690
▁met	-691
▁talk	-692
▁lar	-693
▁ra	-694
li	-695
pr	-696
ool	-697
▁wr	-698
roup	-699
▁stud	-700
▁min	-701
▁pres	-702
▁De	-703
▁differe	-704
iet	-705
▁--	-706
ange	-707
▁being	-708
ution	-709
imes	-710
▁use	-711
▁same	-712
▁those	-713
▁ret	-714
ful	-715
▁col	-716
▁called	-717
▁trans	-718
▁loc	-719
▁still	-720
▁system	-721
ne	-722
xt	-723
▁fin	-724
".	-725
▁known	-726
hip	-727
orth	-728
,000	-729
▁rele	-730
▁show	-731
ram	-732
ning	-733
▁ob	-734
▁find	-735
▁thing	-736
velop	-737
▁Com	-738
ember	-739
ered	-740
day	-741
▁Now	-742
ai	-743
az	-744
▁em	-745
▁May	-746
ral	-747
▁att	-748
▁during	-749
ina	-750
ished	-751
▁too	-752
▁last	-753
att	-754
▁At	-755
▁ent	-756
▁pop	-757
▁fil	-758
cy	-759
▁dist	-760
cept	-761
▁For	-762
aj	-763
air	-764
▁Re	-765
▁mean	-766
pect	-767
ible	-768
chool	-769
hes	-770
cess	-771
ork	-772
ublic	-773
▁didn	-774
▁place	-775
▁6	-776
apan	-777
riend	-778
its	-779
▁def	-780
ek	-781
▁All	-782
▁later	-783
ros	-784
ves	-785
▁United	-786
illion	-787
▁set	-788
▁hand	-789
til	-790
▁cap	-791
augh	-792
▁spec	-793
here	-794
▁pers	-795
ady	-796
▁second	-797
▁things	-798
▁wom	-799
▁mod	-800
▁mar	-801
▁(1	-802
▁war	-803
▁ask	-804
▁inf	-805
ouse	-806
▁Japan	-807
ures	-808
oun	-809
ury	-810
▁New	-811
co	-812
▁Do	-813
▁develop	-814
▁10	-815
▁why	-816
ivers	-817
▁sign	-818
▁ke	-819
▁When	-820
▁child	-821
▁follow	-822
irect	-823
▁7	-824
▁group	-825
▁Ind	-826
▁add	-827
▁real	-828
uc	-829
irl	-830
pen	-831
▁inter	-832
▁thought	-833
▁cre	-834
ision	-835
▁govern	-836
man	-837
▁Fr	-838
ax	-839
ins	-840
ister	-841
▁until	-842
▁dep	-843
▁lead	-844
ale	-845
▁while	-846
▁Se	-847
uro	-848
ized	-849
▁ref	-850
▁inst	-851
▁number	-852
▁different	-853
aughter	-854
ried	-855
▁ext	-856
▁imp	-857
▁both	-858
▁city	-859
ined	-860
ists	-861
osed	-862
▁plan	-863
ism	-864
▁198	-865
▁After	-866
▁prot	-867
▁liv	-868
▁cr	-869
ared	-870
ason	-871
▁high	-872
ern	-873
ird	-874
▁char	-875
▁four	-876
▁Z	-877
ract	-878
ts	-879
eral	-880
▁became	-881
ital	-882
▁air	-883
▁sing	-884
▁eff	-885
▁great	-886
▁My	-887
▁hum	-888
▁film	-889
▁care	-890
uss	-891
con	-892
▁str	-893
▁home	-894
▁ins	-895
my	-896
▁194	-897
▁old	-898
der	-899
▁put	-900
▁Jo	-901
▁family	-902
▁sim	-903
ept	-904
▁Pr	-905
▁med	-906
ung	-907
▁won	-908
▁belie	-909
▁must	-910
▁Con	-911
▁try	-912
ments	-913
1,	-914
▁main	-915
und	-916
ways	-917
▁doing	-918
ik	-919
▁comple	-920
ood	-921
▁head	-922
▁give	-923
▁rep	-924
gy	-925
eah	-926
led	-927
▁each	-928
▁8	-929
▁Can	-930
ute	-931
▁left	-932
▁power	-933
ility	-934
▁father	-935
▁bre	-936
▁since	-937
▁small	-938
▁art	-939
▁prov	-940
▁friend	-941
ium	-942
▁exp	-943
▁person	-944
▁kind	-945
▁design	-946
▁import	-947
▁'	-948
ines	-949
ten	-950
ier	-951
une	-952
ov	-953
orld	-954
▁est	-955
▁love	-956
▁conf	-957
ner	-958
ants	-959
▁feel	-960
ted	-961
▁sl	-962
ames	-963
oney	-964
ural	-965
▁run	-966
ically	-967
▁another	-968
▁mil	-969
▁happen	-970
▁9	-971
chn	-972
▁tra	-973
ple	-974
▁Why	-975
▁lot	-976
▁197	-977
akes	-978
▁turn	-979
▁Or	-980
▁open	-981
▁Ph	-982
igin	-983
▁cour	-984
▁Euro	-985
▁Germ	-986
▁direct	-987
▁school	-988
▁–	-989
vent	-990
▁took	-991
▁17	-992
▁bl	-993
gest	-994
▁partic	-995
▁against	-996
cent	-997
▁million	-998
5,	-999
▁point	-1000
row	-1001
▁bus	-1002
iness	-1003
▁fact	-1004
▁var	-1005
▁States	-1006
▁return	-1007
body	-1008
▁cur	-1009
ired	-1010
▁World	-1011
▁offic	-1012
ger	-1013
bers	-1014
▁Sp	-1015
hern	-1016
ters	-1017
▁oper	-1018
▁Be	-1019
arm	-1020
rol	-1021
ised	-1022
2,	-1023
ature	-1024
blem	-1025
ruct	-1026
ober	-1027
ross	-1028
▁water	-1029
▁better	-1030
▁including	-1031
▁giv	-1032
▁el	-1033
▁government	-1034
ash	-1035
▁Oh	-1036
amed	-1037
▁night	-1038
▁build	-1039
ajor	-1040
rop	-1041
▁War	-1042
ize	-1043
ided	-1044
▁big	-1045
▁Me	-1046
▁Europe	-1047
▁actually	-1048
▁away	-1049
▁rest	-1050
▁bo	-1051
▁occ	-1052
▁prom	-1053
kay	-1054
▁Af	-1055
usic	-1056
ology	-1057
ene	-1058
ages	-1059
▁country	-1060
▁problem	-1061
ulation	-1062
ait	-1063
▁always	-1064
ived	-1065
▁girl	-1066
▁Yeah	-1067
▁team	-1068
▁196	-1069
iversity	-1070
6,	-1071
▁ty	-1072
ional	-1073
▁15	-1074
4,	-1075
▁ide	-1076
iew	-1077
▁few	-1078
▁ever	-1079
▁Q	-1080
▁week	-1081
▁state	-1082
lished	-1083
ane	-1084
▁mat	-1085
▁mem	-1086
▁South	-1087
hem	-1088
▁Pro	-1089
▁origin	-1090
▁American	-1091
3,	-1092
▁ed	-1093
▁came	-1094
▁hist	-1095
▁men	-1096
▁sever	-1097
uth	-1098
▁fun	-1099
▁contin	-1100
▁organ	-1101
anc	-1102
ries	-1103
-1	-1104
stand	-1105
ield	-1106
▁important	-1107
ann	-1108
▁large	-1109
▁several	-1110
▁released	-1111
to	-1112
▁195	-1113
▁days	-1114
▁anything	-1115
ows	-1116
lease	-1117
0,	-1118
ately	-1119
▁might	-1120
▁expl	-1121
▁const	-1122
▁toget	-1123
ret	-1124
arch	-1125
▁told	-1126
▁together	-1127
",	-1128
▁keep	-1129
0.	-1130
ccess	-1131
▁next	-1132
▁today	-1133
▁Eng	-1134
▁Mr	-1135
▁land	-1136
ope	-1137
▁es	-1138
anu	-1139
els	-1140
ness	-1141
eb	-1142
nam	-1143
angu	-1144
lish	-1145
▁month	-1146
▁best	-1147
▁poss	-1148
▁polit	-1149
▁jo	-1150
▁death	-1151
▁Ju	-1152
▁cle	-1153
▁prog	-1154
▁elect	-1155
▁started	-1156
▁Gu	-1157
▁Pol	-1158
▁chang	-1159
alf	-1160
▁result	-1161
▁without	-1162
▁Comm	-1163
▁mark	-1164
▁song	-1165
▁King	-1166
▁stand	-1167
▁record	-1168
▁support	-1169
▁major	-1170
▁exper	-1171
erv	-1172
ternational	-1173
ugust	-1174
▁remain	-1175
▁near	-1176
▁techn	-1177
▁Just	-1178
▁game	-1179
▁miss	-1180
▁Sept	-1181
▁species	-1182
ians	-1183
▁Don	-1184
▁equ	-1185
cer	-1186
▁move	-1187
▁det	-1188
alth	-1189
▁area	-1190
▁sure	-1191
▁money	-1192
▁vis	-1193
su	-1194
▁book	-1195
▁However	-1196
▁Car	-1197
ae	-1198
ove	-1199
▁early	-1200
ote	-1201
▁One	-1202
rict	-1203
▁desc	-1204
▁public	-1205
▁often	-1206
▁September	-1207
8,	-1208
▁pat	-1209
▁sol	-1210
▁stop	-1211
ecause	-1212
med	-1213
▁began	-1214
iver	-1215
▁Em	-1216
ison	-1217
▁resp	-1218
▁wanted	-1219
▁12	-1220
raph	-1221
▁law	-1222
▁incre	-1223
▁August	-1224
7,	-1225
▁Ad	-1226
▁ter	-1227
▁list	-1228
ilt	-1229
▁Oct	-1230
▁Afric	-1231
▁human	-1232
▁pos	-1233
▁serv	-1234
▁term	-1235
▁mother	-1236
yl	-1237
gin	-1238
▁Te	-1239
▁five	-1240
iod	-1241
▁leg	-1242
erest	-1243
▁live	-1244
▁meet	-1245
ata	-1246
ured	-1247
▁Joh	-1248
▁along	-1249
▁perform	-1250
pril	-1251
▁house	-1252
▁II	-1253
ides	-1254
▁effect	-1255
▁century	-1256
conom	-1257
▁hard	-1258
▁doesn	-1259
▁process	-1260
▁success	-1261
ged	-1262
ball	-1263
▁Min	-1264
▁ele	-1265
▁Because	-1266
ids	-1267
▁To	-1268
ior	-1269
▁dem	-1270
cient	-1271
▁went	-1272
▁word	-1273
▁Go	-1274
ably	-1275
▁Col	-1276
▁North	-1277
sh	-1278
lood	-1279
▁Brit	-1280
ense	-1281
▁US	-1282
▁Not	-1283
▁October	-1284
▁Am	-1285
cember	-1286
atic	-1287
ient	-1288
rench	-1289
▁fore	-1290
▁quest	-1291
▁change	-1292
▁Her	-1293
▁cor	-1294
▁Some	-1295
anuary	-1296
▁These	-1297
▁commun	-1298
▁eas	-1299
▁langu	-1300
▁nothing	-1301
▁193	-1302
▁ant	-1303
▁June	-1304
less	-1305
▁beh	-1306
▁April	-1307
▁Br	-1308
▁adv	-1309
ended	-1310
▁December	-1311
▁Nove	-1312
br	-1313
osp	-1314
ases	-1315
▁gener	-1316
▁light	-1317
▁business	-1318
▁understand	-1319
bum	-1320
itary	-1321
▁appro	-1322
▁fight	-1323
▁children	-1324
▁July	-1325
▁seen	-1326
▁November	-1327
▁requ	-1328
▁single	-1329
▁January	-1330
rent	-1331
▁ann	-1332
▁hour	-1333
▁prof	-1334
▁16	-1335
▁pri	-1336
▁rece	-1337
side	-1338
▁pur	-1339
▁report	-1340
▁control	-1341
▁win	-1342
attle	-1343
▁women	-1344
▁Japanese	-1345
ee	-1346
▁Pl	-1347
ices	-1348
▁Let	-1349
▁cult	-1350
▁By	-1351
▁Cl	-1352
ague	-1353
acter	-1354
▁believe	-1355
5.	-1356
▁Cent	-1357
▁young	-1358
▁stay	-1359
▁become	-1360
–1	-1361
▁leave	-1362
▁common	-1363
ats	-1364
▁March	-1365
▁ship	-1366
▁sit	-1367
▁side	-1368
arent	-1369
me	-1370
▁X	-1371
though	-1372
ton	-1373
▁(2	-1374
▁son	-1375
aster	-1376
9,	-1377
ying	-1378
▁interest	-1379
aut	-1380
ley	-1381
min	-1382
rist	-1383
▁Your	-1384
▁dest	-1385
▁music	-1386
▁protect	-1387
▁everything	-1388
arn	-1389
▁eng	-1390
ently	-1391
▁done	-1392
1.	-1393
▁par	-1394
▁times	-1395
▁company	-1396
▁University	-1397
▁av	-1398
▁saw	-1399
ories	-1400
▁within	-1401
▁brother	-1402
cl	-1403
▁His	-1404
▁French	-1405
par	-1406
▁Pe	-1407
2.	-1408
▁mag	-1409
▁cell	-1410
▁album	-1411
▁population	-1412
▁sw	-1413
▁Par	-1414
▁val	-1415
▁less	-1416
▁born	-1417
▁stre	-1418
▁town	-1419
▁John	-1420
nce	-1421
▁God	-1422
▁Then	-1423
ony	-1424
▁aff	-1425
▁Russ	-1426
itions	-1427
▁enough	-1428
gen	-1429
idd	-1430
▁sk	-1431
▁top	-1432
▁club	-1433
▁series	-1434
the	-1435
raft	-1436
▁Look	-1437
ording	-1438
▁short	-1439
4.	-1440
ales	-1441
▁boy	-1442
ither	-1443
▁estab	-1444
▁program	-1445
▁order	-1446
▁train	-1447
▁killed	-1448
▁period	-1449
ien	-1450
▁following	-1451
uk	-1452
▁full	-1453
▁story	-1454
ta	-1455
▁bro	-1456
▁allow	-1457
▁trying	-1458
3.	-1459
▁tem	-1460
aken	-1461
used	-1462
▁whole	-1463
ering	-1464
omb	-1465
▁guy	-1466
▁foot	-1467
▁gre	-1468
ample	-1469
▁econom	-1470
▁With	-1471
▁case	-1472
▁means	-1473
rie	-1474
ement	-1475
lu	-1476
▁la	-1477
▁vers	-1478
▁China	-1479
▁level	-1480
▁coming	-1481
ipp	-1482
▁half	-1483
▁close	-1484
▁named	-1485
▁course	-1486
▁National	-1487
rug	-1488
▁else	-1489
aced	-1490
▁sent	-1491
estern	-1492
lands	-1493
▁room	-1494
ization	-1495
eng	-1496
▁idea	-1497
▁pain	-1498
Laughter	-1499
▁someone	-1500
▁tit	-1501
ality	-1502
▁inform	-1503
▁present	-1504
8.	-1505
▁Tr	-1506
▁Li	-1507
▁bad	-1508
ially	-1509
▁body	-1510
▁once	-1511
▁making	-1512
yd	-1513
oot	-1514
▁far	-1515
▁line	-1516
ready	-1517
▁hear	-1518
▁late	-1519
utes	-1520
▁based	-1521
ets	-1522
rodu	-1523
▁Ear	-1524
dom	-1525
iron	-1526
ention	-1527
▁having	-1528
▁national	-1529
most	-1530
▁job	-1531
▁looking	-1532
▁woman	-1533
gr	-1534
▁11	-1535
▁Sc	-1536
▁ca	-1537
▁mom	-1538
▁seem	-1539
▁compet	-1540
tal	-1541
orry	-1542
▁dri	-1543
vious	-1544
aim	-1545
que	-1546
▁opp	-1547
▁tri	-1548
▁Aust	-1549
ator	-1550
▁rev	-1551
▁six	-1552
▁Kore	-1553
▁third	-1554
by	-1555
ks	-1556
ze	-1557
ilar	-1558
▁lost	-1559
▁trad	-1560
▁already	-1561
▁Ex	-1562
▁able	-1563
▁describ	-1564
▁Ab	-1565
▁ey	-1566
ling	-1567
work	-1568
▁div	-1569
--	-1570
por	-1571
ones	-1572
wards	-1573
▁dead	-1574
▁rese	-1575
▁hold	-1576
ertain	-1577
▁pub	-1578
ape	-1579
▁...	-1580
▁Mon	-1581
▁Pres	-1582
ots	-1583
rab	-1584
▁due	-1585
▁local	-1586
▁north	-1587
▁south	-1588
▁special	-1589
▁$	-1590
▁least	-1591
▁During	-1592
ored	-1593
▁phys	-1594
▁30	-1595
nect	-1596
▁appear	-1597
7.	-1598
app	-1599
ott	-1600
ues	-1601
▁held	-1602
▁wife	-1603
▁using	-1604
▁ago	-1605
▁rad	-1606
ified	-1607
▁Sec	-1608
olution	-1609
▁countries	-1610
▁camp	-1611
▁wait	-1612
▁working	-1613
cle	-1614
hest	-1615
▁tru	-1616
▁grow	-1617
▁deal	-1618
▁German	-1619
▁Su	-1620
▁Har	-1621
▁free	-1622
ration	-1623
bo	-1624
enn	-1625
raz	-1626
▁14	-1627
▁anim	-1628
▁given	-1629
▁British	-1630
ebru	-1631
▁fire	-1632
▁built	-1633
ebruary	-1634
▁months	-1635
▁ri	-1636
▁age	-1637
ctor	-1638
epend	-1639
▁current	-1640
▁example	-1641
ius	-1642
▁read	-1643
▁project	-1644
▁bas	-1645
▁ste	-1646
▁died	-1647
ograph	-1648
▁February	-1649
fer	-1650
▁Man	-1651
▁City	-1652
resent	-1653
ogn	-1654
oon	-1655
▁dr	-1656
▁sold	-1657
▁getting	-1658
ream	-1659
▁bit	-1660
▁test	-1661
▁include	-1662
▁happened	-1663
fe	-1664
ler	-1665
ains	-1666
▁former	-1667
6.	-1668
▁Co	-1669
oman	-1670
▁York	-1671
avy	-1672
▁13	-1673
▁Sy	-1674
ront	-1675
▁192	-1676
▁fre	-1677
▁isn	-1678
▁pay	-1679
▁treat	-1680
▁military	-1681
ards	-1682
iter	-1683
▁Hey	-1684
▁season	-1685
▁history	-1686
ops	-1687
▁Are	-1688
▁Rep	-1689
▁Ital	-1690
com	-1691
ush	-1692
▁fut	-1693
▁blood	-1694
▁particular	-1695
ama	-1696
omin	-1697
▁wasn	-1698
ission	-1699
▁hig	-1700
▁food	-1701
9.	-1702
▁Ge	-1703
▁Gen	-1704
▁yet	-1705
▁gave	-1706
▁guys	-1707
▁prob	-1708
▁among	-1709
▁heard	-1710
▁though	-1711
▁(19	-1712
▁cho	-1713
▁America	-1714
▁daughter	-1715
The	-1716
ives	-1717
▁cou	-1718
▁political	-1719
go	-1720
ump	-1721
ideo	-1722
play	-1723
▁hon	-1724
itive	-1725
▁comb	-1726
▁mind	-1727
ode	-1728
▁Ne	-1729
▁face	-1730
orthern	-1731
▁product	-1732
▁191	-1733
▁language	-1734
ware	-1735
▁dra	-1736
▁invol	-1737
ery	-1738
ety	-1739
▁Sw	-1740
born	-1741
▁gun	-1742
▁lim	-1743
inese	-1744
cience	-1745
▁heart	-1746
▁ident	-1747
▁invest	-1748
▁party	-1749
▁friends	-1750
▁members	-1751
▁En	-1752
▁Per	-1753
▁deb	-1754
▁king	-1755
▁news	-1756
▁manag	-1757
▁Christ	-1758
▁strong	-1759
▁remember	-1760
ament	-1761
where	-1762
▁taken	-1763
ana	-1764
ued	-1765
uted	-1766
ances	-1767
▁port	-1768
▁bring	-1769
▁English	-1770
roy	-1771
▁Viet	-1772
itional	-1773
oph	-1774
uff	-1775
▁repl	-1776
▁soon	-1777
▁exact	-1778
▁region	-1779
▁talking	-1780
▁official	-1781
ara	-1782
lev	-1783
▁event	-1784
▁similar	-1785
▁President	-1786
▁Gr	-1787
ider	-1788
▁Cal	-1789
▁sex	-1790
craft	-1791
▁Africa	-1792
▁character	-1793
let	-1794
oint	-1795
▁reason	-1796
aur	-1797
aces	-1798
▁Every	-1799
▁future	-1800
▁living	-1801
▁created	-1802
▁relations	-1803
yle	-1804
▁Kh	-1805
ploy	-1806
▁ord	-1807
viron	-1808
▁walk	-1809
ending	-1810
▁please	-1811
iam	-1812
▁fig	-1813
▁sug	-1814
▁Maybe	-1815
ead	-1816
▁activ	-1817
ino	-1818
▁asked	-1819
▁France	-1820
▁located	-1821
▁non	-1822
▁past	-1823
▁pret	-1824
ising	-1825
▁learn	-1826
▁occur	-1827
▁wrong	-1828
▁information	-1829
aps	-1830
itten	-1831
▁break	-1832
▁percent	-1833
vered	-1834
▁hours	-1835
▁maybe	-1836
▁social	-1837
▁esc	-1838
▁typ	-1839
aving	-1840
▁role	-1841
idered	-1842
selves	-1843
urther	-1844
stit	-1845
▁feat	-1846
▁struct	-1847
▁minutes	-1848
▁z	-1849
line	-1850
▁low	-1851
▁knew	-1852
▁tour	-1853
▁comput	-1854
▁Vietnam	-1855
▁version	-1856
eth	-1857
▁played	-1858
sc	-1859
▁recogn	-1860
▁1,	-1861
ivil	-1862
▁Air	-1863
ience	-1864
ption	-1865
rought	-1866
▁disco	-1867
▁either	-1868
▁profess	-1869
▁question	-1870
▁received	-1871
aul	-1872
viet	-1873
▁arri	-1874
▁phot	-1875
▁India	-1876
▁press	-1877
▁almost	-1878
▁health	-1879
▁dev	-1880
▁red	-1881
uthor	-1882
▁Okay	-1883
▁writ	-1884
▁Earth	-1885
▁sound	-1886
▁Soviet	-1887
▁connect	-1888
▁complete	-1889
▁considered	-1890
▁fail	-1891
▁sour	-1892
cially	-1893
▁certain	-1894
▁Acc	-1895
▁clear	-1896
of	-1897
not	-1898
anna	-1899
▁crit	-1900
▁super	-1901
▁announ	-1902
▁Chinese	-1903
▁yourself	-1904
yn	-1905
ica	-1906
ivid	-1907
unch	-1908
▁sum	-1909
▁From	-1910
▁comes	-1911
▁exist	-1912
▁proper	-1913
ological	-1914
▁probably	-1915
▁developed	-1916
orrow	-1917
▁cost	-1918
▁data	-1919
▁says	-1920
▁vill	-1921
▁total	-1922
▁member	-1923
ert	-1924
▁rul	-1925
▁brain	-1926
▁represent	-1927
ges	-1928
wer	-1929
▁25	-1930
▁arm	-1931
▁conc	-1932
▁disc	-1933
▁fall	-1934
▁influ	-1935
▁moved	-1936
▁building	-1937
son	-1938
ude	-1939
▁star	-1940
▁worked	-1941
wh	-1942
ief	-1943
▁speak	-1944
outhern	-1945
▁Bar	-1946
ively	-1947
▁Part	-1948
▁separ	-1949
artment	-1950
ruction	-1951
▁wouldn	-1952
▁popular	-1953
▁100	-1954
▁Med	-1955
▁Who	-1956
▁lab	-1957
▁post	-1958
▁begin	-1959
▁command	-1960
▁various	-1961
bal	-1962
era	-1963
men	-1964
▁El	-1965
▁colle	-1966
▁matter	-1967
▁environ	-1968
▁possible	-1969
▁production	-1970
lor	-1971
ney	-1972
reen	-1973
▁tre	-1974
▁Char	-1975
▁hope	-1976
▁true	-1977
▁indust	-1978
▁Austral	-1979
ument	-1980
▁Will	-1981
▁beaut	-1982
▁lives	-1983
▁development	-1984
ada	-1985
▁squ	-1986
▁prop	-1987
idence	-1988
▁hands	-1989
,"	-1990
-2	-1991
▁San	-1992
▁led	-1993
▁nat	-1994
▁published	-1995
▁Come	-1996
▁West	-1997
▁areas	-1998
▁pract	-1999
▁sorry	-2000
▁destroy	-2001
▁outside	-2002
▁original	-2003
ma	-2004
▁ap	-2005
▁cond	-2006
▁okay	-2007
▁parent	-2008
ring	-2009
▁video	-2010
▁across	-2011
▁object	-2012
▁married	-2013
▁usually	-2014
▁sometimes	-2015
asing	-2016
iddle	-2017
ential	-2018
▁market	-2019
▁taking	-2020
▁capital	-2021
?"	-2022
ffic	-2023
▁football	-2024
rew	-2025
urb	-2026
▁ve	-2027
ached	-2028
▁saying	-2029
▁sister	-2030
▁introdu	-2031
▁Yes	-2032
▁prim	-2033
▁view	-2034
umb	-2035
▁Mal	-2036
minist	-2037
▁myself	-2038
▁international	-2039
aby	-2040
ole	-2041
cing	-2042
ergy	-2043
read	-2044
▁Pre	-2045
▁pot	-2046
▁redu	-2047
▁European	-2048
▁independ	-2049
▁returned	-2050
▁thinking	-2051
▁established	-2052
▁Ed	-2053
▁mult	-2054
▁claim	-2055
ividual	-2056
▁brought	-2057
▁position	-2058
sk	-2059
ned	-2060
urg	-2061
▁ans	-2062
▁obs	-2063
▁written	-2064
lled	-2065
▁vol	-2066
▁educ	-2067
▁init	-2068
orning	-2069
▁space	-2070
▁office	-2071
▁service	-2072
▁Republic	-2073
urt	-2074
val	-2075
▁ru	-2076
fect	-2077
▁Did	-2078
▁Phil	-2079
▁makes	-2080
▁sym	-2081
▁expect	-2082
▁himself	-2083
ox	-2084
▁bar	-2085
▁host	-2086
▁mess	-2087
▁works	-2088
▁largest	-2089
aid	-2090
emy	-2091
empt	-2092
sequ	-2093
anish	-2094
▁study	-2095
▁inside	-2096
▁however	-2097
cus	-2098
▁surv	-2099
▁First	-2100
▁Where	-2101
▁field	-2102
▁front	-2103
▁League	-2104
▁produced	-2105
ha	-2106
leep	-2107
lf	-2108
▁cal	-2109
▁East	-2110
▁grad	-2111
imin	-2112
rest	-2113
▁becom	-2114
▁author	-2115
▁individual	-2116
▁wind	-2117
▁anyone	-2118
▁suggest	-2119
▁&	-2120
▁ris	-2121
ained	-2122
▁avail	-2123
▁modern	-2124
▁Im	-2125
anks	-2126
ival	-2127
▁aut	-2128
▁cir	-2129
▁cut	-2130
▁fav	-2131
▁fell	-2132
▁forces	-2133
▁others	-2134
▁served	-2135
ex	-2136
ples	-2137
▁Ser	-2138
lling	-2139
levision	-2140
▁general	-2141
▁respons	-2142
▁mot	-2143
▁pie	-2144
▁tom	-2145
▁Geor	-2146
▁mater	-2147
▁entire	-2148
amb	-2149
iol	-2150
rap	-2151
ands	-2152
ched	-2153
▁army	-2154
▁accept	-2155
▁couldn	-2156
▁changed	-2157
▁tw	-2158
pped	-2159
year	-2160
▁Cup	-2161
urity	-2162
▁itself	-2163
▁pretty	-2164
▁further	-2165
uel	-2166
▁prin	-2167
▁trust	-2168
▁island	-2169
▁exactly	-2170
▁morning	-2171
▁respect	-2172
▁International	-2173
af	-2174
for	-2175
▁50	-2176
▁net	-2177
▁priv	-2178
▁sort	-2179
▁final	-2180
▁energy	-2181
▁signific	-2182
bit	-2183
tic	-2184
▁km	-2185
face	-2186
▁alone	-2187
mon	-2188
itted	-2189
▁norm	-2190
uation	-2191
pecially	-2192
bs	-2193
ey	-2194
ask	-2195
lin	-2196
▁research	-2197
▁environment	-2198
ift	-2199
airs	-2200
▁vir	-2201
anger	-2202
imate	-2203
▁Port	-2204
▁vict	-2205
▁joined	-2206
▁According	-2207
▁force	-2208
▁decided	-2209
sy	-2210
▁bi	-2211
band	-2212
▁sett	-2213
▁model	-2214
▁La	-2215
▁Pal	-2216
▁abs	-2217
▁enc	-2218
▁kid	-2219
▁Park	-2220
▁meth	-2221
▁Roman	-2222
▁creat	-2223
▁mount	-2224
▁weeks	-2225
▁release	-2226
irth	-2227
▁cop	-2228
▁die	-2229
iment	-2230
▁mach	-2231
▁coast	-2232
▁parts	-2233
imately	-2234
▁rather	-2235
▁parents	-2236
▁everyone	-2237
bor	-2238
▁21	-2239
▁Fin	-2240
aught	-2241
▁meas	-2242
▁River	-2243
▁chance	-2244
▁groups	-2245
▁scient	-2246
ny	-2247
▁Ale	-2248
▁games	-2249
▁access	-2250
▁previous	-2251
ran	-2252
aper	-2253
idge	-2254
atory	-2255
ences	-2256
▁Army	-2257
▁coll	-2258
▁guess	-2259
▁fa	-2260
ille	-2261
more	-2262
▁Bel	-2263
▁Res	-2264
▁glo	-2265
▁soci	-2266
ability	-2267
▁People	-2268
▁moment	-2269
▁aircraft	-2270
▁material	-2271
▁particip	-2272
ero	-2273
▁Pet	-2274
▁anal	-2275
▁appe	-2276
▁hosp	-2277
▁type	-2278
▁While	-2279
▁career	-2280
▁Germany	-2281
▁attempt	-2282
▁president	-2283
ires	-2284
ises	-2285
▁wants	-2286
▁Minister	-2287
▁specific	-2288
uh	-2289
cil	-2290
nal	-2291
oll	-2292
oul	-2293
▁di	-2294
duct	-2295
gypt	-2296
▁Sam	-2297
▁che	-2298
icult	-2299
iding	-2300
erence	-2301
▁behind	-2302
▁described	-2303
iy	-2304
▁Ag	-2305
▁ep	-2306
▁gl	-2307
▁mur	-2308
▁tar	-2309
▁tax	-2310
▁ten	-2311
▁west	-2312
ensive	-2313
iation	-2314
▁title	-2315
▁wanna	-2316
▁create	-2317
▁territ	-2318
▁eight	-2319
▁ground	-2320
rag	-2321
xic	-2322
reme	-2323
▁mer	-2324
▁wond	-2325
▁quite	-2326
▁cannot	-2327
▁account	-2328
▁instead	-2329
▁relationship	-2330
ades	-2331
ming	-2332
▁ton	-2333
ators	-2334
▁upon	-2335
▁impro	-2336
eration	-2337
▁engine	-2338
▁available	-2339
ula	-2340
aves	-2341
ressed	-2342
▁phone	-2343
▁wrote	-2344
▁significant	-2345
pire	-2346
▁Ret	-2347
▁dam	-2348
istic	-2349
▁drug	-2350
▁safe	-2351
▁natural	-2352
▁{	-2353
▁cy	-2354
▁Des	-2355
▁del	-2356
▁hit	-2357
▁Miss	-2358
▁deep	-2359
▁east	-2360
▁stat	-2361
▁listen	-2362
▁temper	-2363
▁technology	-2364
urch	-2365
▁Ant	-2366
▁cast	-2367
▁jour	-2368
▁wide	-2369
▁Egypt	-2370
▁cross	-2371
▁longer	-2372
▁collect	-2373
▁supposed	-2374
inc	-2375
fact	-2376
verage	-2377
▁Since	-2378
▁subject	-2379
▁announced	-2380
50	-2381
cul	-2382
ceed	-2383
head	-2384
▁Cap	-2385
▁hus	-2386
▁bord	-2387
▁pict	-2388
▁School	-2389
▁problems	-2390
▁reported	-2391
▁television	-2392
ani	-2393
oms	-2394
ped	-2395
▁hor	-2396
peror	-2397
▁Gree	-2398
▁agre	-2399
▁conv	-2400
▁nice	-2401
▁reach	-2402
▁sleep	-2403
hel	-2404
ulf	-2405
iful	-2406
▁Like	-2407
▁issu	-2408
▁haven	-2409
▁tried	-2410
▁Please	-2411
▁police	-2412
▁northern	-2413
erve	-2414
ortun	-2415
▁arch	-2416
lement	-2417
▁difficult	-2418
01	-2419
NA	-2420
aff	-2421
▁mid	-2422
▁eyes	-2423
▁fund	-2424
▁Count	-2425
▁needs	-2426
▁polic	-2427
▁histor	-2428
▁prison	-2429
yp	-2430
oud	-2431
medi	-2432
▁Act	-2433
▁Sch	-2434
▁key	-2435
▁neg	-2436
▁battle	-2437
▁except	-2438
▁Although	-2439
▁although	-2440
▁Qu	-2441
▁Ang	-2442
▁cust	-2443
▁Other	-2444
▁target	-2445
hib	-2446
▁Lu	-2447
▁Cor	-2448
▁hot	-2449
▁kil	-2450
riage	-2451
▁Most	-2452
▁fish	-2453
▁save	-2454
▁addition	-2455
uge	-2456
oted	-2457
▁Red	-2458
▁deg	-2459
▁sir	-2460
useum	-2461
▁Dist	-2462
▁birth	-2463
▁civil	-2464
▁ready	-2465
▁needed	-2466
▁travel	-2467
ps	-2468
bon	-2469
▁Ro	-2470
ency	-2471
itor	-2472
▁Any	-2473
▁eat	-2474
aries	-2475
owers	-2476
▁suff	-2477
▁Union	-2478
▁Kingdom	-2479
▁administ	-2480
▁Was	-2481
▁fac	-2482
▁tou	-2483
▁kids	-2484
▁pred	-2485
▁grand	-2486
▁refer	-2487
ination	-2488
▁complex	-2489
▁i	-2490
ully	-2491
asion	-2492
▁imag	-2493
▁road	-2494
▁soft	-2495
▁drink	-2496
▁husband	-2497
elt	-2498
aign	-2499
omen	-2500
▁Dep	-2501
▁Tom	-2502
▁Tur	-2503
▁sus	-2504
▁Arab	-2505
▁chem	-2506
▁defe	-2507
▁spent	-2508
gs	-2509
ano	-2510
now	-2511
atin	-2512
unic	-2513
▁dise	-2514
▁shoot	-2515
▁computer	-2516
ends	-2517
▁swe	-2518
▁self	-2519
▁shot	-2520
▁seven	-2521
▁stuff	-2522
▁employ	-2523
▁General	-2524
▁finally	-2525
▁station	-2526
▁systems	-2527
ror	-2528
▁Fl	-2529
▁ce	-2530
ique	-2531
▁Spe	-2532
ights	-2533
▁Paul	-2534
▁baby	-2535
▁goes	-2536
atever	-2537
▁cause	-2538
▁included	-2539
ga	-2540
acher	-2541
ients	-2542
▁bomb	-2543
ouncil	-2544
▁above	-2545
▁dream	-2546
▁science	-2547
▁southern	-2548
▁especially	-2549
ald	-2550
▁dou	-2551
▁imm	-2552
arily	-2553
▁Asia	-2554
▁capt	-2555
▁gone	-2556
▁happy	-2557
▁react	-2558
▁figure	-2559
▁Russian	-2560
▁central	-2561
ij	-2562
▁Ac	-2563
▁Bl	-2564
icro	-2565
sych	-2566
▁Jew	-2567
itting	-2568
▁earli	-2569
▁changes	-2570
▁serious	-2571
▁village	-2572
▁involved	-2573
amm	-2574
▁ge	-2575
iers	-2576
▁threat	-2577
▁turned	-2578
▁function	-2579
▁40	-2580
▁uh	-2581
▁Get	-2582
▁Comp	-2583
▁clos	-2584
▁cells	-2585
▁knows	-2586
▁words	-2587
▁states	-2588
▁designed	-2589
oh	-2590
acy	-2591
ari	-2592
reg	-2593
▁er	-2594
▁Mor	-2595
▁fem	-2596
▁exec	-2597
▁value	-2598
ression	-2599
▁founded	-2600
▁district	-2601
▁training	-2602
▁↑	-2603
den	-2604
cean	-2605
▁High	-2606
▁takes	-2607
▁thous	-2608
ores	-2609
ster	-2610
aring	-2611
izing	-2612
▁emer	-2613
▁Russia	-2614
II	-2615
yal	-2616
chie	-2617
etic	-2618
▁buy	-2619
▁ill	-2620
▁sun	-2621
▁tro	-2622
▁site	-2623
rieved	-2624
▁breed	-2625
▁action	-2626
▁billion	-2627
▁playing	-2628
ify	-2629
ols	-2630
ray	-2631
▁Two	-2632
fully	-2633
▁Great	-2634
▁cover	-2635
▁Central	-2636
▁contract	-2637
▁marriage	-2638
▁recorded	-2639
▁continued	-2640
ateg	-2641
▁190	-2642
▁exc	-2643
▁gra	-2644
iting	-2645
▁park	-2646
▁weap	-2647
▁House	-2648
▁court	-2649
▁peace	-2650
▁sense	-2651
▁cities	-2652
▁culture	-2653
▁network	-2654
▁campaign	-2655
▁hospital	-2656
▁Australia	-2657
▁24	-2658
▁Of	-2659
nown	-2660
pite	-2661
ucle	-2662
▁Cong	-2663
▁anti	-2664
▁stri	-2665
▁Korea	-2666
▁terms	-2667
▁white	-2668
▁answer	-2669
▁Spanish	-2670
▁personal	-2671
▁Retrieved	-2672
apt	-2673
▁Dr	-2674
orts	-2675
▁App	-2676
▁Dav	-2677
▁adm	-2678
▁Here	-2679
▁easy	-2680
▁farm	-2681
utions	-2682
▁miles	-2683
▁affect	-2684
▁amount	-2685
▁rights	-2686
▁beautiful	-2687
▁Mad	-2688
▁dig	-2689
▁doc	-2690
▁hyd	-2691
▁Have	-2692
▁doll	-2693
▁gold	-2694
▁wall	-2695
▁cases	-2696
▁distrib	-2697
▁numbers	-2698
▁reached	-2699
▁running	-2700
▁transport	-2701
oke	-2702
unt	-2703
aval	-2704
▁bed	-2705
▁door	-2706
▁risk	-2707
▁compan	-2708
▁higher	-2709
▁structure	-2710
▁completely	-2711
▁themselves	-2712
▁fr	-2713
▁Pri	-2714
▁fle	-2715
ondon	-2716
▁decl	-2717
▁rank	-2718
▁rate	-2719
▁viol	-2720
astern	-2721
▁round	-2722
ibility	-2723
ilities	-2724
▁beginning	-2725
ein	-2726
irm	-2727
▁ang	-2728
▁Sing	-2729
▁step	-2730
▁Poland	-2731
▁allowed	-2732
cip	-2733
▁dark	-2734
▁State	-2735
liament	-2736
▁Korean	-2737
▁secret	-2738
▁appoint	-2739
▁followed	-2740
dy	-2741
ills	-2742
▁yes	-2743
ollow	-2744
uated	-2745
▁circ	-2746
▁fine	-2747
▁Somet	-2748
▁broad	-2749
▁share	-2750
▁tomorrow	-2751
omp	-2752
▁22	-2753
tained	-2754
▁worth	-2755
▁couple	-2756
▁method	-2757
▁player	-2758
▁private	-2759
oly	-2760
▁Sm	-2761
▁bur	-2762
▁rob	-2763
atter	-2764
ining	-2765
istan	-2766
▁trou	-2767
▁wish	-2768
▁looks	-2769
▁relig	-2770
▁river	-2771
ampions	-2772
▁planet	-2773
▁contain	-2774
▁tonight	-2775
▁consider	-2776
30	-2777
ris	-2778
hood	-2779
inct	-2780
▁cat	-2781
razil	-2782
▁achie	-2783
▁Island	-2784
▁happens	-2785
▁whether	-2786
▁economic	-2787
▁remained	-2788
▁students	-2789
▁education	-2790
ria	-2791
view	-2792
▁Que	-2793
▁dom	-2794
▁reb	-2795
▁indic	-2796
▁London	-2797
▁♪	-2798
-19	-2799
like	-2800
antic	-2801
arian	-2802
▁fear	-2803
▁Mexic	-2804
▁Party	-2805
▁focus	-2806
▁neigh	-2807
▁contro	-2808
▁global	-2809
▁infect	-2810
▁Western	-2811
▁District	-2812
▁industry	-2813
hab	-2814
ume	-2815
▁Sa	-2816
▁af	-2817
aint	-2818
ging	-2819
ners	-2820
ords	-2821
▁List	-2822
▁Wind	-2823
▁gets	-2824
ternet	-2825
▁liter	-2826
▁lived	-2827
▁shall	-2828
▁Second	-2829
▁determ	-2830
▁nature	-2831
▁leaders	-2832
▁surface	-2833
▁community	-2834
▁discovered	-2835
haps	-2836
time	-2837
▁Mil	-2838
▁Reg	-2839
▁Val	-2840
▁mov	-2841
iforn	-2842
▁felt	-2843
▁purp	-2844
▁famil	-2845
▁truth	-2846
▁Brazil	-2847
▁Govern	-2848
▁director	-2849
▁professional	-2850
hi	-2851
oo	-2852
sue	-2853
cast	-2854
oice	-2855
▁sea	-2856
ander	-2857
▁Alex	-2858
▁stra	-2859
▁novel	-2860
▁applic	-2861
▁kilomet	-2862
▁generally	-2863
▁originally	-2864
yr	-2865
iant	-2866
onst	-2867
rian	-2868
▁ast	-2869
▁fix	-2870
▁lay	-2871
▁Mich	-2872
undred	-2873
▁Paris	-2874
▁Thank	-2875
▁girls	-2876
ifornia	-2877
▁physical	-2878
uty	-2879
abor	-2880
chan	-2881
▁cam	-2882
asons	-2883
rated	-2884
▁Mart	-2885
▁carry	-2886
▁theory	-2887
▁Italian	-2888
▁increase	-2889
▁currently	-2890
▁throughout	-2891
mp	-2892
ocr	-2893
▁Ke	-2894
▁Ma	-2895
▁Sal	-2896
▁arg	-2897
ittee	-2898
▁band	-2899
▁cool	-2900
▁Battle	-2901
▁formed	-2902
▁normal	-2903
▁animals	-2904
▁contrib	-2905
▁related	-2906
▁features	-2907
▁mi	-2908
aded	-2909
▁Rec	-2910
▁aud	-2911
iverse	-2912
▁psych	-2913
▁worry	-2914
▁danger	-2915
▁necess	-2916
▁spread	-2917
▁leaving	-2918
▁movement	-2919
▁services	-2920
▁situation	-2921
Wh	-2922
de	-2923
omm	-2924
▁TV	-2925
ened	-2926
▁Lou	-2927
▁ver	-2928
▁ball	-2929
▁bank	-2930
▁draw	-2931
▁favor	-2932
▁approx	-2933
▁signed	-2934
▁meeting	-2935
▁prevent	-2936
▁appeared	-2937
▁transfer	-2938
▁according	-2939
▁California	-2940
▁experience	-2941
rel	-2942
▁Ber	-2943
▁Div	-2944
▁gas	-2945
istry	-2946
▁Even	-2947
▁Sant	-2948
▁fast	-2949
▁poor	-2950
▁slow	-2951
▁ways	-2952
▁occup	-2953
▁commer	-2954
▁opened	-2955
agn	-2956
aged	-2957
▁Sun	-2958
▁rain	-2959
▁nucle	-2960
▁range	-2961
▁source	-2962
▁England	-2963
▁concern	-2964
▁conduct	-2965
▁eventually	-2966
arc	-2967
▁Its	-2968
▁oil	-2969
▁ones	-2970
isions	-2971
▁frequ	-2972
▁names	-2973
▁visit	-2974
▁Islands	-2975
▁anymore	-2976
▁average	-2977
▁perfect	-2978
▁evidence	-2979
ki	-2980
iny	-2981
–19	-2982
ript	-2983
uses	-2984
▁box	-2985
iving	-2986
▁bott	-2987
▁feed	-2988
▁loss	-2989
▁plant	-2990
▁giving	-2991
▁leader	-2992
▁x	-2993
▁26	-2994
▁Mc	-2995
icle	-2996
rial	-2997
▁Sir	-2998
▁sal	-2999
osing	-3000
ufact	-3001
▁Many	-3002
▁hurt	-3003
▁size	-3004
iction	-3005
▁doctor	-3006
▁immedi	-3007
▁African	-3008
▁leading	-3009
itz	-3010
▁Bo	-3011
▁Sea	-3012
▁beg	-3013
itude	-3014
▁Good	-3015
▁exam	-3016
▁award	-3017
▁gotta	-3018
▁media	-3019
▁seems	-3020
▁belong	-3021
▁ancient	-3022
▁stories	-3023
▁fighting	-3024
▁manufact	-3025
▁security	-3026
▁performance	-3027
▁construction	-3028
ya	-3029
oid	-3030
sec	-3031
▁28	-3032
vere	-3033
▁Dem	-3034
▁Fed	-3035
▁Our	-3036
▁Vir	-3037
▁fly	-3038
▁hop	-3039
▁sil	-3040
known	-3041
▁heav	-3042
▁radio	-3043
▁George	-3044
20	-3045
ita	-3046
odes	-3047
raid	-3048
▁der	-3049
▁dro	-3050
▁Navy	-3051
▁adop	-3052
▁trib	-3053
▁clean	-3054
▁stage	-3055
▁simple	-3056
▁wonder	-3057
▁concept	-3058
▁consist	-3059
▁machine	-3060
▁provide	-3061
▁1.	-3062
▁189	-3063
▁cit	-3064
▁jud	-3065
▁pen	-3066
based	-3067
▁lose	-3068
unched	-3069
▁piece	-3070
▁ships	-3071
▁units	-3072
▁impact	-3073
▁contact	-3074
▁disease	-3075
▁telling	-3076
▁investig	-3077
▁companies	-3078
▁traditional	-3079
40	-3080
ims	-3081
▁ox	-3082
▁din	-3083
▁hom	-3084
style	-3085
▁Arch	-3086
▁bene	-3087
▁pull	-3088
▁rule	-3089
▁added	-3090
▁bound	-3091
▁estim	-3092
▁medic	-3093
stitute	-3094
▁Polish	-3095
▁custom	-3096
▁foreign	-3097
▁Je	-3098
▁{\	-3099
bert	-3100
iger	-3101
rect	-3102
▁Roy	-3103
▁Ste	-3104
▁Tok	-3105
cious	-3106
▁lower	-3107
▁Indian	-3108
▁border	-3109
▁somebody	-3110
ky	-3111
ago	-3112
oses	-3113
usion	-3114
▁Take	-3115
▁link	-3116
▁mist	-3117
▁earth	-3118
▁trade	-3119
▁write	-3120
osition	-3121
▁cancer	-3122
▁forest	-3123
▁regard	-3124
▁discuss	-3125
▁highest	-3126
▁starting	-3127
uz	-3128
dis	-3129
erc	-3130
▁23	-3131
▁flo	-3132
▁inn	-3133
inary	-3134
▁nine	-3135
▁spir	-3136
▁behav	-3137
▁board	-3138
atively	-3139
▁Empire	-3140
▁caused	-3141
▁center	-3142
▁events	-3143
▁ability	-3144
▁medical	-3145
▁society	-3146
▁performed	-3147
ham	-3148
ios	-3149
▁Che	-3150
▁Nor	-3151
▁dad	-3152
ength	-3153
heast	-3154
▁2013	-3155
▁hero	-3156
▁path	-3157
▁thus	-3158
▁alive	-3159
▁hydro	-3160
▁afraid	-3161
▁hundred	-3162
▁mission	-3163
▁directly	-3164
▁powerful	-3165
▁attention	-3166
Th	-3167
▁2,	-3168
▁opt	-3169
▁cold	-3170
▁mine	-3171
▁rout	-3172
itution	-3173
▁policy	-3174
▁troops	-3175
▁towards	-3176
▁standard	-3177
▁27	-3178
anda	-3179
ania	-3180
burg	-3181
lict	-3182
▁Ben	-3183
▁mus	-3184
stant	-3185
▁Tell	-3186
friend	-3187
▁chall	-3188
▁choice	-3189
▁mathem	-3190
▁summer	-3191
▁communic	-3192
▁whatever	-3193
▁introduced	-3194
ym	-3195
yo	-3196
acc	-3197
▁Cr	-3198
▁Bill	-3199
▁base	-3200
▁date	-3201
▁forg	-3202
▁Frank	-3203
▁Center	-3204
▁Follow	-3205
▁middle	-3206
▁places	-3207
▁explain	-3208
▁produce	-3209
▁separate	-3210
▁increased	-3211
▁questions	-3212
▁operations	-3213
▁responsible	-3214
▁particularly	-3215
▁approximately	-3216
.,	-3217
oz	-3218
ibly	-3219
▁Sim	-3220
▁god	-3221
▁mix	-3222
aters	-3223
itect	-3224
▁2011	-3225
▁Wars	-3226
▁acqu	-3227
▁phil	-3228
▁forms	-3229
▁sales	-3230
▁Canada	-3231
▁moving	-3232
▁screen	-3233
▁search	-3234
▁teacher	-3235
ux	-3236
awa	-3237
enty	-3238
▁sens	-3239
▁text	-3240
▁Group	-3241
▁shows	-3242
▁yours	-3243
▁multip	-3244
▁Council	-3245
▁smaller	-3246
▁western	-3247
▁location	-3248
▁software	-3249
▁conditions	-3250
▁successful	-3251
mar	-3252
ont	-3253
come	-3254
hers	-3255
iety	-3256
▁ain	-3257
erved	-3258
ously	-3259
▁Rich	-3260
▁page	-3261
uments	-3262
unicip	-3263
▁Italy	-3264
▁placed	-3265
▁mention	-3266
▁territory	-3267
ao	-3268
ube	-3269
▁op	-3270
cies	-3271
iles	-3272
lebr	-3273
rate	-3274
▁Mus	-3275
ctions	-3276
▁degree	-3277
▁street	-3278
▁arrived	-3279
▁establish	-3280
gu	-3281
ena	-3282
joy	-3283
set	-3284
west	-3285
▁(18	-3286
▁Cam	-3287
▁cand	-3288
acific	-3289
▁Right	-3290
▁surpr	-3291
▁earlier	-3292
▁waiting	-3293
▁continue	-3294
▁.	-3295
ael	-3296
key	-3297
▁Uh	-3298
▁Met	-3299
alled	-3300
▁burn	-3301
▁goal	-3302
▁paid	-3303
▁teach	-3304
▁helped	-3305
▁mechan	-3306
▁picture	-3307
▁regular	-3308
▁decision	-3309
▁launched	-3310
▁pressure	-3311
▁replaced	-3312
▁languages	-3313
▁competition	-3314
ima	-3315
pir	-3316
ura	-3317
▁BC	-3318
▁ft	-3319
hold	-3320
lymp	-3321
rael	-3322
▁Bet	-3323
▁Kim	-3324
▁Net	-3325
anced	-3326
gency	-3327
▁(200	-3328
▁breat	-3329
▁meant	-3330
▁reign	-3331
▁types	-3332
▁whose	-3333
▁consum	-3334
▁entered	-3335
▁includes	-3336
▁opportun	-3337
▁products	-3338
▁straight	-3339
▁0	-3340
leg	-3341
gent	-3342
▁mis	-3343
erson	-3344
▁Cons	-3345
▁Mary	-3346
▁bird	-3347
▁color	-3348
▁domin	-3349
▁heavy	-3350
▁songs	-3351
vention	-3352
▁minute	-3353
▁William	-3354
▁Windows	-3355
▁concent	-3356
▁journal	-3357
▁meaning	-3358
▁results	-3359
▁Division	-3360
▁potential	-3361
▁difference	-3362
che	-3363
off	-3364
put	-3365
▁da	-3366
anded	-3367
board	-3368
▁More	-3369
▁Stre	-3370
▁kept	-3371
▁qual	-3372
▁sequ	-3373
▁Greek	-3374
▁table	-3375
▁County	-3376
▁closed	-3377
▁famous	-3378
▁likely	-3379
▁effects	-3380
▁extreme	-3381
▁players	-3382
ification	-3383
▁interact	-3384
va	-3385
ye	-3386
ken	-3387
▁UK	-3388
cell	-3389
iled	-3390
▁See	-3391
▁ess	-3392
▁eth	-3393
▁pal	-3394
▁ple	-3395
▁sav	-3396
ental	-3397
uries	-3398
▁Stud	-3399
▁aren	-3400
▁clot	-3401
▁cred	-3402
▁Franc	-3403
▁books	-3404
▁defin	-3405
▁enjoy	-3406
▁movie	-3407
▁growth	-3408
▁levels	-3409
▁looked	-3410
▁nation	-3411
▁philos	-3412
▁regions	-3413
▁require	-3414
▁studies	-3415
▁influence	-3416
asc	-3417
oes	-3418
urs	-3419
inal	-3420
▁eye	-3421
▁ice	-3422
▁2006	-3423
▁Prin	-3424
▁Prov	-3425
▁join	-3426
▁magn	-3427
atives	-3428
▁Rober	-3429
▁magaz	-3430
▁shown	-3431
▁nearly	-3432
▁completed	-3433
▁temperature	-3434
bre	-3435
kes	-3436
ingu	-3437
onse	-3438
▁mor	-3439
▁via	-3440
▁2010	-3441
▁Only	-3442
▁Swed	-3443
▁disp	-3444
ricult	-3445
▁Olymp	-3446
▁citiz	-3447
▁honor	-3448
▁offer	-3449
▁paper	-3450
▁stars	-3451
▁touch	-3452
ography	-3453
▁Mexico	-3454
▁arrest	-3455
▁critic	-3456
▁points	-3457
▁Emperor	-3458
▁required	-3459
▁surround	-3460
▁increasing	-3461
SA	-3462
ford	-3463
ites	-3464
olic	-3465
▁fed	-3466
▁inj	-3467
aches	-3468
▁2015	-3469
▁hair	-3470
▁send	-3471
ension	-3472
ternal	-3473
▁Grand	-3474
▁Royal	-3475
▁Their	-3476
▁majority	-3477
▁practice	-3478
▁Following	-3479
60	-3480
FA	-3481
▁)	-3482
bed	-3483
raw	-3484
▁CO	-3485
▁aw	-3486
wood	-3487
ysis	-3488
▁Atl	-3489
▁Mag	-3490
▁Tai	-3491
right	-3492
▁2008	-3493
▁Conf	-3494
▁beat	-3495
▁code	-3496
▁coun	-3497
▁Super	-3498
▁issue	-3499
▁plays	-3500
itation	-3501
▁active	-3502
▁humans	-3503
▁plants	-3504
▁feeling	-3505
▁forward	-3506
▁writing	-3507
▁becoming	-3508
▁positive	-3509
ka	-3510
▁“	-3511
iot	-3512
▁2.	-3513
emic	-3514
onia	-3515
over	-3516
pper	-3517
rupt	-3518
▁187	-3519
▁Bro	-3520
▁Bur	-3521
▁Gal	-3522
▁Sen	-3523
▁thr	-3524
ables	-3525
estic	-3526
▁1990	-3527
▁Kong	-3528
▁fair	-3529
▁mole	-3530
▁Spain	-3531
▁equal	-3532
▁celebr	-3533
▁detail	-3534
▁disapp	-3535
▁Another	-3536
▁limited	-3537
▁believed	-3538
▁Christian	-3539
ms	-3540
razy	-3541
▁cru	-3542
illed	-3543
olute	-3544
▁feet	-3545
▁hous	-3546
ancial	-3547
▁Force	-3548
▁Prime	-3549
▁adult	-3550
▁legal	-3551
▁numer	-3552
▁asking	-3553
▁female	-3554
▁Pacific	-3555
▁Philipp	-3556
▁approach	-3557
▁mountain	-3558
oe	-3559
olk	-3560
▁Bu	-3561
ding	-3562
hips	-3563
lied	-3564
rage	-3565
▁188	-3566
▁Pan	-3567
▁rap	-3568
▁whom	-3569
perial	-3570
▁streng	-3571
▁Congress	-3572
▁everybody	-3573
▁organization	-3574
een	-3575
aked	-3576
aled	-3577
wide	-3578
▁Art	-3579
▁Bay	-3580
▁Bud	-3581
▁DNA	-3582
▁pil	-3583
▁sat	-3584
astic	-3585
entle	-3586
▁2007	-3587
▁Hong	-3588
▁Lord	-3589
▁Rome	-3590
▁acid	-3591
▁reve	-3592
▁Queen	-3593
▁colon	-3594
▁debut	-3595
▁extra	-3596
▁voice	-3597
estival	-3598
▁Israel	-3599
▁Prince	-3600
▁animal	-3601
▁mainly	-3602
▁stated	-3603
▁Francis	-3604
▁address	-3605
▁becomes	-3606
▁trouble	-3607
▁commonly	-3608
▁interesting	-3609
la	-3610
ems	-3611
ourt	-3612
ques	-3613
rast	-3614
ties	-3615
▁Dis	-3616
▁cry	-3617
otion	-3618
▁Cont	-3619
▁Mark	-3620
▁Louis	-3621
▁Under	-3622
▁chann	-3623
▁print	-3624
▁Before	-3625
▁transl	-3626
▁Eastern	-3627
▁subsequ	-3628
▁response	-3629
▁commercial	-3630
▁management	-3631
ban	-3632
ils	-3633
ests	-3634
room	-3635
wise	-3636
▁Day	-3637
▁Hen	-3638
▁Sol	-3639
▁ren	-3640
field	-3641
ivity	-3642
▁2012	-3643
▁Cast	-3644
▁card	-3645
▁dram	-3646
▁lies	-3647
▁perm	-3648
▁wild	-3649
▁Enter	-3650
▁thank	-3651
▁Portug	-3652
▁forget	-3653
▁larger	-3654
ervation	-3655
▁schools	-3656
▁Internet	-3657
▁activity	-3658
▁document	-3659
▁architect	-3660
▁independent	-3661
ER	-3662
cu	-3663
gn	-3664
–2	-3665
eal	-3666
ona	-3667
oto	-3668
rief	-3669
yond	-3670
▁Fil	-3671
▁cere	-3672
▁prep	-3673
▁scene	-3674
ropical	-3675
▁carbon	-3676
▁forced	-3677
▁resour	-3678
▁killing	-3679
▁primary	-3680
▁election	-3681
▁soldiers	-3682
▁Institute	-3683
▁appointed	-3684
ED	-3685
▁Law	-3686
▁Ter	-3687
▁rat	-3688
ledge	-3689
▁2001	-3690
▁Play	-3691
▁Year	-3692
▁boys	-3693
▁David	-3694
▁detect	-3695
▁convers	-3696
▁eastern	-3697
▁economy	-3698
▁greater	-3699
▁buildings	-3700
▁treatment	-3701
eles	-3702
mark	-3703
rill	-3704
▁den	-3705
ademy	-3706
lause	-3707
▁epis	-3708
▁harm	-3709
▁hate	-3710
▁mill	-3711
▁James	-3712
▁Latin	-3713
▁Mount	-3714
▁purch	-3715
display	-3716
hington	-3717
▁flight	-3718
▁dollars	-3719
▁learned	-3720
▁message	-3721
▁conflict	-3722
▁mathemat	-3723
▁destroyed	-3724
displaystyle	-3725
")	-3726
10	-3727
ua	-3728
za	-3729
▁—	-3730
ees	-3731
gal	-3732
ply	-3733
rad	-3734
unk	-3735
▁OK	-3736
▁ir	-3737
uman	-3738
▁Del	-3739
▁III	-3740
▁sen	-3741
ender	-3742
ounds	-3743
▁male	-3744
▁crazy	-3745
▁older	-3746
▁price	-3747
▁artist	-3748
▁church	-3749
▁finish	-3750
▁orders	-3751
▁square	-3752
▁municip	-3753
▁distance	-3754
▁dangerous	-3755
▁estimated	-3756
IN	-3757
spe	-3758
vey	-3759
▁Tw	-3760
edom	-3761
enge	-3762
eter	-3763
iber	-3764
▁ran	-3765
apers	-3766
icles	-3767
utive	-3768
▁corn	-3769
change	-3770
▁enemy	-3771
▁murder	-3772
▁Charles	-3773
▁remains	-3774
▁student	-3775
▁minister	-3776
▁recently	-3777
fl	-3778
▁,	-3779
▁°	-3780
ida	-3781
war	-3782
▁Ah	-3783
▁Sl	-3784
book	-3785
imum	-3786
▁Sur	-3787
▁bal	-3788
▁dog	-3789
▁lif	-3790
▁mob	-3791
▁flag	-3792
▁hang	-3793
▁unit	-3794
▁Would	-3795
▁broke	-3796
▁teams	-3797
▁Argent	-3798
▁length	-3799
▁online	-3800
▁resist	-3801
ulations	-3802
▁directed	-3803
▁referred	-3804
▁Department	-3805
▁Washington	-3806
▁experiment	-3807
▁immediately	-3808
80	-3809
AT	-3810
lt	-3811
eds	-3812
ike	-3813
▁("	-3814
▁(3	-3815
bour	-3816
▁186	-3817
iance	-3818
ician	-3819
▁deli	-3820
▁doub	-3821
▁sell	-3822
▁wood	-3823
▁Award	-3824
▁chart	-3825
▁spend	-3826
▁store	-3827
▁Museum	-3828
▁Robert	-3829
▁fourth	-3830
▁issues	-3831
▁showed	-3832
▁families	-3833
▁finished	-3834
▁Committee	-3835
App	-3836
pro	-3837
▁29	-3838
omas	-3839
▁Mer	-3840
▁ult	-3841
andon	-3842
▁Mont	-3843
▁benef	-3844
▁drive	-3845
▁minor	-3846
▁rules	-3847
▁storm	-3848
▁caught	-3849
▁charge	-3850
▁letter	-3851
▁singer	-3852
▁supply	-3853
▁Captain	-3854
▁Michael	-3855
▁imagine	-3856
▁ordered	-3857
▁quality	-3858
▁cultural	-3859
Ch	-3860
ips	-3861
uan	-3862
▁60	-3863
▁Us	-3864
illa	-3865
part	-3866
▁Kar	-3867
▁Max	-3868
ellig	-3869
▁Over	-3870
▁repe	-3871
itness	-3872
▁2015,	-3873
▁Three	-3874
▁Which	-3875
▁White	-3876
▁dance	-3877
▁ended	-3878
▁plane	-3879
▁Commun	-3880
▁Middle	-3881
▁Secret	-3882
▁mostly	-3883
▁select	-3884
▁simply	-3885
▁carried	-3886
▁display	-3887
▁sources	-3888
▁chemical	-3889
▁patients	-3890
▁somewhere	-3891
▁independence	-3892
500	-3893
aka	-3894
ancy	-3895
ping	-3896
▁Bal	-3897
▁Pat	-3898
▁2009	-3899
▁2014	-3900
▁blue	-3901
▁poll	-3902
▁shut	-3903
▁symb	-3904
idents	-3905
istics	-3906
▁Music	-3907
▁films	-3908
▁image	-3909
▁marry	-3910
▁sweet	-3911
ocratic	-3912
▁concer	-3913
▁depart	-3914
▁divided	-3915
▁elected	-3916
▁measure	-3917
▁opening	-3918
▁experien	-3919
▁presence	-3920
▁provided	-3921
▁province	-3922
ola	-3923
asty	-3924
fort	-3925
▁Rem	-3926
▁Rev	-3927
inger	-3928
oking	-3929
olved	-3930
▁2008,	-3931
▁2011,	-3932
▁Trans	-3933
▁guard	-3934
▁escort	-3935
▁review	-3936
Applause	-3937
▁claimed	-3938
▁purpose	-3939
▁reasons	-3940
▁absolute	-3941
▁property	-3942
▁standing	-3943
rs	-3944
ipl	-3945
ras	-3946
uke	-3947
▁31	-3948
itan	-3949
rang	-3950
▁log	-3951
▁suc	-3952
light	-3953
▁Gold	-3954
▁Star	-3955
▁flow	-3956
▁Court	-3957
▁lines	-3958
▁Street	-3959
▁status	-3960
▁widely	-3961
▁content	-3962
▁improve	-3963
▁nuclear	-3964
▁agricult	-3965
▁contains	-3966
▁interested	-3967
▁scientific	-3968
eg	-3969
ev	-3970
osh	-3971
▁Haw	-3972
▁Inc	-3973
▁Tod	-3974
▁fat	-3975
▁sch	-3976
atell	-3977
using	-3978
▁2016	-3979
▁lear	-3980
▁uses	-3981
ighter	-3982
▁2006,	-3983
▁2010,	-3984
▁below	-3985
▁quant	-3986
▁withd	-3987
▁Direct	-3988
▁seeing	-3989
▁appears	-3990
▁promise	-3991
▁knowledge	-3992
▁therefore	-3993
ads	-3994
ams	-3995
ech	-3996
wan	-3997
▁Es	-3998
▁Gl	-3999
ares	-4000
atre	-4001
nces	-4002
rier	-4003
▁huh	-4004
▁und	-4005
▁veh	-4006
azing	-4007
odies	-4008
▁huge	-4009
ession	-4010
▁Micro	-4011
▁scale	-4012
▁throw	-4013
▁Jewish	-4014
▁beyond	-4015
▁recent	-4016
▁Academy	-4017
▁anybody	-4018
▁shouldn	-4019
▁magazine	-4020
▁Champions	-4021
▁necessary	-4022
2)	-4023
AN	-4024
olf	-4025
▁mm	-4026
mosp	-4027
▁Squ	-4028
▁hyp	-4029
ensus	-4030
iated	-4031
ville	-4032
▁(201	-4033
▁Does	-4034
▁firm	-4035
▁ring	-4036
▁seat	-4037
atform	-4038
▁Asian	-4039
▁ocean	-4040
▁master	-4041
▁recomm	-4042
▁abandon	-4043
▁patient	-4044
▁variety	-4045
▁protection	-4046
AR	-4047
omy	-4048
resh	-4049
▁Los	-4050
▁lie	-4051
oring	-4052
▁2017	-4053
▁Hall	-4054
▁Once	-4055
▁Vict	-4056
▁batt	-4057
▁crew	-4058
▁Those	-4059
▁chief	-4060
▁prior	-4061
▁staff	-4062
▁princi	-4063
▁parties	-4064
▁perhaps	-4065
▁studied	-4066
▁Northern	-4067
▁centuries	-4068
▁financial	-4069
▁religious	-4070
▁kilometres	-4071
bl	-4072
ji	-4073
kin	-4074
mit	-4075
och	-4076
osc	-4077
abin	-4078
onic	-4079
ophy	-4080
race	-4081
▁Lee	-4082
▁emb	-4083
enced	-4084
▁Hung	-4085
▁Jose	-4086
▁spot	-4087
▁suit	-4088
ancing	-4089
ulated	-4090
▁2009,	-4091
▁2012,	-4092
▁Never	-4093
▁ahead	-4094
▁crime	-4095
▁horse	-4096
▁style	-4097
▁memory	-4098
▁severe	-4099
▁sexual	-4100
▁defined	-4101
▁growing	-4102
▁additional	-4103
▁revolution	-4104
-3	-4105
tt	-4106
imb	-4107
edic	-4108
ogen	-4109
oper	-4110
racy	-4111
▁Rob	-4112
▁gal	-4113
▁sac	-4114
▁spl	-4115
asure	-4116
▁Prof	-4117
▁diss	-4118
▁fort	-4119
▁grew	-4120
▁Tokyo	-4121
▁green	-4122
▁speed	-4123
▁conver	-4124
▁honest	-4125
▁demonst	-4126
▁reality	-4127
▁succeed	-4128
▁domestic	-4129
▁programs	-4130
▁activities	-4131
▁individuals	-4132
-0	-4133
IS	-4134
:00	-4135
ila	-4136
▁sn	-4137
aker	-4138
berg	-4139
osen	-4140
well	-4141
▁Mac	-4142
▁Win	-4143
ellow	-4144
icted	-4145
ipped	-4146
rible	-4147
▁race	-4148
▁shop	-4149
▁Inter	-4150
▁Peter	-4151
▁Saint	-4152
▁enter	-4153
▁gives	-4154
▁inhab	-4155
▁tells	-4156
▁choose	-4157
▁compon	-4158
▁damage	-4159
▁failed	-4160
▁powers	-4161
▁spirit	-4162
▁missing	-4163
▁objects	-4164
▁officer	-4165
▁behavior	-4166
▁neighbor	-4167
▁transform	-4168
90	-4169
▁TH	-4170
rugg	-4171
▁Dad	-4172
▁Mom	-4173
▁Sub	-4174
▁hun	-4175
ented	-4176
eting	-4177
▁Hist	-4178
▁Oper	-4179
▁coff	-4180
▁dire	-4181
▁vari	-4182
▁basis	-4183
▁mouth	-4184
▁newsp	-4185
▁plans	-4186
▁atmosp	-4187
▁bottom	-4188
▁candid	-4189
▁highly	-4190
▁airport	-4191
▁failure	-4192
▁pattern	-4193
▁elements	-4194
▁expected	-4195
▁construct	-4196
▁interview	-4197
▁operation	-4198
▁resources	-4199
▁thousands	-4200
▁opportunity	-4201
ala	-4202
ini	-4203
nes	-4204
ora	-4205
rog	-4206
aria	-4207
▁Off	-4208
▁fif	-4209
▁heat	-4210
▁quar	-4211
▁skin	-4212
▁task	-4213
▁tree	-4214
▁appre	-4215
▁calls	-4216
▁rapid	-4217
▁rough	-4218
▁Thomas	-4219
▁league	-4220
▁raised	-4221
▁Nothing	-4222
▁planned	-4223
▁accepted	-4224
▁accident	-4225
▁analysis	-4226
▁universe	-4227
▁administr	-4228
▁primarily	-4229
3)	-4230
lim	-4231
umn	-4232
▁70	-4233
▁Ha	-4234
anch	-4235
iral	-4236
▁Def	-4237
▁Jul	-4238
▁Mrs	-4239
▁Sar	-4240
▁Wal	-4241
osaur	-4242
▁1970	-4243
▁Also	-4244
▁Carl	-4245
▁Foot	-4246
▁Fore	-4247
▁blow	-4248
▁murd	-4249
▁poly	-4250
▁remo	-4251
▁ride	-4252
▁sand	-4253
▁spok	-4254
▁susp	-4255
▁yeah	-4256
▁2014,	-4257
▁Later	-4258
▁Sorry	-4259
▁faith	-4260
▁models	-4261
▁college	-4262
▁complic	-4263
▁attended	-4264
▁extended	-4265
▁learning	-4266
▁department	-4267
ih	-4268
no	-4269
▁+	-4270
egr	-4271
iro	-4272
nic	-4273
rid	-4274
▁80	-4275
oles	-4276
soft	-4277
▁Dar	-4278
▁Pen	-4279
▁nar	-4280
▁tor	-4281
acity	-4282
aling	-4283
▁2000	-4284
▁2018	-4285
▁Best	-4286
▁Each	-4287
▁prec	-4288
▁resc	-4289
▁rise	-4290
▁webs	-4291
porary	-4292
▁Niger	-4293
▁exerc	-4294
▁fully	-4295
viously	-4296
▁allows	-4297
▁studio	-4298
▁Richard	-4299
▁islands	-4300
▁seconds	-4301
▁maintain	-4302
▁possibly	-4303
▁proposed	-4304
▁regional	-4305
▁ourselves	-4306
-4	-4307
can	-4308
irt	-4309
mas	-4310
rey	-4311
▁3,	-4312
agon	-4313
uate	-4314
▁500	-4315
▁Hel	-4316
▁Rom	-4317
▁Sat	-4318
▁flu	-4319
▁hur	-4320
▁mut	-4321
▁pun	-4322
anted	-4323
iplom	-4324
▁Bang	-4325
▁Time	-4326
▁Wall	-4327
▁drop	-4328
acters	-4329
▁Today	-4330
▁effic	-4331
▁uncle	-4332
▁weird	-4333
▁anyway	-4334
▁bridge	-4335
▁gentle	-4336
▁provin	-4337
▁strugg	-4338
▁weapon	-4339
▁weight	-4340
▁continu	-4341
▁element	-4342
▁citizens	-4343
▁electric	-4344
▁happening	-4345
▁historical	-4346
BC	-4347
St	-4348
ef	-4349
ype	-4350
dden	-4351
iana	-4352
▁Nic	-4353
▁map	-4354
▁syn	-4355
essor	-4356
imens	-4357
▁Cath	-4358
▁Town	-4359
▁lady	-4360
▁prem	-4361
▁Colle	-4362
▁Games	-4363
▁Techn	-4364
▁Women	-4365
▁apart	-4366
▁funny	-4367
▁nomin	-4368
▁serve	-4369
▁Virgin	-4370
▁slight	-4371
▁sudden	-4372
▁Science	-4373
▁calling	-4374
▁stopped	-4375
▁workers	-4376
▁electron	-4377
▁numerous	-4378
▁Something	-4379
▁conducted	-4380
▁direction	-4381
▁implement	-4382
▁initially	-4383
▁photograph	-4384
▁previously	-4385
25	-4386
▁=	-4387
aly	-4388
isl	-4389
lam	-4390
▁35	-4391
▁Up	-4392
ache	-4393
aped	-4394
iser	-4395
onds	-4396
ston	-4397
▁Boy	-4398
▁Mod	-4399
▁Nap	-4400
▁Old	-4401
▁bud	-4402
▁bul	-4403
aming	-4404
urban	-4405
▁1960	-4406
▁Four	-4407
▁guns	-4408
▁laws	-4409
nament	-4410
▁2007,	-4411
▁brief	-4412
▁chain	-4413
▁cloud	-4414
▁ideas	-4415
▁Listen	-4416
▁agreed	-4417
▁altern	-4418
▁bacter	-4419
▁escape	-4420
▁images	-4421
▁satell	-4422
▁Britain	-4423
▁covered	-4424
▁herself	-4425
▁division	-4426
▁planning	-4427
▁typically	-4428
ado	-4429
eed	-4430
izes	-4431
▁Fle	-4432
▁dry	-4433
earch	-4434
hetic	-4435
▁Give	-4436
▁Prot	-4437
▁drag	-4438
▁jump	-4439
▁kiss	-4440
▁labor	-4441
▁royal	-4442
▁turns	-4443
▁weren	-4444
▁dinner	-4445
▁launch	-4446
▁reform	-4447
▁Company	-4448
▁Despite	-4449
▁digital	-4450
▁combined	-4451
▁greatest	-4452
▁negative	-4453
▁evolution	-4454
▁supported	-4455
▁characters	-4456
▁collection	-4457
▁university	-4458
osa	-4459
vin	-4460
▁Av	-4461
▁Da	-4462
▁Rh	-4463
▁Uk	-4464
aste	-4465
roud	-4466
teen	-4467
▁Tex	-4468
▁Tor	-4469
▁tot	-4470
ading	-4471
ctors	-4472
irmed	-4473
press	-4474
▁Bern	-4475
▁pray	-4476
▁rich	-4477
▁scen	-4478
▁Could	-4479
isation	-4480
▁Church	-4481
▁camera	-4482
▁combat	-4483
▁demand	-4484
▁metres	-4485
▁museum	-4486
outheast	-4487
▁adopted	-4488
▁amazing	-4489
▁kingdom	-4490
▁replace	-4491
▁section	-4492
▁weapons	-4493
▁compared	-4494
▁defeated	-4495
▁distinct	-4496
▁invasion	-4497
▁thousand	-4498
▁materials	-4499
▁operating	-4500
4)	-4501
ES	-4502
nel	-4503
see	-4504
▁90	-4505
etry	-4506
ship	-4507
▁Lib	-4508
▁Tra	-4509
▁bag	-4510
▁lic	-4511
adium	-4512
ested	-4513
pping	-4514
▁Wait	-4515
▁boss	-4516
▁duty	-4517
▁rare	-4518
ashion	-4519
ynasty	-4520
▁2016,	-4521
▁Carol	-4522
▁adapt	-4523
▁autom	-4524
▁floor	-4525
▁magic	-4526
▁saved	-4527
▁castle	-4528
▁sounds	-4529
izations	-4530
▁appreci	-4531
▁awarded	-4532
▁Atlantic	-4533
▁declared	-4534
▁multiple	-4535
▁projects	-4536
▁promoted	-4537
▁Microsoft	-4538
▁challenge	-4539
▁Vietnamese	-4540
▁officially	-4541
9)	-4542
TV	-4543
da	-4544
ato	-4545
bel	-4546
iar	-4547
▁Er	-4548
iced	-4549
▁Bus	-4550
▁lat	-4551
▁wed	-4552
adian	-4553
ordin	-4554
orial	-4555
▁1980	-4556
▁Bank	-4557
▁Inst	-4558
▁Lady	-4559
▁Lake	-4560
▁phen	-4561
▁pure	-4562
▁2013,	-4563
▁2015.	-4564
▁Found	-4565
▁aware	-4566
▁fresh	-4567
▁limit	-4568
▁schol	-4569
▁System	-4570
▁centre	-4571
▁actions	-4572
▁attract	-4573
▁biggest	-4574
▁climate	-4575
▁correct	-4576
▁despite	-4577
▁largely	-4578
▁restaur	-4579
▁victory	-4580
stitution	-4581
▁intellig	-4582
▁operated	-4583
▁solution	-4584
▁extremely	-4585
▁Revolution	-4586
▁represented	-4587
AF	-4588
ID	-4589
mm	-4590
pre	-4591
sex	-4592
uts	-4593
▁Gh	-4594
▁Mo	-4595
alle	-4596
ches	-4597
oria	-4598
upid	-4599
▁Bas	-4600
▁Fre	-4601
▁Hot	-4602
▁Sum	-4603
▁aim	-4604
▁ign	-4605
▁max	-4606
▁saf	-4607
antly	-4608
iling	-4609
iring	-4610
orses	-4611
▁2004	-4612
▁2005	-4613
▁Prem	-4614
▁rail	-4615
▁soul	-4616
▁vacc	-4617
▁Green	-4618
▁Henry	-4619
▁agent	-4620
▁equip	-4621
▁virus	-4622
▁handle	-4623
▁promin	-4624
▁achieve	-4625
▁driving	-4626
▁partner	-4627
▁survive	-4628
▁apparent	-4629
▁exchange	-4630
▁connected	-4631
▁appearance	-4632
!"	-4633
1)	-4634
70	-4635
do	-4636
owd	-4637
sen	-4638
▁5,	-4639
▁FC	-4640
▁Ol	-4641
What	-4642
cont	-4643
enth	-4644
iday	-4645
isms	-4646
▁Ken	-4647
▁bra	-4648
arden	-4649
▁wine	-4650
ifying	-4651
▁avoid	-4652
▁drugs	-4653
▁incor	-4654
▁kinds	-4655
ception	-4656
ologist	-4657
▁accomp	-4658
▁compar	-4659
▁height	-4660
▁issued	-4661
▁native	-4662
▁artists	-4663
▁consequ	-4664
▁selling	-4665
▁weather	-4666
▁Football	-4667
▁Province	-4668
▁parliament	-4669
▁constitution	-4670
▁participated	-4671
▁respectively	-4672
het	-4673
ulg	-4674
cest	-4675
otic	-4676
▁Bob	-4677
▁Cub	-4678
▁Wil	-4679
▁ens	-4680
▁mad	-4681
▁pet	-4682
▁Iran	-4683
▁Moon	-4684
▁runs	-4685
▁2005,	-4686
▁Charl	-4687
▁noted	-4688
▁shape	-4689
▁astron	-4690
▁faster	-4691
▁waters	-4692
▁window	-4693
▁applied	-4694
▁musical	-4695
▁visited	-4696
▁composed	-4697
▁medicine	-4698
▁tropical	-4699
▁Secretary	-4700
▁broadcast	-4701
▁formation	-4702
▁Parliament	-4703
7)	-4704
asy	-4705
axy	-4706
ira	-4707
ota	-4708
raq	-4709
▁du	-4710
▁et	-4711
▁hy	-4712
▁um	-4713
Arab	-4714
ager	-4715
▁Mur	-4716
▁Unt	-4717
▁gar	-4718
adies	-4719
stein	-4720
▁Both	-4721
▁Work	-4722
▁dial	-4723
▁synt	-4724
▁wave	-4725
▁weak	-4726
ailand	-4727
▁decre	-4728
▁encou	-4729
▁exhib	-4730
▁instr	-4731
▁loved	-4732
▁worse	-4733
▁youth	-4734
▁Martin	-4735
▁chosen	-4736
▁prepar	-4737
▁taught	-4738
▁unique	-4739
▁visual	-4740
▁manager	-4741
▁offered	-4742
▁reduced	-4743
▁respond	-4744
▁capacity	-4745
▁officers	-4746
▁platform	-4747
▁remaining	-4748
▁Government	-4749
▁industrial	-4750
▁transferred	-4751
15	-4752
CO	-4753
ext	-4754
lar	-4755
▁4,	-4756
▁FI	-4757
▁UN	-4758
osis	-4759
▁Cle	-4760
▁Jim	-4761
▁Mas	-4762
▁mir	-4763
orter	-4764
▁Girl	-4765
▁Open	-4766
▁bath	-4767
▁boat	-4768
▁seek	-4769
▁tend	-4770
ocracy	-4771
▁2014.	-4772
▁Young	-4773
▁brand	-4774
▁trial	-4775
lection	-4776
ossible	-4777
▁Columb	-4778
▁beauty	-4779
▁leaves	-4780
▁losing	-4781
▁scared	-4782
▁signal	-4783
▁Airport	-4784
▁College	-4785
▁suspect	-4786
▁totally	-4787
▁witness	-4788
▁anywhere	-4789
▁changing	-4790
▁intended	-4791
▁progress	-4792
▁strength	-4793
▁confirmed	-4794
▁existence	-4795
▁worldwide	-4796
▁Everything	-4797
▁authorities	-4798
5%	-4799
ón	-4800
ela	-4801
osm	-4802
▁Ap	-4803
▁Fe	-4804
▁ut	-4805
resp	-4806
rich	-4807
▁Den	-4808
▁aid	-4809
▁har	-4810
force	-4811
▁bill	-4812
▁cars	-4813
▁fuel	-4814
▁none	-4815
ements	-4816
hester	-4817
luding	-4818
▁2010.	-4819
▁2011.	-4820
▁Chile	-4821
▁Civil	-4822
▁Ocean	-4823
▁dedic	-4824
▁liber	-4825
▁pregn	-4826
▁reven	-4827
▁smart	-4828
▁smell	-4829
▁twice	-4830
▁begins	-4831
▁bodies	-4832
▁diplom	-4833
▁stupid	-4834
entially	-4835
▁Princess	-4836
▁Sometimes	-4837
▁effective	-4838
▁equipment	-4839
▁returning	-4840
▁environmental	-4841
▁administration	-4842
rd	-4843
coh	-4844
igr	-4845
uls	-4846
yan	-4847
▁IS	-4848
▁ec	-4849
vert	-4850
▁Mem	-4851
▁Naz	-4852
▁Out	-4853
▁Pak	-4854
▁Ric	-4855
▁amb	-4856
▁wel	-4857
night	-4858
pired	-4859
▁Serv	-4860
▁Song	-4861
▁Turk	-4862
▁liqu	-4863
▁swim	-4864
▁till	-4865
▁About	-4866
▁Treat	-4867
▁basic	-4868
▁chair	-4869
▁genus	-4870
▁paint	-4871
▁Colomb	-4872
▁Edward	-4873
▁Warsaw	-4874
▁acting	-4875
▁ancest	-4876
▁defeat	-4877
▁latter	-4878
▁nobody	-4879
▁remind	-4880
▁terror	-4881
▁Indones	-4882
▁Through	-4883
▁closely	-4884
▁freedom	-4885
▁Constant	-4886
▁feelings	-4887
▁occasion	-4888
▁prepared	-4889
▁restrict	-4890
▁condition	-4891
▁scientists	-4892
▁tournament	-4893
▁Philippines	-4894
OS	-4895
We	-4896
hy	-4897
zy	-4898
You	-4899
edy	-4900
ori	-4901
win	-4902
zen	-4903
▁Hu	-4904
▁Pu	-4905
fall	-4906
omic	-4907
▁185	-4908
▁Est	-4909
▁Lin	-4910
▁Ram	-4911
▁adj	-4912
▁eld	-4913
▁fit	-4914
▁unf	-4915
▁vot	-4916
▁web	-4917
hesis	-4918
idden	-4919
lying	-4920
ulate	-4921
▁Sund	-4922
▁lawy	-4923
▁meat	-4924
▁virt	-4925
▁2017.	-4926
▁crown	-4927
▁negot	-4928
▁theme	-4929
ologies	-4930
▁Social	-4931
▁arrang	-4932
▁coffee	-4933
▁easily	-4934
▁gather	-4935
▁incred	-4936
▁sports	-4937
▁thinks	-4938
▁Premier	-4939
▁clothes	-4940
▁removed	-4941
▁website	-4942
▁willing	-4943
▁Imperial	-4944
▁Thailand	-4945
▁commander	-4946
▁tradition	-4947
▁determined	-4948
▁recognized	-4949
8)	-4950
bi	-4951
isc	-4952
van	-4953
▁0.	-4954
▁Ba	-4955
▁Hy	-4956
▁Id	-4957
▁id	-4958
▁ur	-4959
iang	-4960
ogue	-4961
quar	-4962
writ	-4963
▁Jer	-4964
▁Mel	-4965
▁Sil	-4966
▁pig	-4967
house	-4968
▁Budd	-4969
▁Camp	-4970
▁Iraq	-4971
▁Last	-4972
▁Long	-4973
▁arms	-4974
▁cris	-4975
▁ends	-4976
▁fool	-4977
▁libr	-4978
father	-4979
▁2017,	-4980
▁Elect	-4981
▁Santa	-4982
▁Sever	-4983
▁dress	-4984
▁dying	-4985
▁prove	-4986
▁subst	-4987
▁urban	-4988
ription	-4989
▁Master	-4990
▁actual	-4991
▁agents	-4992
▁corpor	-4993
▁depend	-4994
▁double	-4995
▁effort	-4996
▁forgot	-4997
▁horses	-4998
▁notice	-4999
▁pieces	-5000
▁spring	-5001
▁dropped	-5002
▁episode	-5003
▁feature	-5004
▁reports	-5005
▁sitting	-5006
▁univers	-5007
▁Southern	-5008
▁favorite	-5009
▁occurred	-5010
▁reaction	-5011
▁realized	-5012
▁speaking	-5013
▁functions	-5014
▁mentioned	-5015
▁resulting	-5016
▁Australian	-5017
▁relatively	-5018
▁structures	-5019
▁application	-5020
▁distribution	-5021
AP	-5022
mi	-5023
}}	-5024
aki	-5025
anz	-5026
ett	-5027
osy	-5028
▁3.	-5029
▁Az	-5030
▁Ca	-5031
gery	-5032
rane	-5033
▁11,	-5034
▁Die	-5035
▁Ire	-5036
▁Put	-5037
▁ban	-5038
▁sad	-5039
▁tal	-5040
acing	-5041
apore	-5042
verse	-5043
▁1930	-5044
▁1950	-5045
▁Pers	-5046
▁Thai	-5047
▁opin	-5048
▁user	-5049
▁2016.	-5050
▁Chief	-5051
▁bunch	-5052
▁categ	-5053
▁clubs	-5054
▁fault	-5055
▁graph	-5056
▁metal	-5057
▁micro	-5058
▁spect	-5059
▁users	-5060
▁Malays	-5061
▁calcul	-5062
▁fellow	-5063
▁fought	-5064
▁illust	-5065
▁integr	-5066
▁occurs	-5067
▁titled	-5068
▁useful	-5069
▁winter	-5070
▁capable	-5071
▁efforts	-5072
▁express	-5073
▁federal	-5074
▁initial	-5075
▁physics	-5076
▁realize	-5077
▁unknown	-5078
▁wearing	-5079
▁Actually	-5080
▁Research	-5081
▁brothers	-5082
▁consists	-5083
▁featured	-5084
▁painting	-5085
▁Americans	-5086
▁organized	-5087
▁otherwise	-5088
bu	-5089
▁Ky	-5090
▁Py	-5091
aser	-5092
ella	-5093
imal	-5094
lies	-5095
life	-5096
vant	-5097
▁Cur	-5098
▁Ray	-5099
▁era	-5100
▁rot	-5101
erves	-5102
essel	-5103
▁Club	-5104
▁Goog	-5105
▁Gulf	-5106
▁Life	-5107
▁Soci	-5108
▁Stan	-5109
▁elev	-5110
▁emot	-5111
▁fant	-5112
▁wear	-5113
▁2013.	-5114
▁Major	-5115
▁Texas	-5116
▁Until	-5117
▁alcoh	-5118
▁analy	-5119
▁loyal	-5120
▁motor	-5121
▁proud	-5122
▁advant	-5123
▁closer	-5124
▁crimin	-5125
▁device	-5126
▁houses	-5127
▁regist	-5128
▁talked	-5129
▁evening	-5130
▁forever	-5131
▁heavily	-5132
▁holding	-5133
▁showing	-5134
▁wedding	-5135
▁Egyptian	-5136
▁collabor	-5137
▁partners	-5138
▁Singapore	-5139
▁abandoned	-5140
▁conference	-5141
▁generation	-5142
6)	-5143
AS	-5144
dd	-5145
cel	-5146
han	-5147
iat	-5148
rat	-5149
irty	-5150
olly	-5151
rees	-5152
▁184	-5153
▁Cat	-5154
▁Dan	-5155
▁Edu	-5156
▁Hor	-5157
▁Mot	-5158
▁Ven	-5159
▁Vol	-5160
▁cas	-5161
▁nit	-5162
▁oxy	-5163
aging	-5164
ategy	-5165
iform	-5166
iques	-5167
▁Arts	-5168
▁Peru	-5169
▁hung	-5170
▁rang	-5171
▁sets	-5172
Arabic	-5173
iments	-5174
itants	-5175
▁crowd	-5176
▁flood	-5177
▁sides	-5178
▁sympt	-5179
▁waste	-5180
western	-5181
▁Econom	-5182
▁Thanks	-5183
▁contem	-5184
▁gained	-5185
▁mobile	-5186
▁safety	-5187
▁wealth	-5188
▁Nations	-5189
▁article	-5190
▁channel	-5191
▁counter	-5192
▁emperor	-5193
▁methods	-5194
▁receive	-5195
▁strange	-5196
▁worried	-5197
▁Catholic	-5198
▁Festival	-5199
▁affected	-5200
▁creating	-5201
▁strategy	-5202
▁protected	-5203
▁satellite	-5204
▁understanding	-5205
US	-5206
gl	-5207
ko	-5208
ias	-5209
ked	-5210
amin	-5211
roat	-5212
ruit	-5213
▁Det	-5214
▁Int	-5215
▁Mat	-5216
▁Nat	-5217
▁fer	-5218
orate	-5219
▁Love	-5220
▁Mars	-5221
▁bear	-5222
▁file	-5223
▁grav	-5224
▁ille	-5225
▁neut	-5226
▁2012.	-5227
▁Prize	-5228
▁actor	-5229
▁joint	-5230
▁sites	-5231
▁Google	-5232
▁Joseph	-5233
▁Mother	-5234
▁Taiwan	-5235
▁attend	-5236
▁bought	-5237
▁census	-5238
▁corner	-5239
▁credit	-5240
▁crisis	-5241
▁elimin	-5242
▁ethnic	-5243
▁income	-5244
▁senior	-5245
▁spoken	-5246
▁battles	-5247
▁managed	-5248
▁younger	-5249
▁identity	-5250
▁agreement	-5251
▁emergency	-5252
▁officials	-5253
▁recognize	-5254
▁suggested	-5255
▁applications	-5256
ET	-5257
It	-5258
erg	-5259
hal	-5260
how	-5261
rig	-5262
▁$1	-5263
▁4.	-5264
▁Ak	-5265
iate	-5266
iven	-5267
rete	-5268
▁10,	-5269
▁Got	-5270
▁Luc	-5271
▁Rad	-5272
▁Sup	-5273
▁tum	-5274
essed	-5275
icide	-5276
itely	-5277
miral	-5278
▁roof	-5279
▁Marsh	-5280
▁Times	-5281
▁honey	-5282
▁phase	-5283
▁instit	-5284
▁marked	-5285
▁unless	-5286
▁writer	-5287
tainment	-5288
▁Ireland	-5289
▁advance	-5290
▁captain	-5291
▁researc	-5292
▁streets	-5293
▁Military	-5294
▁advanced	-5295
▁suffered	-5296
▁Christmas	-5297
▁Francisco	-5298
▁authority	-5299
▁atmosphere	-5300
▁philosophy	-5301
▁conversation	-5302
▁municipality	-5303
▁subsequently	-5304
IA	-5305
MS	-5306
sp	-5307
ami	-5308
vis	-5309
mony	-5310
vest	-5311
▁Ann	-5312
▁Bab	-5313
▁mel	-5314
▁pan	-5315
▁rom	-5316
bered	-5317
cause	-5318
itter	-5319
place	-5320
rical	-5321
▁2019	-5322
▁Norm	-5323
▁Plan	-5324
▁gain	-5325
▁hide	-5326
▁jobs	-5327
▁lake	-5328
▁rein	-5329
▁trip	-5330
ansion	-5331
▁Liber	-5332
▁Offic	-5333
▁compl	-5334
▁frame	-5335
▁goals	-5336
▁grown	-5337
▁habit	-5338
▁deaths	-5339
▁vessel	-5340
▁Records	-5341
▁settled	-5342
▁winning	-5343
▁arrested	-5344
▁captured	-5345
▁phenomen	-5346
▁pictures	-5347
▁politics	-5348
▁slightly	-5349
▁violence	-5350
▁graduated	-5351
▁Commission	-5352
▁identified	-5353
▁impossible	-5354
.)	-5355
car	-5356
occ	-5357
sey	-5358
you	-5359
▁Os	-5360
also	-5361
ghan	-5362
igen	-5363
▁300	-5364
▁Cla	-5365
▁Cop	-5366
▁Lar	-5367
▁ble	-5368
▁sam	-5369
iency	-5370
inity	-5371
tical	-5372
▁Book	-5373
▁Mosc	-5374
▁Such	-5375
▁acts	-5376
▁chap	-5377
▁onto	-5378
▁snow	-5379
▁tank	-5380
▁zero	-5381
▁Fleet	-5382
▁Human	-5383
▁Think	-5384
▁agree	-5385
▁fleet	-5386
▁solar	-5387
▁worst	-5388
▁wound	-5389
ructure	-5390
▁Health	-5391
▁bigger	-5392
▁causes	-5393
▁deploy	-5394
▁meters	-5395
▁reduce	-5396
fficient	-5397
iterrane	-5398
▁Angeles	-5399
▁strateg	-5400
▁walking	-5401
▁ceremony	-5402
▁critical	-5403
▁wonderful	-5404
▁absolutely	-5405
▁resistance	-5406
▁significantly	-5407
5)	-5408
gia	-5409
▁cm	-5410
ault	-5411
clus	-5412
gram	-5413
hens	-5414
rary	-5415
roph	-5416
thur	-5417
uten	-5418
▁Ham	-5419
▁Jes	-5420
▁Leg	-5421
▁Tri	-5422
▁bow	-5423
▁foc	-5424
eless	-5425
ether	-5426
ropri	-5427
tered	-5428
▁(199	-5429
▁Belg	-5430
▁Land	-5431
▁Make	-5432
▁Turn	-5433
▁hall	-5434
▁warm	-5435
esides	-5436
▁Islam	-5437
▁Stand	-5438
▁conqu	-5439
▁label	-5440
▁queen	-5441
▁raise	-5442
▁surre	-5443
▁Father	-5444
▁belief	-5445
▁copies	-5446
▁refuge	-5447
▁remark	-5448
▁silver	-5449
▁toward	-5450
▁Special	-5451
▁fashion	-5452
▁letters	-5453
▁Canadian	-5454
▁describe	-5455
▁distingu	-5456
iterranean	-5457
▁elections	-5458
▁processes	-5459
▁commission	-5460
▁properties	-5461
▁Entertainment	-5462
▁Mediterranean	-5463
▁Ug	-5464
long	-5465
osal	-5466
rons	-5467
uese	-5468
▁Dou	-5469
▁Hon	-5470
▁Mah	-5471
▁Men	-5472
▁Mir	-5473
▁Son	-5474
▁Tak	-5475
▁Ver	-5476
▁pra	-5477
▁tun	-5478
▁tur	-5479
▁voc	-5480
allel	-5481
▁Scot	-5482
▁Show	-5483
▁gift	-5484
▁milk	-5485
▁nort	-5486
▁pair	-5487
▁tiny	-5488
atures	-5489
▁Serie	-5490
▁Syria	-5491
▁accur	-5492
▁armed	-5493
▁chose	-5494
▁lands	-5495
▁owned	-5496
▁ruled	-5497
▁sight	-5498
▁tough	-5499
▁trees	-5500
ciences	-5501
raction	-5502
▁Little	-5503
▁earned	-5504
▁easier	-5505
▁legisl	-5506
▁motion	-5507
▁script	-5508
▁starts	-5509
▁thanks	-5510
▁clearly	-5511
▁matters	-5512
▁mistake	-5513
▁protein	-5514
▁reflect	-5515
▁incident	-5516
▁incorpor	-5517
▁provides	-5518
▁basically	-5519
▁certainly	-5520
▁champions	-5521
▁infection	-5522
▁specifically	-5523
'.	-5524
11	-5525
CA	-5526
wa	-5527
aya	-5528
lig	-5529
aven	-5530
ears	-5531
▁12,	-5532
▁Dub	-5533
▁Due	-5534
▁Inf	-5535
▁Jac	-5536
▁Nam	-5537
,000.	-5538
Cause	-5539
raine	-5540
while	-5541
▁Born	-5542
▁cops	-5543
▁wars	-5544
insula	-5545
▁2007.	-5546
▁Harry	-5547
▁Maria	-5548
▁Third	-5549
▁exped	-5550
▁orbit	-5551
▁quiet	-5552
▁rates	-5553
▁split	-5554
▁tools	-5555
▁Forces	-5556
▁Moscow	-5557
▁shared	-5558
▁titles	-5559
▁Admiral	-5560
▁damaged	-5561
▁depends	-5562
▁details	-5563
▁devices	-5564
▁earthqu	-5565
▁keeping	-5566
▁records	-5567
▁Everyone	-5568
▁creation	-5569
▁internal	-5570
▁obtained	-5571
▁occupied	-5572
▁promised	-5573
▁terrible	-5574
▁Argentina	-5575
▁Brazilian	-5576
▁alongside	-5577
▁presented	-5578
▁provinces	-5579
▁Democratic	-5580
▁connection	-5581
▁footballer	-5582
▁techniques	-5583
▁complicated	-5584
▁responsibility	-5585
ii	-5586
▁♫	-5587
gor	-5588
olt	-5589
rix	-5590
rum	-5591
▁38	-5592
▁Cy	-5593
▁eg	-5594
ader	-5595
iano	-5596
term	-5597
▁13,	-5598
▁17,	-5599
▁183	-5600
▁Han	-5601
▁Kat	-5602
▁Sel	-5603
oster	-5604
ushed	-5605
▁Camb	-5606
▁Cape	-5607
▁Chap	-5608
▁Cult	-5609
▁Flor	-5610
▁Mill	-5611
▁cook	-5612
▁eval	-5613
▁fill	-5614
▁jail	-5615
▁moon	-5616
▁pros	-5617
▁sacr	-5618
▁soil	-5619
▁trig	-5620
▁vent	-5621
terday	-5622
▁Leban	-5623
▁Scott	-5624
▁costs	-5625
▁diagn	-5626
▁hotel	-5627
▁innov	-5628
▁walls	-5629
oration	-5630
▁Awards	-5631
▁Sweden	-5632
▁branch	-5633
▁eating	-5634
▁oldest	-5635
▁prefer	-5636
▁stayed	-5637
▁temple	-5638
▁throne	-5639
▁actress	-5640
▁comfort	-5641
▁corresp	-5642
▁surgery	-5643
▁traffic	-5644
▁victims	-5645
▁murdered	-5646
▁requires	-5647
▁computers	-5648
▁fundament	-5649
▁statement	-5650
▁developing	-5651
▁frequently	-5652
▁girlfriend	-5653
▁investigation	-5654
IT	-5655
ba	-5656
ho	-5657
án	-5658
ava	-5659
equ	-5660
▁7,	-5661
▁Zh	-5662
ette	-5663
ocol	-5664
▁180	-5665
▁Jud	-5666
▁Ron	-5667
▁Van	-5668
▁nor	-5669
▁rid	-5670
agues	-5671
cipal	-5672
cript	-5673
cular	-5674
ishes	-5675
umber	-5676
unior	-5677
▁FIFA	-5678
▁clin	-5679
▁diam	-5680
▁sust	-5681
▁tiss	-5682
▁vary	-5683
urally	-5684
▁Organ	-5685
▁Smith	-5686
▁Space	-5687
▁cards	-5688
▁chlor	-5689
▁fired	-5690
▁pilot	-5691
▁solve	-5692
▁squad	-5693
▁Afghan	-5694
▁Though	-5695
▁aspect	-5696
▁bright	-5697
▁claims	-5698
▁client	-5699
▁palace	-5700
▁theore	-5701
▁Meeting	-5702
▁Society	-5703
▁Someone	-5704
▁alcohol	-5705
▁context	-5706
▁follows	-5707
▁setting	-5708
▁Archived	-5709
▁Columbia	-5710
▁Security	-5711
▁Virginia	-5712
▁allowing	-5713
▁bacteria	-5714
▁observed	-5715
▁studying	-5716
▁customers	-5717
▁containing	-5718
▁controlled	-5719
▁leadership	-5720
▁politician	-5721
▁mathematics	-5722
No	-5723
aph	-5724
▁32	-5725
▁8,	-5726
▁IV	-5727
atar	-5728
ione	-5729
roll	-5730
rome	-5731
ulpt	-5732
▁Ast	-5733
▁Cas	-5734
▁Hit	-5735
▁Lab	-5736
▁Rel	-5737
▁rub	-5738
▁sky	-5739
aniel	-5740
break	-5741
isher	-5742
osite	-5743
pring	-5744
riers	-5745
▁2003	-5746
▁Jane	-5747
▁Jews	-5748
▁Line	-5749
▁Live	-5750
▁cous	-5751
▁glad	-5752
▁loan	-5753
▁tail	-5754
ective	-5755
▁2009.	-5756
▁beach	-5757
▁compr	-5758
▁manga	-5759
▁plate	-5760
▁route	-5761
▁Indust	-5762
▁Palace	-5763
▁Should	-5764
▁Syrian	-5765
▁Treaty	-5766
▁annual	-5767
▁headed	-5768
▁hoping	-5769
▁oxygen	-5770
▁proced	-5771
▁therap	-5772
▁values	-5773
▁Several	-5774
▁capture	-5775
▁consult	-5776
▁derived	-5777
▁edition	-5778
▁focused	-5779
▁retired	-5780
▁serving	-5781
▁achieved	-5782
▁inspired	-5783
▁revealed	-5784
▁withdraw	-5785
▁Alexander	-5786
▁professor	-5787
▁threatened	-5788
▁communities	-5789
▁manufacture	-5790
▁communication	-5791
18	-5792
DP	-5793
gt	-5794
ja	-5795
akh	-5796
hew	-5797
icy	-5798
ipe	-5799
sub	-5800
▁Hi	-5801
▁ly	-5802
ardo	-5803
omer	-5804
rics	-5805
unte	-5806
▁18,	-5807
▁Alf	-5808
▁Far	-5809
▁alt	-5810
▁blo	-5811
order	-5812
print	-5813
water	-5814
▁Chic	-5815
▁Film	-5816
▁Jean	-5817
▁Matt	-5818
▁Zeal	-5819
▁bare	-5820
▁dogs	-5821
▁edge	-5822
▁foss	-5823
ampion	-5824
icians	-5825
▁1,000	-5826
▁2003,	-5827
▁2004,	-5828
▁depth	-5829
▁doubt	-5830
▁goods	-5831
▁prime	-5832
▁pursu	-5833
▁solid	-5834
▁sport	-5835
▁sword	-5836
utation	-5837
▁Berlin	-5838
▁Castle	-5839
▁Disney	-5840
▁circum	-5841
▁convoy	-5842
▁nearby	-5843
▁papers	-5844
▁resign	-5845
▁sector	-5846
▁sevent	-5847
▁speech	-5848
▁symbol	-5849
▁volume	-5850
▁Between	-5851
▁Station	-5852
▁genetic	-5853
▁markets	-5854
▁refused	-5855
▁request	-5856
operation	-5857
▁Director	-5858
▁Ministry	-5859
▁acquired	-5860
▁audience	-5861
▁birthday	-5862
▁resulted	-5863
▁scholars	-5864
▁shooting	-5865
▁apartment	-5866
▁discovery	-5867
▁expansion	-5868
▁mountains	-5869
▁prominent	-5870
▁recording	-5871
"?	-5872
-5	-5873
IV	-5874
ON	-5875
OU	-5876
_{	-5877
ão	-5878
ali	-5879
box	-5880
ova	-5881
udi	-5882
▁6,	-5883
▁9,	-5884
▁Ok	-5885
▁Ra	-5886
apes	-5887
bles	-5888
char	-5889
earl	-5890
inem	-5891
itar	-5892
load	-5893
onel	-5894
ours	-5895
then	-5896
umes	-5897
what	-5898
▁19,	-5899
▁Add	-5900
▁Big	-5901
▁Bra	-5902
▁Dam	-5903
▁Glo	-5904
▁Gra	-5905
▁Som	-5906
▁Tem	-5907
anned	-5908
eding	-5909
itzer	-5910
ocent	-5911
rence	-5912
ropol	-5913
▁Bost	-5914
▁Duke	-5915
▁Game	-5916
▁Next	-5917
▁arts	-5918
▁folk	-5919
▁impl	-5920
▁subs	-5921
▁Diego	-5922
▁birds	-5923
▁disci	-5924
▁fixed	-5925
▁giant	-5926
▁satis	-5927
▁Nether	-5928
▁broken	-5929
▁buried	-5930
▁decide	-5931
▁expand	-5932
▁flying	-5933
▁obtain	-5934
▁proved	-5935
▁stable	-5936
▁Develop	-5937
▁affairs	-5938
▁careful	-5939
▁degrees	-5940
▁granted	-5941
▁approved	-5942
▁executed	-5943
▁hundreds	-5944
▁advantage	-5945
▁decisions	-5946
▁expensive	-5947
▁technical	-5948
▁Netherlands	-5949
▁governments	-5950
▁organizations	-5951
-8	-5952
▁#	-5953
▁\	-5954
azz	-5955
ili	-5956
lyn	-5957
▁CD	-5958
▁Ho	-5959
▁Ir	-5960
hess	-5961
iest	-5962
lets	-5963
with	-5964
▁Bre	-5965
▁Six	-5966
▁rum	-5967
▁upd	-5968
▁wid	-5969
gment	-5970
inian	-5971
osure	-5972
oured	-5973
▁Supp	-5974
▁Thus	-5975
▁iron	-5976
▁vast	-5977
▁vote	-5978
cation	-5979
ensity	-5980
ground	-5981
ilding	-5982
▁absor	-5983
▁daily	-5984
▁items	-5985
▁naval	-5986
▁truly	-5987
agement	-5988
▁Arthur	-5989
▁Nobody	-5990
▁driver	-5991
▁editor	-5992
▁killer	-5993
▁poison	-5994
▁reject	-5995
▁slowly	-5996
▁yellow	-5997
▁Brother	-5998
▁Zealand	-5999
▁balance	-6000
▁deliver	-6001
▁existed	-6002
▁explore	-6003
▁healthy	-6004
▁journey	-6005
▁neither	-6006
▁overall	-6007
▁roughly	-6008
▁improved	-6009
▁parallel	-6010
▁selected	-6011
▁Communist	-6012
▁newspaper	-6013
▁seriously	-6014
▁appreciate	-6015
▁territories	-6016
▁architecture	-6017
12	-6018
Ar	-6019
BI	-6020
tr	-6021
hyd	-6022
oma	-6023
ski	-6024
▁(4	-6025
▁AS	-6026
▁Tu	-6027
▁wa	-6028
anes	-6029
atab	-6030
oral	-6031
wers	-6032
▁179	-6033
▁400	-6034
▁Arm	-6035
▁Bat	-6036
▁Fan	-6037
▁McC	-6038
▁Pop	-6039
▁Way	-6040
▁tim	-6041
antry	-6042
ashed	-6043
emies	-6044
odium	-6045
ongol	-6046
under	-6047
ureau	-6048
usted	-6049
which	-6050
▁Face	-6051
▁Five	-6052
▁Free	-6053
▁Pope	-6054
▁Step	-6055
▁bell	-6056
▁cart	-6057
▁cash	-6058
▁dear	-6059
▁evac	-6060
▁evil	-6061
▁lots	-6062
▁lung	-6063
▁rose	-6064
▁tall	-6065
ceived	-6066
urance	-6067
▁2018,	-6068
▁Child	-6069
▁Night	-6070
▁Peace	-6071
▁anime	-6072
▁cabin	-6073
▁cycle	-6074
▁heads	-6075
▁judge	-6076
▁rural	-6077
▁stone	-6078
▁towns	-6079
rations	-6080
▁Muslim	-6081
▁cousin	-6082
▁dreams	-6083
▁factor	-6084
▁fields	-6085
▁observ	-6086
▁sailed	-6087
▁scored	-6088
▁seemed	-6089
▁transm	-6090
▁vision	-6091
▁Federal	-6092
▁Olympic	-6093
▁Perhaps	-6094
▁Swedish	-6095
▁farmers	-6096
▁finding	-6097
▁proceed	-6098
▁Portugal	-6099
▁contrast	-6100
▁hydrogen	-6101
▁instruct	-6102
▁producer	-6103
▁sleeping	-6104
▁Portuguese	-6105
▁investment	-6106
IC	-6107
ów	-6108
▁[	-6109
arp	-6110
mal	-6111
rak	-6112
rem	-6113
rep	-6114
▁36	-6115
adel	-6116
adow	-6117
agan	-6118
aret	-6119
king	-6120
▁20,	-6121
▁Att	-6122
▁Bah	-6123
▁Lat	-6124
▁USS	-6125
▁van	-6126
celer	-6127
▁Cost	-6128
▁Head	-6129
▁Hill	-6130
▁Tour	-6131
▁bond	-6132
▁bull	-6133
▁gene	-6134
▁hasn	-6135
▁laid	-6136
▁mere	-6137
▁plus	-6138
▁push	-6139
▁sulf	-6140
marine	-6141
▁fifth	-6142
▁inher	-6143
▁leads	-6144
▁lunch	-6145
▁owner	-6146
pective	-6147
ressive	-6148
utenant	-6149
▁Boston	-6150
▁Origin	-6151
▁liquid	-6152
▁medium	-6153
▁promot	-6154
▁skills	-6155
▁unable	-6156
▁Chicago	-6157
▁Without	-6158
▁causing	-6159
▁comment	-6160
▁contest	-6161
▁flowers	-6162
▁notable	-6163
▁suppose	-6164
▁treated	-6165
▁compound	-6166
▁instance	-6167
▁Commander	-6168
▁Professor	-6169
▁dedicated	-6170
▁depending	-6171
▁documents	-6172
▁exception	-6173
▁executive	-6174
▁reference	-6175
▁succeeded	-6176
▁opposition	-6177
▁registered	-6178
▁Afghanistan	-6179
▁alternative	-6180
▁constructed	-6181
▁intelligence	-6182
%.	-6183
EC	-6184
PD	-6185
zh	-6186
▁?	-6187
aga	-6188
aku	-6189
bes	-6190
ito	-6191
lov	-6192
▁NA	-6193
▁TO	-6194
▁Ta	-6195
cons	-6196
cope	-6197
ilty	-6198
iner	-6199
lers	-6200
rets	-6201
road	-6202
tion	-6203
zuel	-6204
▁120	-6205
▁150	-6206
▁Ari	-6207
▁Gar	-6208
▁Gre	-6209
▁Hal	-6210
▁Kam	-6211
▁bab	-6212
after	-6213
cules	-6214
isted	-6215
itage	-6216
▁Post	-6217
▁Shan	-6218
▁gods	-6219
▁tele	-6220
▁2008.	-6221
▁Apple	-6222
▁Brown	-6223
▁Hawai	-6224
▁finds	-6225
▁mixed	-6226
▁roles	-6227
▁simpl	-6228
▁tower	-6229
igenous	-6230
▁Cambod	-6231
▁Greece	-6232
▁commit	-6233
▁county	-6234
▁perman	-6235
▁torped	-6236
quarters	-6237
▁decades	-6238
▁hearing	-6239
▁install	-6240
▁involve	-6241
▁possess	-6242
▁welcome	-6243
▁suggests	-6244
▁symptoms	-6245
▁villages	-6246
ortunately	-6247
▁concerned	-6248
▁entertain	-6249
▁positions	-6250
▁separated	-6251
▁components	-6252
▁maintained	-6253
▁agriculture	-6254
▁increasingly	-6255
▁manufacturing	-6256
In	-6257
MA	-6258
jo	-6259
pa	-6260
–0	-6261
300	-6262
imp	-6263
nat	-6264
sky	-6265
top	-6266
▁5.	-6267
▁NG	-6268
▁Sk	-6269
▁Ts	-6270
▁Um	-6271
ario	-6272
avir	-6273
azon	-6274
hist	-6275
inch	-6276
noon	-6277
path	-6278
wing	-6279
▁Kur	-6280
▁Ten	-6281
▁hol	-6282
▁mac	-6283
▁mal	-6284
▁vac	-6285
amily	-6286
ening	-6287
erman	-6288
hered	-6289
ijing	-6290
▁Call	-6291
▁Khan	-6292
▁Ross	-6293
▁Vice	-6294
▁isol	-6295
avalry	-6296
ussian	-6297
▁Chris	-6298
▁Early	-6299
▁Light	-6300
▁Start	-6301
▁waves	-6302
▁Turkey	-6303
▁Valley	-6304
▁retail	-6305
▁secure	-6306
▁strike	-6307
ropriate	-6308
▁Service	-6309
▁charges	-6310
▁factory	-6311
▁illegal	-6312
▁invited	-6313
▁maximum	-6314
▁operate	-6315
▁renamed	-6316
▁criminal	-6317
▁cultures	-6318
▁earliest	-6319
▁literary	-6320
▁machines	-6321
▁religion	-6322
▁sequence	-6323
▁stations	-6324
▁surprise	-6325
▁versions	-6326
▁democracy	-6327
▁expressed	-6328
▁extensive	-6329
▁biological	-6330
▁controvers	-6331
▁correspond	-6332
▁definition	-6333
▁settlement	-6334
▁differences	-6335
▁institution	-6336
▁institutions	-6337
bb	-6338
200	-6339
bra	-6340
cop	-6341
ker	-6342
lla	-6343
▁33	-6344
▁Bh	-6345
▁Lo	-6346
▁Ni	-6347
ador	-6348
down	-6349
mond	-6350
onym	-6351
oshi	-6352
such	-6353
umin	-6354
▁16,	-6355
▁22,	-6356
▁Cru	-6357
▁Fer	-6358
▁Rus	-6359
▁Top	-6360
▁agg	-6361
eties	-6362
itled	-6363
state	-6364
▁Jour	-6365
▁Mike	-6366
▁Road	-6367
▁cert	-6368
▁clan	-6369
▁coal	-6370
▁dish	-6371
▁nerv	-6372
▁peak	-6373
rained	-6374
▁2018.	-6375
▁Among	-6376
▁Coast	-6377
▁Guine	-6378
▁bread	-6379
▁coron	-6380
▁remem	-6381
▁signs	-6382
▁Allied	-6383
▁Corpor	-6384
▁Marine	-6385
▁advert	-6386
▁advice	-6387
▁attrib	-6388
▁decade	-6389
▁exclus	-6390
▁formal	-6391
▁garden	-6392
▁invent	-6393
▁lawyer	-6394
▁missed	-6395
▁output	-6396
▁ranked	-6397
▁refers	-6398
▁sculpt	-6399
▁settle	-6400
▁strict	-6401
igration	-6402
standing	-6403
▁Beijing	-6404
▁concert	-6405
▁council	-6406
▁doctors	-6407
▁formula	-6408
▁founder	-6409
▁helping	-6410
▁reading	-6411
▁soldier	-6412
▁vehicle	-6413
▁Olympics	-6414
▁breaking	-6415
▁drinking	-6416
▁pregnant	-6417
▁produces	-6418
▁reaching	-6419
▁regarded	-6420
▁committed	-6421
▁importance	-6422
▁kilometers	-6423
▁permission	-6424
▁restaurant	-6425
▁ultimately	-6426
▁combination	-6427
▁surrounding	-6428
89	-6429
ais	-6430
but	-6431
law	-6432
oda	-6433
ule	-6434
uri	-6435
vae	-6436
▁AD	-6437
▁CA	-6438
▁Ox	-6439
anny	-6440
ichi	-6441
inth	-6442
omed	-6443
▁14,	-6444
▁182	-6445
▁Cov	-6446
▁Dec	-6447
▁Hol	-6448
▁Nik	-6449
▁Rac	-6450
▁Tim	-6451
▁USA	-6452
▁fal	-6453
▁fan	-6454
▁mic	-6455
▁nut	-6456
▁odd	-6457
▁sin	-6458
ograp	-6459
orage	-6460
ragon	-6461
▁1997	-6462
▁Greg	-6463
▁Keep	-6464
▁News	-6465
▁Vene	-6466
▁Vill	-6467
▁core	-6468
▁pron	-6469
▁roll	-6470
▁sees	-6471
▁sole	-6472
▁upgr	-6473
▁wire	-6474
stream	-6475
▁Polit	-6476
▁angry	-6477
▁drama	-6478
▁files	-6479
▁hypot	-6480
▁metab	-6481
▁prote	-6482
▁veget	-6483
▁yield	-6484
inction	-6485
related	-6486
▁afford	-6487
▁apolog	-6488
▁borrow	-6489
▁breath	-6490
▁interf	-6491
▁survey	-6492
▁Germans	-6493
▁Supreme	-6494
▁factors	-6495
▁justice	-6496
▁monarch	-6497
▁nations	-6498
▁suicide	-6499
including	-6500
itzerland	-6501
▁Pakistan	-6502
▁accompan	-6503
▁announce	-6504
▁bringing	-6505
▁departed	-6506
▁examples	-6507
▁identify	-6508
▁measures	-6509
▁normally	-6510
▁purposes	-6511
▁substant	-6512
▁suddenly	-6513
▁afternoon	-6514
▁explained	-6515
▁locations	-6516
▁principal	-6517
▁technique	-6518
▁businesses	-6519
▁foundation	-6520
▁distributed	-6521
▁inhabitants	-6522
▁neighborhood	-6523
▁establishment	-6524
19	-6525
FC	-6526
Is	-6527
ía	-6528
bar	-6529
mun	-6530
nie	-6531
uma	-6532
▁45	-6533
▁Ku	-6534
▁Na	-6535
▁Ob	-6536
▁kg	-6537
▁py	-6538
host	-6539
osph	-6540
phas	-6541
xual	-6542
▁Ell	-6543
▁Lie	-6544
▁THE	-6545
▁arc	-6546
▁cow	-6547
▁san	-6548
▁tea	-6549
aimed	-6550
arant	-6551
iders	-6552
▁1920	-6553
▁Bell	-6554
▁Mean	-6555
▁Near	-6556
▁Shin	-6557
▁Sure	-6558
▁cycl	-6559
▁empt	-6560
▁infl	-6561
▁tact	-6562
▁zone	-6563
itable	-6564
▁Media	-6565
▁Nobel	-6566
▁admit	-6567
▁antib	-6568
▁notes	-6569
▁stood	-6570
▁Golden	-6571
▁Harbor	-6572
▁empire	-6573
▁export	-6574
▁extent	-6575
▁legend	-6576
▁mental	-6577
▁option	-6578
▁phones	-6579
▁serves	-6580
▁stress	-6581
ographic	-6582
▁Besides	-6583
▁Program	-6584
▁Theatre	-6585
▁acceler	-6586
▁conclud	-6587
▁conserv	-6588
▁enemies	-6589
▁portion	-6590
▁putting	-6591
▁shortly	-6592
▁singing	-6593
▁volunte	-6594
▁Colombia	-6595
▁Malaysia	-6596
▁expanded	-6597
▁familiar	-6598
▁offering	-6599
▁policies	-6600
▁subjects	-6601
▁survived	-6602
▁continues	-6603
▁household	-6604
▁interests	-6605
▁literally	-6606
▁obviously	-6607
▁principle	-6608
▁promotion	-6609
▁surprised	-6610
▁processing	-6611
▁Switzerland	-6612
▁experienced	-6613
▁contemporary	-6614
▁administrative	-6615
-6	-6616
.'	-6617
Cl	-6618
Sh	-6619
Sp	-6620
ال	-6621
"),	-6622
agu	-6623
col	-6624
iel	-6625
lav	-6626
tes	-6627
una	-6628
▁Ka	-6629
dist	-6630
icit	-6631
math	-6632
olve	-6633
oust	-6634
rant	-6635
▁15,	-6636
▁202	-6637
▁Bor	-6638
▁Ill	-6639
▁Pap	-6640
▁Ton	-6641
▁bat	-6642
abeth	-6643
amine	-6644
iable	-6645
itals	-6646
phone	-6647
raged	-6648
rates	-6649
▁Bulg	-6650
▁Cuba	-6651
▁Form	-6652
▁copy	-6653
▁fold	-6654
▁myth	-6655
▁note	-6656
▁sons	-6657
▁chron	-6658
▁liver	-6659
▁merch	-6660
▁spell	-6661
▁spoke	-6662
▁steel	-6663
century	-6664
unction	-6665
▁Common	-6666
▁Office	-6667
▁Palest	-6668
▁Public	-6669
▁brings	-6670
▁cooper	-6671
▁explos	-6672
▁patrol	-6673
▁sought	-6674
▁talent	-6675
▁twenty	-6676
▁winner	-6677
atically	-6678
▁Further	-6679
▁Instead	-6680
▁Project	-6681
▁borders	-6682
▁charged	-6683
▁dialect	-6684
▁engaged	-6685
▁forests	-6686
▁infrast	-6687
▁landing	-6688
▁library	-6689
▁nervous	-6690
▁organic	-6691
▁reprodu	-6692
▁reserve	-6693
▁trained	-6694
▁uniform	-6695
▁Carolina	-6696
▁Venezuel	-6697
▁attempts	-6698
▁existing	-6699
▁candidate	-6700
▁efficient	-6701
▁northeast	-6702
▁residents	-6703
▁designated	-6704
▁influenced	-6705
▁literature	-6706
▁performing	-6707
▁sufficient	-6708
▁engineering	-6709
▁fundamental	-6710
▁Constitution	-6711
▁temperatures	-6712
74	-6713
75	-6714
76	-6715
BS	-6716
EN	-6717
kh	-6718
▁!	-6719
boy	-6720
pha	-6721
str	-6722
uki	-6723
▁Fu	-6724
▁Mi	-6725
acle	-6726
anth	-6727
asts	-6728
avig	-6729
ctic	-6730
igan	-6731
keep	-6732
onom	-6733
rene	-6734
▁21,	-6735
▁Hun	-6736
▁Ins	-6737
▁Jon	-6738
▁TED	-6739
▁Tun	-6740
▁ath	-6741
▁gay	-6742
▁mas	-6743
etime	-6744
opter	-6745
organ	-6746
prise	-6747
rison	-6748
ulous	-6749
▁Ball	-6750
▁Move	-6751
▁Soon	-6752
▁acad	-6753
▁beer	-6754
▁earn	-6755
▁fans	-6756
▁flat	-6757
▁gate	-6758
▁legs	-6759
▁mort	-6760
▁quit	-6761
▁solo	-6762
rolled	-6763
uating	-6764
▁1945,	-6765
▁Guard	-6766
▁Pearl	-6767
▁Seoul	-6768
▁Sport	-6769
▁Wales	-6770
▁crash	-6771
▁flows	-6772
▁fruit	-6773
▁helps	-6774
▁ruler	-6775
▁screw	-6776
▁steal	-6777
▁tired	-6778
▁upset	-6779
▁usual	-6780
ogether	-6781
resents	-6782
uration	-6783
▁Albert	-6784
▁Amazon	-6785
▁Guinea	-6786
▁Police	-6787
▁Square	-6788
▁Sunday	-6789
▁Unlike	-6790
▁batter	-6791
▁convin	-6792
▁defend	-6793
▁delive	-6794
▁ensure	-6795
▁exists	-6796
▁favour	-6797
▁flower	-6798
▁geomet	-6799
▁guilty	-6800
▁intern	-6801
▁larvae	-6802
▁plenty	-6803
▁stores	-6804
▁treaty	-6805
ollywood	-6806
▁Florida	-6807
▁Georgia	-6808
▁History	-6809
▁Nigeria	-6810
▁engines	-6811
▁forming	-6812
▁Scotland	-6813
▁arriving	-6814
▁facility	-6815
▁innocent	-6816
▁pleasure	-6817
▁relative	-6818
▁repeated	-6819
▁spending	-6820
▁teaching	-6821
▁thoughts	-6822
▁collected	-6823
▁destroyer	-6824
▁prisoners	-6825
▁secondary	-6826
▁societies	-6827
▁Foundation	-6828
▁consisting	-6829
▁everywhere	-6830
▁incredible	-6831
▁populations	-6832
▁Championship	-6833
▁presidential	-6834
);	-6835
AC	-6836
abs	-6837
▁Pa	-6838
▁Po	-6839
▁ax	-6840
▁ic	-6841
bell	-6842
cers	-6843
hand	-6844
ompl	-6845
ruce	-6846
usal	-6847
ynam	-6848
zech	-6849
▁Aut	-6850
▁FBI	-6851
▁Mes	-6852
▁Mic	-6853
▁Nar	-6854
▁Ott	-6855
▁Ren	-6856
▁Str	-6857
▁Tre	-6858
▁VII	-6859
▁Vis	-6860
▁ben	-6861
▁cub	-6862
▁cup	-6863
▁ing	-6864
akers	-6865
ordan	-6866
uting	-6867
▁1995	-6868
▁Holy	-6869
▁Real	-6870
▁Sher	-6871
▁busy	-6872
▁calm	-6873
▁cham	-6874
▁fate	-6875
▁nose	-6876
▁pill	-6877
▁rebu	-6878
antine	-6879
▁2001,	-6880
▁Still	-6881
▁divor	-6882
▁entry	-6883
▁hired	-6884
▁keeps	-6885
▁loves	-6886
▁moves	-6887
▁multi	-6888
▁robot	-6889
▁seats	-6890
▁taste	-6891
erences	-6892
ighters	-6893
▁Rachel	-6894
▁covers	-6895
▁desire	-6896
▁filled	-6897
▁narrow	-6898
▁punish	-6899
ologists	-6900
▁Lebanon	-6901
▁convent	-6902
▁descend	-6903
▁disturb	-6904
▁fighter	-6905
▁figured	-6906
▁hunting	-6907
▁opinion	-6908
▁opposed	-6909
▁rapidly	-6910
▁singles	-6911
▁warning	-6912
▁weekend	-6913
formation	-6914
▁Remember	-6915
▁Victoria	-6916
▁competed	-6917
▁employed	-6918
▁millions	-6919
▁opposite	-6920
▁proteins	-6921
▁romantic	-6922
▁vehicles	-6923
▁Indonesia	-6924
▁marketing	-6925
▁producing	-6926
▁regarding	-6927
▁Federation	-6928
▁Technology	-6929
▁definitely	-6930
▁expedition	-6931
▁phenomenon	-6932
▁principles	-6933
▁represents	-6934
▁reputation	-6935
▁subsequent	-6936
▁accompanied	-6937
▁electricity	-6938
▁agricultural	-6939
▁successfully	-6940
▁relationships	-6941
▁infrastructure	-6942
13	-6943
45	-6944
").	-6945
chi	-6946
gar	-6947
lan	-6948
▁..	-6949
▁ال	-6950
dule	-6951
edia	-6952
emen	-6953
nish	-6954
oked	-6955
ooth	-6956
pret	-6957
▁Bad	-6958
▁Bon	-6959
▁Dom	-6960
▁Les	-6961
▁Tay	-6962
▁Wel	-6963
▁ash	-6964
▁bom	-6965
▁enh	-6966
Music	-6967
andom	-6968
eline	-6969
orney	-6970
stood	-6971
uties	-6972
▁2002	-6973
▁Fire	-6974
▁Fort	-6975
▁Main	-6976
▁Tony	-6977
▁alle	-6978
▁mode	-6979
▁neur	-6980
▁shif	-6981
▁spin	-6982
▁tool	-6983
▁wake	-6984
anches	-6985
▁Again	-6986
▁Labor	-6987
▁coach	-6988
▁feels	-6989
▁guide	-6990
▁inner	-6991
▁input	-6992
▁likes	-6993
▁lying	-6994
▁moral	-6995
▁persu	-6996
▁ratio	-6997
▁smoke	-6998
▁sugar	-6999
▁swear	-7000
anguage	-7001
ilation	-7002
iveness	-7003
▁Daniel	-7004
▁awards	-7005
▁brains	-7006
▁driven	-7007
▁emphas	-7008
▁ending	-7009
▁expert	-7010
▁ladies	-7011
▁manner	-7012
▁owners	-7013
▁regime	-7014
▁rescue	-7015
▁rivers	-7016
▁surviv	-7017
▁unlike	-7018
▁walked	-7019
▁Colonel	-7020
▁Finland	-7021
▁Univers	-7022
▁arrival	-7023
▁benefit	-7024
▁discipl	-7025
▁evolved	-7026
▁falling	-7027
▁greatly	-7028
▁neutral	-7029
▁sisters	-7030
▁therapy	-7031
▁trading	-7032
▁accounts	-7033
▁breeding	-7034
▁carrying	-7035
▁confused	-7036
▁sentence	-7037
▁Peninsula	-7038
▁attempted	-7039
▁committee	-7040
▁employees	-7041
▁happiness	-7042
▁providing	-7043
▁facilities	-7044
▁journalist	-7045
▁Development	-7046
▁effectively	-7047
▁grandfather	-7048
▁participate	-7049
▁recognition	-7050
▁concentration	-7051
EA	-7052
OM	-7053
ez	-7054
po	-7055
▁−	-7056
ING	-7057
eps	-7058
iga	-7059
ois	-7060
pet	-7061
run	-7062
who	-7063
▁(6	-7064
▁8.	-7065
▁AR	-7066
▁FA	-7067
Tube	-7068
crib	-7069
iece	-7070
illy	-7071
roid	-7072
sung	-7073
udes	-7074
utor	-7075
▁28,	-7076
▁30,	-7077
▁Dig	-7078
▁Eth	-7079
▁Gun	-7080
▁Mun	-7081
▁Rio	-7082
▁Sav	-7083
▁Sud	-7084
▁Vin	-7085
▁vul	-7086
ennis	-7087
going	-7088
itors	-7089
point	-7090
▁Blue	-7091
▁Eliz	-7092
▁Mand	-7093
▁Prom	-7094
▁desk	-7095
▁dies	-7096
▁mart	-7097
▁ment	-7098
▁rice	-7099
▁scar	-7100
▁wing	-7101
Americ	-7102
active	-7103
called	-7104
ipping	-7105
orters	-7106
owered	-7107
ushing	-7108
▁Camer	-7109
▁Covid	-7110
▁Prior	-7111
▁datab	-7112
▁delay	-7113
▁false	-7114
▁holds	-7115
▁resem	-7116
alities	-7117
anation	-7118
certain	-7119
ivalent	-7120
▁agency	-7121
▁column	-7122
▁compos	-7123
▁crimes	-7124
▁hiding	-7125
▁indeed	-7126
▁landsc	-7127
▁lyrics	-7128
▁poetry	-7129
▁Command	-7130
▁Ukraine	-7131
▁constit	-7132
▁dynasty	-7133
▁escaped	-7134
▁fishing	-7135
▁proport	-7136
▁publish	-7137
▁seasons	-7138
▁sustain	-7139
▁theatre	-7140
▁turning	-7141
▁vaccine	-7142
▁Administ	-7143
▁Independ	-7144
▁Whatever	-7145
▁carriers	-7146
▁circumst	-7147
▁concerns	-7148
▁customer	-7149
▁diseases	-7150
▁festival	-7151
▁relevant	-7152
▁republic	-7153
▁delivered	-7154
▁determine	-7155
▁emotional	-7156
▁introduce	-7157
▁listening	-7158
▁yesterday	-7159
▁earthquake	-7160
▁instrument	-7161
▁recognised	-7162
▁essentially	-7163
▁experiments	-7164
▁researchers	-7165
▁introduction	-7166
▁mathematical	-7167
▁occasionally	-7168
▁technologies	-7169
▁representative	-7170
78	-7171
Al	-7172
PL	-7173
PS	-7174
TC	-7175
VD	-7176
add	-7177
asa	-7178
gas	-7179
ika	-7180
loc	-7181
non	-7182
rin	-7183
uzz	-7184
▁42	-7185
▁7.	-7186
▁CE	-7187
▁Ev	-7188
....	-7189
elly	-7190
elve	-7191
enny	-7192
heim	-7193
idae	-7194
iege	-7195
kins	-7196
mers	-7197
uled	-7198
uris	-7199
▁Aff	-7200
▁Eve	-7201
▁Has	-7202
▁Pot	-7203
▁Wow	-7204
▁lin	-7205
▁orb	-7206
icate	-7207
idesp	-7208
ieval	-7209
liver	-7210
osmos	-7211
scale	-7212
stone	-7213
▁Manc	-7214
▁Orth	-7215
▁Stop	-7216
▁airl	-7217
▁crop	-7218
▁flew	-7219
▁frag	-7220
▁mamm	-7221
▁sail	-7222
▁ther	-7223
▁tons	-7224
▁tort	-7225
writer	-7226
▁1944,	-7227
▁2005.	-7228
▁Alger	-7229
▁Barry	-7230
▁Bruce	-7231
▁Color	-7232
▁Jacob	-7233
▁Jesus	-7234
▁Produ	-7235
▁Saudi	-7236
▁antic	-7237
▁drawn	-7238
▁liked	-7239
▁newly	-7240
▁shift	-7241
▁tests	-7242
▁tight	-7243
▁union	-7244
▁upper	-7245
cellent	-7246
▁Friday	-7247
▁Mongol	-7248
▁bother	-7249
▁encoun	-7250
▁galaxy	-7251
▁linked	-7252
▁preced	-7253
▁protot	-7254
▁retire	-7255
▁tissue	-7256
▁Journal	-7257
▁Network	-7258
▁YouTube	-7259
▁accompl	-7260
▁carrier	-7261
▁fiction	-7262
▁injured	-7263
▁targets	-7264
▁testing	-7265
idespread	-7266
▁channels	-7267
▁colonial	-7268
▁governor	-7269
▁networks	-7270
▁outbreak	-7271
▁speakers	-7272
▁supplies	-7273
▁Education	-7274
▁childhood	-7275
▁frequency	-7276
▁northwest	-7277
▁standards	-7278
▁indigenous	-7279
▁surrounded	-7280
▁Corporation	-7281
):	-7282
32	-7283
37	-7284
38	-7285
ca	-7286
ns	-7287
aze	-7288
idi	-7289
iva	-7290
met	-7291
uit	-7292
zed	-7293
▁Kn	-7294
▁Mu	-7295
fish	-7296
izon	-7297
weet	-7298
▁Dun	-7299
▁Isn	-7300
▁Kir	-7301
▁Lis	-7302
▁Mik	-7303
▁Sus	-7304
▁Web	-7305
▁cod	-7306
▁fol	-7307
▁lit	-7308
ifice	-7309
itual	-7310
rayed	-7311
rogen	-7312
worth	-7313
▁Card	-7314
▁Find	-7315
▁Hold	-7316
▁Poly	-7317
▁Stay	-7318
▁Stra	-7319
▁clim	-7320
▁gall	-7321
▁loud	-7322
▁pump	-7323
▁sake	-7324
▁salt	-7325
▁teen	-7326
▁unus	-7327
elling	-7328
encies	-7329
hedule	-7330
pected	-7331
▁Beach	-7332
▁Czech	-7333
▁Dubai	-7334
▁Medic	-7335
▁advis	-7336
▁homes	-7337
▁inhib	-7338
▁proof	-7339
▁shoes	-7340
idering	-7341
▁Bureau	-7342
▁Centre	-7343
▁Norway	-7344
▁Oliver	-7345
▁Uganda	-7346
▁Winter	-7347
▁barely	-7348
▁hidden	-7349
▁hosted	-7350
▁listed	-7351
▁losses	-7352
▁manage	-7353
▁retain	-7354
▁victim	-7355
▁Hungary	-7356
▁Turkish	-7357
▁bombard	-7358
▁figures	-7359
▁guarant	-7360
▁storage	-7361
▁strikes	-7362
▁typical	-7363
▁admitted	-7364
▁disaster	-7365
▁dominant	-7366
▁stronger	-7367
▁youngest	-7368
▁Elizabeth	-7369
▁Hollywood	-7370
▁Operation	-7371
▁Therefore	-7372
▁conscious	-7373
▁exercises	-7374
▁featuring	-7375
▁gentlemen	-7376
▁mechanism	-7377
▁molecules	-7378
▁perfectly	-7379
▁southeast	-7380
▁Convention	-7381
▁Manchester	-7382
▁apparently	-7383
▁depression	-7384
▁supporting	-7385
▁cooperation	-7386
▁interaction	-7387
▁possibility	-7388
▁recommended	-7389
77	-7390
He	-7391
ss	-7392
Don	-7393
Why	-7394
aws	-7395
eor	-7396
roc	-7397
▁64	-7398
▁Di	-7399
▁Ur	-7400
abet	-7401
appy	-7402
apse	-7403
aren	-7404
arsh	-7405
arus	-7406
bean	-7407
endo	-7408
erto	-7409
fare	-7410
fast	-7411
iley	-7412
outs	-7413
ules	-7414
vard	-7415
▁250	-7416
▁BBC	-7417
▁Bol	-7418
▁Tan	-7419
▁Var	-7420
▁anx	-7421
▁dow	-7422
▁eru	-7423
▁sed	-7424
ishop	-7425
opher	-7426
▁1992	-7427
▁Gall	-7428
▁Hosp	-7429
▁Karl	-7430
▁Snow	-7431
▁adap	-7432
▁bind	-7433
▁coat	-7434
▁dict	-7435
▁dism	-7436
▁flav	-7437
▁gang	-7438
▁hits	-7439
▁hole	-7440
▁hook	-7441
▁horm	-7442
▁plot	-7443
▁semi	-7444
forest	-7445
gorith	-7446
inking	-7447
mother	-7448
▁2002,	-7449
▁Front	-7450
▁Laure	-7451
▁apply	-7452
▁enorm	-7453
▁funds	-7454
▁ghost	-7455
▁laugh	-7456
▁plain	-7457
▁relax	-7458
▁releg	-7459
▁valid	-7460
▁winds	-7461
▁Alfred	-7462
▁Doctor	-7463
▁Senate	-7464
▁Summer	-7465
▁adults	-7466
▁argued	-7467
▁banned	-7468
▁budget	-7469
▁debate	-7470
▁engage	-7471
▁estate	-7472
▁injury	-7473
▁offers	-7474
▁premie	-7475
▁profit	-7476
▁sample	-7477
▁satisf	-7478
▁scenes	-7479
▁tested	-7480
▁viewed	-7481
▁Belgium	-7482
▁belongs	-7483
▁cavalry	-7484
▁coordin	-7485
▁dancing	-7486
▁excited	-7487
▁exposed	-7488
▁knowing	-7489
▁minimum	-7490
▁monitor	-7491
▁returns	-7492
▁theater	-7493
▁writers	-7494
ropolitan	-7495
▁challeng	-7496
▁founding	-7497
▁internet	-7498
▁memories	-7499
▁ordinary	-7500
▁situated	-7501
▁Meanwhile	-7502
▁consisted	-7503
▁disappear	-7504
▁districts	-7505
▁identical	-7506
▁increases	-7507
▁installed	-7508
▁purchased	-7509
▁radiation	-7510
▁surrender	-7511
▁colleagues	-7512
▁widespread	-7513
▁explanation	-7514
▁publication	-7515
▁consequences	-7516
▁performances	-7517
▁characteristics	-7518
14	-7519
ND	-7520
Oh	-7521
ds	-7522
és	-7523
hin	-7524
hot	-7525
iox	-7526
ogy	-7527
rac	-7528
rot	-7529
–18	-7530
▁(5	-7531
▁34	-7532
▁PC	-7533
Well	-7534
abel	-7535
ashi	-7536
enos	-7537
esty	-7538
idal	-7539
iper	-7540
pton	-7541
ulty	-7542
uous	-7543
▁26,	-7544
▁Hig	-7545
▁Jin	-7546
▁Maj	-7547
▁Mid	-7548
▁Nah	-7549
▁Tar	-7550
▁Ted	-7551
▁aer	-7552
▁ham	-7553
▁hey	-7554
▁joy	-7555
▁row	-7556
aired	-7557
enses	-7558
found	-7559
icing	-7560
omach	-7561
power	-7562
rimin	-7563
shire	-7564
uster	-7565
verty	-7566
▁1999	-7567
▁Hard	-7568
▁Hind	-7569
▁Leon	-7570
▁bone	-7571
▁cave	-7572
▁hadn	-7573
▁pool	-7574
▁sale	-7575
▁subm	-7576
▁tied	-7577
▁vide	-7578
ibbean	-7579
rative	-7580
stairs	-7581
▁Chart	-7582
▁Dream	-7583
▁Naval	-7584
▁Order	-7585
▁Short	-7586
▁Squad	-7587
▁balls	-7588
▁blind	-7589
▁cryst	-7590
▁doors	-7591
▁guest	-7592
▁helic	-7593
▁initi	-7594
▁intel	-7595
▁shark	-7596
▁sheep	-7597
▁sixth	-7598
▁teeth	-7599
▁toxic	-7600
▁tumor	-7601
issance	-7602
raining	-7603
ruption	-7604
▁Global	-7605
▁Jordan	-7606
▁Region	-7607
▁Walter	-7608
▁adding	-7609
▁advent	-7610
▁albums	-7611
▁armies	-7612
▁behalf	-7613
▁burned	-7614
▁cultiv	-7615
▁domain	-7616
▁guards	-7617
▁inject	-7618
▁intent	-7619
▁lasted	-7620
▁prince	-7621
▁relief	-7622
▁reward	-7623
▁saving	-7624
▁spaces	-7625
▁stages	-7626
▁tribes	-7627
▁vulner	-7628
aneously	-7629
▁artific	-7630
▁closest	-7631
▁confirm	-7632
▁defense	-7633
▁designs	-7634
▁forgive	-7635
▁heading	-7636
▁poverty	-7637
▁quarter	-7638
▁somehow	-7639
▁stadium	-7640
abilities	-7641
▁Economic	-7642
▁algorith	-7643
▁branches	-7644
▁crossing	-7645
▁entirely	-7646
▁friendly	-7647
▁indicate	-7648
▁infected	-7649
▁relation	-7650
▁struggle	-7651
▁traveled	-7652
▁Billboard	-7653
▁Caribbean	-7654
▁Southeast	-7655
▁breathing	-7656
▁component	-7657
▁criticism	-7658
▁naturally	-7659
▁permanent	-7660
▁pollution	-7661
▁procedure	-7662
▁recommend	-7663
▁selection	-7664
▁suffering	-7665
▁Conference	-7666
▁occupation	-7667
▁understood	-7668
▁competitive	-7669
▁perspective	-7670
▁programming	-7671
▁headquarters	-7672
▁requirements	-7673
22	-7674
69	-7675
99	-7676
LL	-7677
Le	-7678
OR	-7679
hu	-7680
zo	-7681
cas	-7682
iac	-7683
iev	-7684
isk	-7685
mic	-7686
ław	-7687
▁39	-7688
▁Bi	-7689
▁EU	-7690
▁Lt	-7691
▁ma	-7692
This	-7693
anga	-7694
ayan	-7695
cule	-7696
idel	-7697
inus	-7698
lete	-7699
lier	-7700
orus	-7701
prof	-7702
pted	-7703
rine	-7704
ture	-7705
umed	-7706
▁24,	-7707
▁Bou	-7708
▁Byz	-7709
▁Fel	-7710
▁Fox	-7711
▁Gab	-7712
▁Lim	-7713
▁YOU	-7714
▁fra	-7715
▁fro	-7716
▁ven	-7717
annel	-7718
erior	-7719
lovak	-7720
ultan	-7721
urday	-7722
▁1994	-7723
▁Adam	-7724
▁Cold	-7725
▁Ener	-7726
▁Eric	-7727
▁Goth	-7728
▁Phys	-7729
▁Rose	-7730
▁Type	-7731
▁Upon	-7732
▁Walk	-7733
▁dare	-7734
▁eggs	-7735
▁exha	-7736
▁heir	-7737
▁synd	-7738
▁thin	-7739
▁tomb	-7740
▁turb	-7741
apping	-7742
ishing	-7743
parent	-7744
▁2000,	-7745
▁Armen	-7746
▁Stone	-7747
▁Trade	-7748
▁aired	-7749
▁brown	-7750
▁camer	-7751
▁curve	-7752
▁elder	-7753
▁empty	-7754
▁ideal	-7755
▁march	-7756
▁remix	-7757
▁score	-7758
▁trave	-7759
▁views	-7760
▁voted	-7761
▁warri	-7762
osystem	-7763
▁Around	-7764
▁Johann	-7765
▁behavi	-7766
▁cheese	-7767
▁excess	-7768
▁marine	-7769
▁merely	-7770
▁myster	-7771
▁paying	-7772
▁rebell	-7773
ordinary	-7774
▁Finnish	-7775
▁Samsung	-7776
▁choices	-7777
▁coastal	-7778
▁compete	-7779
▁critics	-7780
▁flights	-7781
▁joining	-7782
▁noticed	-7783
▁obvious	-7784
▁pageant	-7785
▁predict	-7786
▁reconst	-7787
▁stomach	-7788
▁volumes	-7789
▁Governor	-7790
▁articles	-7791
▁bathroom	-7792
▁champion	-7793
▁dinosaur	-7794
▁discover	-7795
▁lifetime	-7796
imensional	-7797
▁Everybody	-7798
▁Hungarian	-7799
▁compounds	-7800
▁converted	-7801
▁describes	-7802
▁essential	-7803
▁immediate	-7804
▁insurance	-7805
▁interpret	-7806
▁reactions	-7807
▁residence	-7808
▁scientist	-7809
▁southwest	-7810
▁spiritual	-7811
▁successor	-7812
▁Constantin	-7813
▁personally	-7814
▁popularity	-7815
▁appearances	-7816
▁consumption	-7817
▁necessarily	-7818
▁considerable	-7819
▁incorporated	-7820
▁transportation	-7821
39	-7822
54	-7823
DA	-7824
If	-7825
TA	-7826
oa	-7827
sa	-7828
sm	-7829
400	-7830
How	-7831
cut	-7832
nex	-7833
oir	-7834
pat	-7835
tle	-7836
▁(9	-7837
▁Ul	-7838
That	-7839
fire	-7840
ican	-7841
iler	-7842
iyah	-7843
sect	-7844
star	-7845
▁181	-7846
▁Alb	-7847
▁Ban	-7848
▁Kaz	-7849
▁Nag	-7850
▁Nep	-7851
▁Non	-7852
▁Tru	-7853
▁Yet	-7854
▁mos	-7855
Japan	-7856
agger	-7857
heart	-7858
ource	-7859
rency	-7860
▁1940	-7861
▁1988	-7862
▁1996	-7863
▁Aven	-7864
▁Brig	-7865
▁Home	-7866
▁NASA	-7867
▁Soft	-7868
▁Wolf	-7869
▁debt	-7870
▁entr	-7871
▁oxid	-7872
▁reun	-7873
▁unex	-7874
▁vice	-7875
avirus	-7876
orough	-7877
▁Looks	-7878
▁Radio	-7879
▁banks	-7880
▁chrom	-7881
▁deleg	-7882
▁depos	-7883
▁exile	-7884
▁layer	-7885
▁males	-7886
▁oppon	-7887
▁piano	-7888
▁radar	-7889
▁recon	-7890
▁roads	-7891
▁shore	-7892
▁threw	-7893
▁10,000	-7894
▁Energy	-7895
▁Modern	-7896
▁Philip	-7897
▁Puerto	-7898
▁Scient	-7899
▁Territ	-7900
▁butter	-7901
▁depict	-7902
▁desert	-7903
▁dollar	-7904
▁gotten	-7905
▁limits	-7906
▁prosec	-7907
▁random	-7908
▁remove	-7909
▁ritual	-7910
▁stands	-7911
▁suffer	-7912
▁valley	-7913
inations	-7914
▁Charlie	-7915
▁Denmark	-7916
▁Dynasty	-7917
▁Harvard	-7918
▁clients	-7919
▁counsel	-7920
▁distant	-7921
▁drawing	-7922
▁emerged	-7923
▁metabol	-7924
▁nowhere	-7925
▁planets	-7926
▁plastic	-7927
▁samples	-7928
▁sending	-7929
▁sharing	-7930
ibilities	-7931
▁Hospital	-7932
▁Standard	-7933
▁antibiot	-7934
▁category	-7935
▁creative	-7936
▁exposure	-7937
▁imperial	-7938
▁missions	-7939
▁patterns	-7940
▁properly	-7941
▁refugees	-7942
▁elsewhere	-7943
▁organisms	-7944
▁reduction	-7945
▁solutions	-7946
▁remarkable	-7947
▁strengthen	-7948
▁contributed	-7949
▁experiences	-7950
▁competitions	-7951
ju	-7952
yu	-7953
-10	-7954
600	-7955
bur	-7956
bye	-7957
jan	-7958
pan	-7959
uka	-7960
zer	-7961
▁Gi	-7962
▁MP	-7963
▁Ru	-7964
▁VI	-7965
comm	-7966
grad	-7967
uter	-7968
zing	-7969
▁23,	-7970
▁25,	-7971
▁27,	-7972
▁Chi	-7973
▁Ein	-7974
▁End	-7975
▁Ext	-7976
▁Gil	-7977
▁Him	-7978
▁Hur	-7979
▁Ice	-7980
▁Nak	-7981
▁Nov	-7982
▁Ros	-7983
▁Sab	-7984
▁Sri	-7985
▁dim	-7986
▁sle	-7987
▁tip	-7988
▁von	-7989
aceae	-7990
ceans	-7991
chang	-7992
chest	-7993
ennes	-7994
olves	-7995
▁1983	-7996
▁1998	-7997
▁Baby	-7998
▁Barb	-7999
▁Beat	-8000
▁Didn	-8001
▁Dong	-8002
▁Down	-8003
▁Gord	-8004
▁Hans	-8005
▁Iron	-8006
▁Jeff	-8007
▁Must	-8008
▁Sand	-8009
▁Sign	-8010
▁Slav	-8011
▁cong	-8012
▁lord	-8013
▁reco	-8014
▁root	-8015
outing	-8016
▁Andre	-8017
▁Anton	-8018
▁Corps	-8019
▁Cross	-8020
▁Power	-8021
▁Simon	-8022
▁advoc	-8023
▁folks	-8024
▁genes	-8025
▁grain	-8026
▁rival	-8027
▁spons	-8028
▁steps	-8029
ciation	-8030
▁Junior	-8031
▁Napole	-8032
▁Panama	-8033
▁Sister	-8034
▁cattle	-8035
▁circle	-8036
▁clouds	-8037
▁facing	-8038
▁finger	-8039
▁format	-8040
▁fossil	-8041
▁pulled	-8042
▁recept	-8043
▁serial	-8044
▁underw	-8045
American	-8046
▁Bernard	-8047
▁Defense	-8048
▁Foreign	-8049
▁Stadium	-8050
▁answers	-8051
▁courage	-8052
▁crowned	-8053
▁liberal	-8054
▁periods	-8055
▁secrets	-8056
▁seventh	-8057
▁torpedo	-8058
▁trapped	-8059
▁wounded	-8060
▁Facebook	-8061
▁academic	-8062
▁accurate	-8063
▁boundary	-8064
▁dramatic	-8065
▁formerly	-8066
▁graduate	-8067
▁humanity	-8068
▁measured	-8069
▁schedule	-8070
▁shopping	-8071
▁visitors	-8072
▁convinced	-8073
▁daughters	-8074
▁indicated	-8075
▁intention	-8076
▁involving	-8077
▁preserved	-8078
▁sacrifice	-8079
▁electrical	-8080
▁encouraged	-8081
▁equivalent	-8082
▁profession	-8083
▁transition	-8084
▁photographs	-8085
▁replacement	-8086
▁Organization	-8087
▁environments	-8088
▁circumstances	-8089
▁entertainment	-8090
65	-8091
8%	-8092
BA	-8093
IM	-8094
LA	-8095
cz	-8096
eo	-8097
ni	-8098
1),	-8099
cha	-8100
div	-8101
eta	-8102
iji	-8103
iko	-8104
iya	-8105
lib	-8106
oku	-8107
oli	-8108
oln	-8109
phy	-8110
▁6.	-8111
▁Ly	-8112
▁OS	-8113
▁Op	-8114
▁Ty	-8115
▁na	-8116
arat	-8117
arin	-8118
bage	-8119
cher	-8120
free	-8121
itis	-8122
ller	-8123
mate	-8124
oard	-8125
olas	-8126
opes	-8127
otte	-8128
phan	-8129
wich	-8130
▁178	-8131
▁Age	-8132
▁Ash	-8133
▁Dal	-8134
▁Hay	-8135
▁Kal	-8136
▁Las	-8137
▁MTV	-8138
▁Raj	-8139
▁Rod	-8140
▁Rog	-8141
▁Tob	-8142
▁etc	-8143
▁hal	-8144
▁hat	-8145
▁hem	-8146
▁owe	-8147
▁sou	-8148
allow	-8149
angle	-8150
ensis	-8151
produ	-8152
ramid	-8153
stery	-8154
uable	-8155
ydney	-8156
▁1945	-8157
▁1991	-8158
▁Anna	-8159
▁Care	-8160
▁Fran	-8161
▁Init	-8162
▁Joey	-8163
▁Mach	-8164
▁Manu	-8165
▁Maur	-8166
▁Nazi	-8167
▁None	-8168
▁Talk	-8169
▁Wood	-8170
▁aged	-8171
▁anth	-8172
▁orig	-8173
▁rent	-8174
▁trem	-8175
▁unsu	-8176
action	-8177
icious	-8178
ounced	-8179
pelled	-8180
▁2006.	-8181
▁Chang	-8182
▁Const	-8183
▁Costa	-8184
▁Kenya	-8185
▁Swiss	-8186
▁Uncle	-8187
▁Water	-8188
▁angle	-8189
▁bones	-8190
▁craft	-8191
▁draft	-8192
▁faced	-8193
▁faces	-8194
▁falls	-8195
▁gross	-8196
▁immun	-8197
▁motiv	-8198
▁noise	-8199
▁obser	-8200
▁ranks	-8201
▁sched	-8202
▁tanks	-8203
▁votes	-8204
rainian	-8205
uations	-8206
▁Anyway	-8207
▁Engine	-8208
▁Histor	-8209
▁Rights	-8210
▁Taylor	-8211
▁Unless	-8212
▁beings	-8213
▁duties	-8214
▁exceed	-8215
▁extens	-8216
▁margin	-8217
▁negoti	-8218
▁photos	-8219
▁smooth	-8220
▁sodium	-8221
▁summit	-8222
▁Austria	-8223
▁Protect	-8224
▁beating	-8225
▁dealing	-8226
▁debuted	-8227
▁precise	-8228
▁radical	-8229
▁railway	-8230
▁staying	-8231
▁violent	-8232
▁Business	-8233
▁Sciences	-8234
▁Tomorrow	-8235
▁benefits	-8236
▁designer	-8237
▁engineer	-8238
▁enormous	-8239
▁medieval	-8240
▁modified	-8241
▁princess	-8242
▁prisoner	-8243
▁purchase	-8244
▁rejected	-8245
▁strongly	-8246
▁teachers	-8247
▁Venezuela	-8248
▁ancestors	-8249
▁ecosystem	-8250
▁gradually	-8251
▁hospitals	-8252
▁offensive	-8253
▁surviving	-8254
▁survivors	-8255
▁candidates	-8256
▁comparison	-8257
▁expression	-8258
▁newspapers	-8259
▁traditions	-8260
▁influential	-8261
▁experimental	-8262
▁extraordinary	-8263
▁Constantinople	-8264
-7	-8265
48	-8266
64	-8267
68	-8268
RS	-8269
▁*	-8270
Pol	-8271
aro	-8272
awn	-8273
eda	-8274
erk	-8275
sea	-8276
ylv	-8277
▁AP	-8278
▁AT	-8279
▁EP	-8280
▁Ep	-8281
▁Yu	-8282
bing	-8283
bors	-8284
case	-8285
cles	-8286
folk	-8287
hard	-8288
hyth	-8289
mann	-8290
phia	-8291
rous	-8292
rows	-8293
▁Exc	-8294
▁Mak	-8295
▁NGC	-8296
▁Run	-8297
▁Tal	-8298
▁Tit	-8299
▁Try	-8300
▁avo	-8301
▁fee	-8302
▁ped	-8303
▁wet	-8304
aders	-8305
ienna	-8306
itate	-8307
ogram	-8308
oline	-8309
shore	-8310
urisd	-8311
▁1946	-8312
▁1989	-8313
▁Fred	-8314
▁Hope	-8315
▁Imag	-8316
▁Jess	-8317
▁Nint	-8318
▁Stat	-8319
▁Team	-8320
▁fake	-8321
▁fled	-8322
▁fulf	-8323
▁hill	-8324
▁hunt	-8325
▁poet	-8326
▁pref	-8327
aching	-8328
coming	-8329
contin	-8330
ernand	-8331
itudes	-8332
person	-8333
▁2001.	-8334
▁Clark	-8335
▁Girls	-8336
▁Hotel	-8337
▁Khmer	-8338
▁Krist	-8339
▁annex	-8340
▁blame	-8341
▁boats	-8342
▁brave	-8343
▁camps	-8344
▁cinem	-8345
▁downt	-8346
▁dozen	-8347
▁eleph	-8348
▁lungs	-8349
▁milit	-8350
▁optim	-8351
▁pharm	-8352
▁seeds	-8353
▁surge	-8354
▁talks	-8355
▁wings	-8356
issions	-8357
itarian	-8358
onomous	-8359
▁Arabic	-8360
▁Carlos	-8361
▁Confed	-8362
▁Having	-8363
▁Hawaii	-8364
▁Hitler	-8365
▁Monica	-8366
▁Morocc	-8367
▁Victor	-8368
▁Within	-8369
▁affair	-8370
▁bottle	-8371
▁conven	-8372
▁deeply	-8373
▁desper	-8374
▁guitar	-8375
▁lights	-8376
▁linear	-8377
▁matrix	-8378
▁prices	-8379
adelphia	-8380
cription	-8381
heastern	-8382
piration	-8383
▁Current	-8384
▁cameras	-8385
▁enjoyed	-8386
▁funeral	-8387
▁missile	-8388
▁promote	-8389
▁rescued	-8390
▁theorem	-8391
▁trigger	-8392
▁Alliance	-8393
▁Children	-8394
▁Lawrence	-8395
▁Saturday	-8396
▁believes	-8397
▁constant	-8398
▁entitled	-8399
▁episodes	-8400
▁exercise	-8401
▁explains	-8402
▁interior	-8403
▁invented	-8404
▁printing	-8405
▁reducing	-8406
▁Detective	-8407
▁boyfriend	-8408
▁chemistry	-8409
▁diversity	-8410
▁divisions	-8411
▁excellent	-8412
▁generated	-8413
▁nominated	-8414
▁uncertain	-8415
▁variation	-8416
▁Lieutenant	-8417
▁artificial	-8418
▁collective	-8419
▁electronic	-8420
▁remembered	-8421
▁appropriate	-8422
▁Philadelphia	-8423
▁conservation	-8424
▁conservative	-8425
▁representing	-8426
▁parliamentary	-8427
▁Administration	-8428
',	-8429
CC	-8430
Un	-8431
ée	-8432
cio	-8433
die	-8434
ico	-8435
iri	-8436
net	-8437
rav	-8438
ses	-8439
tha	-8440
uce	-8441
uda	-8442
▁CP	-8443
▁Ga	-8444
▁IN	-8445
▁Sn	-8446
▁pp	-8447
aine	-8448
ghai	-8449
ilia	-8450
kind	-8451
olis	-8452
that	-8453
vian	-8454
ylon	-8455
▁177	-8456
▁Adv	-8457
▁Hou	-8458
▁Joe	-8459
▁Lam	-8460
▁Obs	-8461
▁Say	-8462
▁Sem	-8463
▁Sym	-8464
▁bot	-8465
▁bub	-8466
▁gly	-8467
▁rib	-8468
▁shr	-8469
athan	-8470
elect	-8471
obile	-8472
onder	-8473
onely	-8474
owder	-8475
▁Carm	-8476
▁Dark	-8477
▁Hand	-8478
▁Hano	-8479
▁Kenn	-8480
▁Linc	-8481
▁Marg	-8482
▁Penn	-8483
▁Rail	-8484
▁Very	-8485
▁Wild	-8486
▁asks	-8487
▁cure	-8488
▁drew	-8489
▁dust	-8490
▁fles	-8491
▁merc	-8492
▁mood	-8493
▁pand	-8494
▁shel	-8495
▁stim	-8496
▁wash	-8497
bridge	-8498
illery	-8499
illing	-8500
overed	-8501
▁Heart	-8502
▁Seven	-8503
▁Tower	-8504
▁Tunis	-8505
▁Youth	-8506
▁accum	-8507
▁alien	-8508
▁begun	-8509
▁cance	-8510
▁disag	-8511
▁dynam	-8512
▁elite	-8513
▁kidna	-8514
▁kings	-8515
▁links	-8516
▁minus	-8517
▁navig	-8518
▁neuro	-8519
▁oblig	-8520
▁photo	-8521
▁skill	-8522
▁smile	-8523
▁spare	-8524
▁taxes	-8525
ighting	-8526
osexual	-8527
▁Madrid	-8528
▁Nature	-8529
▁Oxford	-8530
▁Spring	-8531
▁Sydney	-8532
▁barrel	-8533
▁bullet	-8534
▁calend	-8535
▁dishes	-8536
▁heaven	-8537
▁oceans	-8538
▁planes	-8539
▁prohib	-8540
▁reserv	-8541
▁shadow	-8542
▁throat	-8543
Japanese	-8544
ellation	-8545
▁Channel	-8546
▁Mexican	-8547
▁Norfolk	-8548
▁Ottoman	-8549
▁aspects	-8550
▁collaps	-8551
▁descent	-8552
▁horizon	-8553
▁license	-8554
▁quantum	-8555
▁session	-8556
▁signing	-8557
▁visible	-8558
▁whereas	-8559
▁Colorado	-8560
▁Einstein	-8561
▁Nintendo	-8562
▁Shanghai	-8563
▁Squadron	-8564
▁database	-8565
▁disorder	-8566
▁equation	-8567
▁equipped	-8568
▁geometry	-8569
▁molecule	-8570
▁proposal	-8571
▁somewhat	-8572
▁communist	-8573
▁dominated	-8574
▁execution	-8575
▁neighbour	-8576
▁paintings	-8577
▁particles	-8578
▁strategic	-8579
▁Throughout	-8580
▁approaches	-8581
▁boundaries	-8582
▁discussion	-8583
▁mechanical	-8584
▁protecting	-8585
▁translated	-8586
▁designation	-8587
▁differently	-8588
▁instruments	-8589
▁underground	-8590
23	-8591
35	-8592
44	-8593
66	-8594
92	-8595
GM	-8596
fu	-8597
oi	-8598
zz	-8599
▁×	-8600
VID	-8601
aug	-8602
cos	-8603
din	-8604
gun	-8605
isp	-8606
mes	-8607
ukh	-8608
zes	-8609
▁ID	-8610
▁SS	-8611
▁UE	-8612
▁Vo	-8613
▁iP	-8614
alin	-8615
atra	-8616
eing	-8617
hent	-8618
ieve	-8619
ista	-8620
okes	-8621
okia	-8622
omon	-8623
osom	-8624
stan	-8625
▁31,	-8626
▁Bir	-8627
▁Had	-8628
▁Jos	-8629
▁Ped	-8630
▁Ref	-8631
▁Tam	-8632
▁Ult	-8633
▁fib	-8634
adesh	-8635
asant	-8636
erate	-8637
eters	-8638
ethyl	-8639
inson	-8640
lines	-8641
ongue	-8642
oples	-8643
sters	-8644
ussia	-8645
▁1986	-8646
▁Chen	-8647
▁Cher	-8648
▁Expl	-8649
▁Fall	-8650
▁Know	-8651
▁Lind	-8652
▁Mess	-8653
▁Rain	-8654
▁Week	-8655
▁Yang	-8656
▁diox	-8657
▁dose	-8658
▁lect	-8659
▁surf	-8660
▁unst	-8661
icular	-8662
ingers	-8663
tering	-8664
▁Agent	-8665
▁Alice	-8666
▁Death	-8667
▁Honor	-8668
▁Jimmy	-8669
▁argue	-8670
▁cheap	-8671
▁codes	-8672
▁dirty	-8673
▁facts	-8674
▁grade	-8675
▁medal	-8676
▁nerve	-8677
▁rooms	-8678
▁surve	-8679
igrants	-8680
▁Agency	-8681
▁Deputy	-8682
▁Design	-8683
▁Family	-8684
▁Galaxy	-8685
▁Native	-8686
▁Others	-8687
▁adjust	-8688
▁allies	-8689
▁arrive	-8690
▁babies	-8691
▁fairly	-8692
▁harder	-8693
▁immune	-8694
▁jurisd	-8695
▁lowest	-8696
▁precip	-8697
▁rarely	-8698
▁repeat	-8699
▁riding	-8700
▁robots	-8701
▁routes	-8702
▁simult	-8703
▁stored	-8704
▁videos	-8705
▁Culture	-8706
▁Finally	-8707
▁Johnson	-8708
▁Justice	-8709
▁Library	-8710
▁Lincoln	-8711
▁Officer	-8712
▁Persian	-8713
▁Similar	-8714
▁Welcome	-8715
▁beliefs	-8716
▁charity	-8717
▁citizen	-8718
▁dressed	-8719
▁emotion	-8720
▁extract	-8721
▁females	-8722
▁finance	-8723
▁gravity	-8724
▁housing	-8725
▁invaded	-8726
▁protest	-8727
▁reviews	-8728
conscious	-8729
sequently	-8730
▁clothing	-8731
▁convince	-8732
▁currency	-8733
▁entering	-8734
▁historic	-8735
▁messages	-8736
▁particle	-8737
▁precious	-8738
▁forgotten	-8739
▁landscape	-8740
▁magnitude	-8741
▁molecular	-8742
▁personnel	-8743
▁practical	-8744
▁recovered	-8745
▁searching	-8746
▁substance	-8747
▁wondering	-8748
▁constantly	-8749
▁destroyers	-8750
▁infections	-8751
▁laboratory	-8752
▁suggesting	-8753
▁comfortable	-8754
▁connections	-8755
▁considering	-8756
▁destruction	-8757
▁grandmother	-8758
▁observation	-8759
▁intervention	-8760
▁psychological	-8761
AM	-8762
OT	-8763
vo	-8764
vy	-8765
yc	-8766
100	-8767
asu	-8768
bek	-8769
cca	-8770
iki	-8771
nia	-8772
omi	-8773
oro	-8774
owa	-8775
ums	-8776
zym	-8777
▁37	-8778
▁Ay	-8779
▁Il	-8780
▁Ms	-8781
▁lb	-8782
adal	-8783
amps	-8784
anta	-8785
ccer	-8786
dess	-8787
issa	-8788
odox	-8789
olid	-8790
rors	-8791
sell	-8792
vals	-8793
zona	-8794
▁600	-8795
▁Ali	-8796
▁Aqu	-8797
▁Cha	-8798
▁Fal	-8799
▁Gib	-8800
▁Guy	-8801
▁HIV	-8802
▁Jan	-8803
▁Pur	-8804
▁Sic	-8805
▁Won	-8806
▁bin	-8807
▁fab	-8808
▁gat	-8809
▁gro	-8810
▁phr	-8811
▁pip	-8812
agram	-8813
attan	-8814
bling	-8815
eared	-8816
esome	-8817
icity	-8818
inite	-8819
mates	-8820
orous	-8821
orted	-8822
range	-8823
▁1000	-8824
▁1993	-8825
▁Anth	-8826
▁Band	-8827
▁Caes	-8828
▁Chem	-8829
▁Fact	-8830
▁Fair	-8831
▁Horn	-8832
▁Jama	-8833
▁Krak	-8834
▁Much	-8835
▁UEFA	-8836
▁Zone	-8837
▁abst	-8838
▁acet	-8839
▁bite	-8840
▁coup	-8841
▁ears	-8842
▁forb	-8843
▁incl	-8844
▁mail	-8845
▁mand	-8846
▁tape	-8847
▁tens	-8848
▁wins	-8849
ardens	-8850
employ	-8851
▁1943,	-8852
▁2,000	-8853
▁Canal	-8854
▁Event	-8855
▁Field	-8856
▁Jones	-8857
▁Milan	-8858
▁Serge	-8859
▁Small	-8860
▁Steve	-8861
▁abund	-8862
▁abuse	-8863
▁bonds	-8864
▁brows	-8865
▁cream	-8866
▁defic	-8867
▁explo	-8868
▁grave	-8869
▁idiot	-8870
▁laser	-8871
▁lingu	-8872
▁lists	-8873
▁mouse	-8874
▁pages	-8875
▁prize	-8876
▁recip	-8877
▁risks	-8878
▁shame	-8879
▁siege	-8880
▁skull	-8881
▁toler	-8882
▁trend	-8883
▁tribe	-8884
▁usage	-8885
▁woods	-8886
theless	-8887
▁Andrew	-8888
▁Friend	-8889
▁buying	-8890
▁casual	-8891
▁hungry	-8892
▁ingred	-8893
▁landed	-8894
▁latest	-8895
▁lesson	-8896
▁mirror	-8897
▁physic	-8898
▁predec	-8899
▁priest	-8900
▁recall	-8901
▁repair	-8902
▁worker	-8903
rilliant	-8904
▁Ancient	-8905
▁Country	-8906
▁Tonight	-8907
▁adapted	-8908
▁breathe	-8909
▁dioxide	-8910
▁intense	-8911
▁notably	-8912
▁reaches	-8913
▁tourist	-8914
itionally	-8915
▁artistic	-8916
▁astronom	-8917
▁chloride	-8918
▁collapse	-8919
▁controls	-8920
▁generate	-8921
▁missiles	-8922
▁rational	-8923
▁register	-8924
▁shoulder	-8925
▁suitable	-8926
▁syndrome	-8927
▁withdrew	-8928
▁Community	-8929
▁apologize	-8930
▁concluded	-8931
▁continent	-8932
▁economics	-8933
▁engineers	-8934
▁interrupt	-8935
▁neighbors	-8936
▁partially	-8937
▁preparing	-8938
▁receiving	-8939
▁regularly	-8940
▁replacing	-8941
▁submarine	-8942
▁suspended	-8943
▁adaptation	-8944
▁agreements	-8945
▁disappoint	-8946
▁efficiency	-8947
▁employment	-8948
▁mysterious	-8949
▁unexpected	-8950
▁appointment	-8951
▁coronavirus	-8952
▁importantly	-8953
▁involvement	-8954
▁constellation	-8955
▁communications	-8956
17	-8957
29	-8958
CM	-8959
CR	-8960
OL	-8961
SP	-8962
je	-8963
wr	-8964
▁£	-8965
800	-8966
ido	-8967
jin	-8968
ket	-8969
kov	-8970
mat	-8971
mod	-8972
oil	-8973
san	-8974
ugg	-8975
upp	-8976
wed	-8977
yes	-8978
▁Ce	-8979
▁Du	-8980
▁Fa	-8981
▁sq	-8982
away	-8983
cano	-8984
emet	-8985
igon	-8986
lims	-8987
olds	-8988
olen	-8989
rive	-8990
uchi	-8991
–200	-8992
▁(1.	-8993
▁29,	-8994
▁Cel	-8995
▁Doc	-8996
▁Gro	-8997
▁Key	-8998
▁Kon	-8999
▁Lew	-9000
▁Loc	-9001
▁Muh	-9002
▁Sak	-9003
▁Sin	-9004
▁Tot	-9005
▁Yok	-9006
▁cab	-9007
▁jew	-9008
▁nom	-9009
▁ske	-9010
▁vow	-9011
▁voy	-9012
ancer	-9013
icial	-9014
outer	-9015
rient	-9016
rones	-9017
yeong	-9018
▁Bour	-9019
▁Dest	-9020
▁Ford	-9021
▁Half	-9022
▁Herm	-9023
▁Jong	-9024
▁Juan	-9025
▁Jung	-9026
▁Merc	-9027
▁Mond	-9028
▁Nice	-9029
▁Serb	-9030
▁Tanz	-9031
▁Trib	-9032
▁Want	-9033
▁auth	-9034
▁cake	-9035
▁horn	-9036
▁joke	-9037
▁load	-9038
▁math	-9039
▁nurs	-9040
▁stab	-9041
▁worn	-9042
angers	-9043
former	-9044
hedral	-9045
irates	-9046
orders	-9047
orship	-9048
▁1997,	-9049
▁3,000	-9050
▁Billy	-9051
▁COVID	-9052
▁Chair	-9053
▁Croat	-9054
▁Ghana	-9055
▁Horse	-9056
▁Idlib	-9057
▁Linux	-9058
▁Maced	-9059
▁Siber	-9060
▁Sound	-9061
▁anger	-9062
▁atoms	-9063
▁awful	-9064
▁bases	-9065
▁chest	-9066
▁climb	-9067
▁coins	-9068
▁decor	-9069
▁deriv	-9070
▁email	-9071
▁flesh	-9072
▁hyper	-9073
▁lakes	-9074
▁mayor	-9075
▁naked	-9076
▁procl	-9077
▁shops	-9078
▁wheel	-9079
clusion	-9080
▁Arabia	-9081
▁Baltic	-9082
▁Steven	-9083
▁Studio	-9084
▁Sultan	-9085
▁Temple	-9086
▁bloody	-9087
▁comedy	-9088
▁dragon	-9089
▁fallen	-9090
▁genius	-9091
▁pilots	-9092
▁pursue	-9093
▁ranges	-9094
▁remote	-9095
▁trials	-9096
▁tunnel	-9097
iversary	-9098
▁Affairs	-9099
▁Alexand	-9100
▁Express	-9101
▁Israeli	-9102
▁Medical	-9103
▁Reserve	-9104
▁accused	-9105
▁burning	-9106
▁comprom	-9107
▁couples	-9108
▁decline	-9109
▁deserve	-9110
▁devoted	-9111
▁equally	-9112
▁funding	-9113
▁highway	-9114
▁letting	-9115
▁origins	-9116
▁persons	-9117
▁pretend	-9118
▁recover	-9119
▁revenue	-9120
▁smoking	-9121
▁vessels	-9122
▁Cambodia	-9123
▁Marshall	-9124
▁alliance	-9125
▁arranged	-9126
▁chairman	-9127
▁claiming	-9128
▁external	-9129
▁fighters	-9130
▁magnetic	-9131
▁mainland	-9132
▁monument	-9133
▁pandemic	-9134
▁retained	-9135
▁theories	-9136
▁variable	-9137
▁brilliant	-9138
▁celebrate	-9139
▁contained	-9140
▁convicted	-9141
▁dissolved	-9142
▁expecting	-9143
▁intellect	-9144
▁interface	-9145
▁prototype	-9146
▁suspected	-9147
dimensional	-9148
▁democratic	-9149
▁describing	-9150
▁diplomatic	-9151
▁friendship	-9152
▁influences	-9153
▁description	-9154
▁journalists	-9155
▁politicians	-9156
▁restaurants	-9157
▁substantial	-9158
▁observations	-9159
▁contributions	-9160
▁opportunities	-9161
)}	-9162
61	-9163
86	-9164
As	-9165
BN	-9166
Do	-9167
IF	-9168
SS	-9169
TE	-9170
ét	-9171
Gen	-9172
She	-9173
ded	-9174
ogs	-9175
rox	-9176
sis	-9177
uct	-9178
umi	-9179
▁65	-9180
▁Ji	-9181
▁Wo	-9182
▁Wy	-9183
aman	-9184
amer	-9185
bled	-9186
egas	-9187
emed	-9188
from	-9189
gian	-9190
hour	-9191
idad	-9192
ifer	-9193
isha	-9194
izer	-9195
list	-9196
mail	-9197
oned	-9198
real	-9199
roke	-9200
rose	-9201
tery	-9202
▁800	-9203
▁Bun	-9204
▁DVD	-9205
▁Dev	-9206
▁Ecu	-9207
▁Equ	-9208
▁Ger	-9209
▁Hyd	-9210
▁Kep	-9211
▁Ltd	-9212
▁Sit	-9213
▁Sug	-9214
▁Toy	-9215
▁Vas	-9216
▁Whe	-9217
▁cul	-9218
▁pap	-9219
▁pin	-9220
abled	-9221
arity	-9222
avian	-9223
chron	-9224
etary	-9225
ocene	-9226
years	-9227
▁1965	-9228
▁1972	-9229
▁1985	-9230
▁Anne	-9231
▁Cham	-9232
▁Coll	-9233
▁Dave	-9234
▁Fine	-9235
▁Manh	-9236
▁Mind	-9237
▁Nich	-9238
▁Pict	-9239
▁Prim	-9240
▁Shar	-9241
▁Tele	-9242
▁Trin	-9243
▁bits	-9244
▁chip	-9245
▁dump	-9246
▁pink	-9247
▁rear	-9248
aneous	-9249
igious	-9250
prison	-9251
rating	-9252
urches	-9253
▁1992,	-9254
▁1998,	-9255
▁Along	-9256
▁Board	-9257
▁Broad	-9258
▁Grace	-9259
▁Honey	-9260
▁Press	-9261
▁Spart	-9262
▁adopt	-9263
▁aimed	-9264
▁burst	-9265
▁chess	-9266
▁drove	-9267
▁flash	-9268
▁imper	-9269
▁kills	-9270
▁knife	-9271
▁manif	-9272
▁meets	-9273
▁minds	-9274
▁occas	-9275
▁penal	-9276
▁penet	-9277
▁shirt	-9278
▁sweep	-9279
▁tooth	-9280
▁trill	-9281
▁vital	-9282
▁vocal	-9283
emetery	-9284
onymous	-9285
reement	-9286
through	-9287
▁Bridge	-9288
▁Claire	-9289
▁Except	-9290
▁Gordon	-9291
▁Invest	-9292
▁Johnny	-9293
▁Ladies	-9294
▁Living	-9295
▁Romans	-9296
▁Senior	-9297
▁Vienna	-9298
▁appeal	-9299
▁archae	-9300
▁colour	-9301
▁dating	-9302
▁inches	-9303
▁movies	-9304
▁overse	-9305
▁regret	-9306
▁sequel	-9307
▁stolen	-9308
▁suburb	-9309
elescope	-9310
ervatory	-9311
▁Connect	-9312
▁Digital	-9313
▁Highway	-9314
▁Prefect	-9315
▁Twitter	-9316
▁absence	-9317
▁amounts	-9318
▁anticip	-9319
▁battery	-9320
▁chasing	-9321
▁curious	-9322
▁experts	-9323
▁fantasy	-9324
▁longest	-9325
▁loyalty	-9326
▁offices	-9327
▁revenge	-9328
▁routine	-9329
▁steamed	-9330
▁unusual	-9331
ationally	-9332
▁Mountain	-9333
▁Movement	-9334
▁Somebody	-9335
▁clinical	-9336
▁credited	-9337
▁delivery	-9338
▁duration	-9339
▁frequent	-9340
▁hardware	-9341
▁isolated	-9342
▁memorial	-9343
▁presents	-9344
▁profound	-9345
▁recovery	-9346
▁superior	-9347
▁valuable	-9348
▁Mountains	-9349
▁Ukrainian	-9350
▁Universal	-9351
▁abilities	-9352
▁accompany	-9353
▁commanded	-9354
▁corporate	-9355
▁objective	-9356
▁scheduled	-9357
▁signature	-9358
▁universal	-9359
▁Originally	-9360
▁attributed	-9361
▁completion	-9362
▁concerning	-9363
▁difficulty	-9364
▁eliminated	-9365
▁graduating	-9366
▁integrated	-9367
▁originated	-9368
▁advertising	-9369
▁educational	-9370
▁improvement	-9371
▁personality	-9372
▁preparation	-9373
▁translation	-9374
▁distinguished	-9375
▁participation	-9376
▁transformation	-9377
04	-9378
27	-9379
4%	-9380
6%	-9381
So	-9382
^{	-9383
▁;	-9384
abe	-9385
aci	-9386
ags	-9387
aks	-9388
bow	-9389
cal	-9390
eno	-9391
lex	-9392
nom	-9393
oga	-9394
oya	-9395
pop	-9396
rer	-9397
riv	-9398
rov	-9399
ulu	-9400
zon	-9401
▁75	-9402
▁Ko	-9403
▁Uz	-9404
▁Ye	-9405
agen	-9406
atsu	-9407
gers	-9408
isco	-9409
phal	-9410
reek	-9411
type	-9412
zard	-9413
▁Abd	-9414
▁CIA	-9415
▁Cit	-9416
▁Dor	-9417
▁Dra	-9418
▁Kan	-9419
▁Shō	-9420
▁Unf	-9421
▁bon	-9422
▁lun	-9423
▁pul	-9424
▁rig	-9425
▁unt	-9426
anton	-9427
asury	-9428
ensed	-9429
ergic	-9430
heric	-9431
ilton	-9432
inois	-9433
inter	-9434
isive	-9435
owned	-9436
▁1981	-9437
▁1982	-9438
▁1987	-9439
▁Ages	-9440
▁Bron	-9441
▁Crit	-9442
▁Exec	-9443
▁Ivan	-9444
▁José	-9445
▁Kind	-9446
▁Lore	-9447
▁Rico	-9448
▁Tues	-9449
▁Wang	-9450
▁Were	-9451
▁ages	-9452
▁bore	-9453
▁bust	-9454
▁diet	-9455
▁dude	-9456
▁dumb	-9457
▁epid	-9458
▁fung	-9459
▁grab	-9460
▁indu	-9461
▁jeal	-9462
▁lied	-9463
▁lion	-9464
▁mate	-9465
▁meal	-9466
▁prox	-9467
▁sang	-9468
▁seed	-9469
▁stem	-9470
▁tang	-9471
▁tone	-9472
▁util	-9473
▁visa	-9474
atinum	-9475
closed	-9476
govern	-9477
idency	-9478
ricane	-9479
▁1994,	-9480
▁2002.	-9481
▁Aires	-9482
▁Allen	-9483
▁Antar	-9484
▁Brook	-9485
▁Irish	-9486
▁Marie	-9487
▁Monte	-9488
▁Staff	-9489
▁Tiber	-9490
▁Trump	-9491
▁Vegas	-9492
▁alloc	-9493
▁audio	-9494
▁blast	-9495
▁cargo	-9496
▁catal	-9497
▁deals	-9498
▁delic	-9499
▁fires	-9500
▁grant	-9501
▁hopes	-9502
▁hosts	-9503
▁loose	-9504
▁outer	-9505
▁parks	-9506
▁pione	-9507
▁sharp	-9508
▁spark	-9509
▁weigh	-9510
angered	-9511
attered	-9512
ocolate	-9513
otherap	-9514
species	-9515
ylvania	-9516
▁Forest	-9517
▁Kepler	-9518
▁Manila	-9519
▁Number	-9520
▁Review	-9521
▁Twenty	-9522
▁aboard	-9523
▁charts	-9524
▁commem	-9525
▁consec	-9526
▁counts	-9527
▁criter	-9528
▁decent	-9529
▁excuse	-9530
▁fertil	-9531
▁gender	-9532
▁hardly	-9533
▁honour	-9534
▁notion	-9535
▁novels	-9536
▁ruling	-9537
▁themes	-9538
▁tongue	-9539
▁triple	-9540
▁Arizona	-9541
▁Imagine	-9542
▁beneath	-9543
▁cabinet	-9544
▁cooking	-9545
▁crossed	-9546
▁dismiss	-9547
▁disrupt	-9548
▁enforce	-9549
▁filming	-9550
▁habitat	-9551
▁hanging	-9552
▁magical	-9553
▁monster	-9554
▁options	-9555
▁painted	-9556
▁payment	-9557
▁praised	-9558
▁privile	-9559
▁repairs	-9560
▁segment	-9561
▁trusted	-9562
▁worship	-9563
▁Aviation	-9564
▁Buddhist	-9565
▁Heritage	-9566
▁Michigan	-9567
▁Software	-9568
▁Together	-9569
▁approval	-9570
▁belonged	-9571
▁downtown	-9572
▁handsome	-9573
▁imported	-9574
▁infantry	-9575
▁interpre	-9576
▁minority	-9577
▁monaster	-9578
▁resident	-9579
▁Territory	-9580
▁finishing	-9581
▁gentleman	-9582
▁indicates	-9583
▁organised	-9584
▁practices	-9585
▁responded	-9586
▁secretary	-9587
▁Laboratory	-9588
▁Television	-9589
▁challenges	-9590
▁convention	-9591
▁engagement	-9592
▁perception	-9593
▁physically	-9594
▁vulnerable	-9595
▁Governorate	-9596
▁destination	-9597
▁photography	-9598
▁Construction	-9599
▁concentrated	-9600
▁conventional	-9601
▁interactions	-9602
▁manufactured	-9603
▁measurements	-9604
▁independently	-9605
-9	-9606
AL	-9607
▁:	-9608
3).	-9609
adi	-9610
aus	-9611
awi	-9612
aza	-9613
bey	-9614
bus	-9615
fly	-9616
gon	-9617
gue	-9618
hus	-9619
neg	-9620
ocy	-9621
olo	-9622
orb	-9623
▁(7	-9624
▁2:	-9625
▁43	-9626
▁44	-9627
▁48	-9628
▁Kō	-9629
▁MS	-9630
▁Ot	-9631
▁Sz	-9632
▁Ze	-9633
▁oh	-9634
aire	-9635
ante	-9636
asma	-9637
dong	-9638
east	-9639
erer	-9640
glas	-9641
ials	-9642
ibet	-9643
ifle	-9644
ouch	-9645
warf	-9646
zyme	-9647
▁Bos	-9648
▁Ern	-9649
▁GDP	-9650
▁Lux	-9651
▁Rou	-9652
▁Too	-9653
▁gap	-9654
▁gut	-9655
▁lux	-9656
▁mit	-9657
▁mud	-9658
▁ric	-9659
▁tub	-9660
▁wal	-9661
anium	-9662
bourg	-9663
cific	-9664
ctive	-9665
gence	-9666
inals	-9667
llers	-9668
month	-9669
oslav	-9670
wered	-9671
zymes	-9672
▁1942	-9673
▁1944	-9674
▁Alan	-9675
▁Anim	-9676
▁Boss	-9677
▁Brad	-9678
▁Chel	-9679
▁Ever	-9680
▁Fund	-9681
▁Gene	-9682
▁Hang	-9683
▁Hann	-9684
▁Lank	-9685
▁Lith	-9686
▁Mend	-9687
▁Okin	-9688
▁Pier	-9689
▁ally	-9690
▁brig	-9691
▁bury	-9692
▁cogn	-9693
▁isot	-9694
▁lift	-9695
▁nest	-9696
▁pale	-9697
▁pled	-9698
▁publ	-9699
▁scan	-9700
▁tear	-9701
▁wore	-9702
inated	-9703
mental	-9704
rehens	-9705
utical	-9706
vision	-9707
▁1941,	-9708
▁1942,	-9709
▁1989,	-9710
▁Artic	-9711
▁Bangl	-9712
▁Beaut	-9713
▁Bible	-9714
▁Congo	-9715
▁Domin	-9716
▁Flore	-9717
▁Grant	-9718
▁Leave	-9719
▁Lewis	-9720
▁Liver	-9721
▁Paulo	-9722
▁Using	-9723
▁Venus	-9724
▁ammun	-9725
▁cheer	-9726
▁coinc	-9727
▁daddy	-9728
▁dates	-9729
▁dense	-9730
▁devil	-9731
▁diver	-9732
▁eaten	-9733
▁erect	-9734
▁foods	-9735
▁logic	-9736
▁memor	-9737
▁opera	-9738
▁probe	-9739
▁punch	-9740
▁scary	-9741
▁slave	-9742
▁stole	-9743
▁stops	-9744
▁texts	-9745
Station	-9746
istical	-9747
lovakia	-9748
mediate	-9749
osaurus	-9750
reprene	-9751
tenance	-9752
▁Always	-9753
▁Buenos	-9754
▁Donald	-9755
▁Dragon	-9756
▁Naples	-9757
▁Stalin	-9758
▁abroad	-9759
▁actors	-9760
▁atomic	-9761
▁breeds	-9762
▁devast	-9763
▁firing	-9764
▁golden	-9765
▁guests	-9766
▁heroes	-9767
▁layers	-9768
▁merged	-9769
▁micros	-9770
▁phosph	-9771
▁reveal	-9772
▁safely	-9773
▁shares	-9774
atherine	-9775
▁Century	-9776
▁Douglas	-9777
▁Ecuador	-9778
▁Freedom	-9779
▁Muslims	-9780
▁Studios	-9781
▁airline	-9782
▁alleged	-9783
▁amongst	-9784
▁biology	-9785
▁closing	-9786
▁conspir	-9787
▁custody	-9788
▁diverse	-9789
▁farming	-9790
▁feeding	-9791
▁illness	-9792
▁martial	-9793
▁raising	-9794
▁resumed	-9795
▁variant	-9796
▁virtual	-9797
itational	-9798
▁Anything	-9799
▁Bulgaria	-9800
▁Language	-9801
▁Universe	-9802
▁abstract	-9803
▁attached	-9804
▁attorney	-9805
▁detected	-9806
▁educated	-9807
▁escorted	-9808
▁everyday	-9809
▁focusing	-9810
▁gathered	-9811
▁imprison	-9812
▁involves	-9813
▁supports	-9814
▁trillion	-9815
▁unstable	-9816
▁vertical	-9817
▁Argentine	-9818
▁Byzantine	-9819
▁attending	-9820
▁comprises	-9821
▁dependent	-9822
▁expanding	-9823
▁fantastic	-9824
▁framework	-9825
▁gathering	-9826
▁inherited	-9827
▁movements	-9828
▁sensitive	-9829
▁terrorist	-9830
▁Enterprise	-9831
▁Especially	-9832
▁Republican	-9833
▁accessible	-9834
▁ammunition	-9835
▁celebrated	-9836
▁connecting	-9837
▁continuing	-9838
▁criticized	-9839
▁documented	-9840
▁helicopter	-9841
▁historians	-9842
▁proportion	-9843
▁retirement	-9844
▁supporters	-9845
▁thereafter	-9846
▁anniversary	-9847
▁antibiotics	-9848
▁composition	-9849
▁exclusively	-9850
▁extensively	-9851
▁investigate	-9852
▁operational	-9853
▁potentially	-9854
▁capabilities	-9855
▁contribution	-9856
▁negotiations	-9857
▁presentation	-9858
▁restrictions	-9859
▁Unfortunately	-9860
▁consciousness	-9861
▁concentrations	-9862
21	-9863
24	-9864
33	-9865
55	-9866
88	-9867
DS	-9868
EL	-9869
TS	-9870
ui	-9871
ín	-9872
▁→	-9873
6),	-9874
And	-9875
Con	-9876
erb	-9877
esh	-9878
igo	-9879
lia	-9880
oft	-9881
pei	-9882
rec	-9883
uni	-9884
▁IP	-9885
▁Kr	-9886
▁PS	-9887
▁Ry	-9888
▁fu	-9889
▁vo	-9890
acht	-9891
burn	-9892
care	-9893
cium	-9894
erts	-9895
esis	-9896
gans	-9897
hero	-9898
iago	-9899
ibal	-9900
neum	-9901
oded	-9902
olar	-9903
pool	-9904
rell	-9905
umer	-9906
uras	-9907
wait	-9908
whel	-9909
yard	-9910
yrus	-9911
▁175	-9912
▁Cou	-9913
▁Cry	-9914
▁Fif	-9915
▁Fut	-9916
▁Kit	-9917
▁Nan	-9918
▁Occ	-9919
▁Pad	-9920
▁Sky	-9921
▁São	-9922
▁cha	-9923
▁cig	-9924
▁ell	-9925
▁fur	-9926
▁nep	-9927
▁nin	-9928
▁sup	-9929
▁unh	-9930
▁vel	-9931
▁vic	-9932
acles	-9933
ailed	-9934
ammad	-9935
ardon	-9936
ascar	-9937
ateur	-9938
erent	-9939
human	-9940
ierra	-9941
inder	-9942
level	-9943
lings	-9944
neath	-9945
osynt	-9946
pathy	-9947
▁1979	-9948
▁Aren	-9949
▁Beng	-9950
▁Comb	-9951
▁Cruz	-9952
▁Late	-9953
▁Lion	-9954
▁Salv	-9955
▁Ship	-9956
▁Tang	-9957
▁Thor	-9958
▁bron	-9959
▁coin	-9960
▁cute	-9961
▁fict	-9962
▁furn	-9963
▁porn	-9964
ennium	-9965
handed	-9966
imeter	-9967
iously	-9968
loaded	-9969
ogenic	-9970
wealth	-9971
weight	-9972
yright	-9973
▁1971,	-9974
▁1995.	-9975
▁2004.	-9976
▁Being	-9977
▁Brian	-9978
▁Catal	-9979
▁Chand	-9980
▁Creat	-9981
▁Crime	-9982
▁Davis	-9983
▁Eight	-9984
▁Final	-9985
▁Guate	-9986
▁Kings	-9987
▁Lower	-9988
▁Maxim	-9989
▁Metro	-9990
▁Point	-9991
▁Stark	-9992
▁Theod	-9993
▁Works	-9994
▁Years	-9995
▁alarm	-9996
▁alleg	-9997
▁demon	-9998
▁displ	-9999
▁grows	-10000
▁index	-10001
▁polar	-10002
▁ruins	-10003
▁stake	-10004
▁sweat	-10005
▁theat	-10006
▁tries	-10007
▁uncom	-10008
▁veter	-10009
igrated	-10010
inating	-10011
▁Athens	-10012
▁Either	-10013
▁Gentle	-10014
▁Guadal	-10015
▁Queens	-10016
▁Ronald	-10017
▁Things	-10018
▁Wilson	-10019
▁athlet	-10020
▁breast	-10021
▁crying	-10022
▁deputy	-10023
▁destro	-10024
▁eldest	-10025
▁filmed	-10026
▁lovely	-10027
▁portal	-10028
▁scales	-10029
▁shield	-10030
▁summon	-10031
▁twelve	-10032
▁voyage	-10033
▁writes	-10034
otherapy	-10035
speaking	-10036
▁Android	-10037
▁Belarus	-10038
▁Chelsea	-10039
▁Fernand	-10040
▁Houston	-10041
▁Morocco	-10042
▁Studies	-10043
▁Thought	-10044
▁briefly	-10045
▁ceremon	-10046
▁chapter	-10047
▁compens	-10048
▁demands	-10049
▁density	-10050
▁hitting	-10051
▁jealous	-10052
▁prepare	-10053
▁ranking	-10054
▁reverse	-10055
▁servant	-10056
▁subsidi	-10057
▁symbols	-10058
▁temples	-10059
▁undergo	-10060
criptions	-10061
imensions	-10062
unciation	-10063
▁Americas	-10064
▁Computer	-10065
▁Johannes	-10066
▁Orthodox	-10067
▁argument	-10068
▁calendar	-10069
▁churches	-10070
▁complain	-10071
▁concepts	-10072
▁coverage	-10073
▁covering	-10074
▁depicted	-10075
▁deployed	-10076
▁download	-10077
▁emotions	-10078
▁exciting	-10079
▁explicit	-10080
▁formally	-10081
▁fortress	-10082
▁meetings	-10083
▁sections	-10084
▁starring	-10085
▁swimming	-10086
▁treasure	-10087
▁upstairs	-10088
▁Executive	-10089
▁Manhattan	-10090
▁animation	-10091
▁attracted	-10092
▁awareness	-10093
▁electrons	-10094
▁initiated	-10095
▁ownership	-10096
▁perceived	-10097
▁platforms	-10098
▁screening	-10099
▁Bangladesh	-10100
▁Eventually	-10101
▁Industrial	-10102
▁afterwards	-10103
▁contribute	-10104
▁incredibly	-10105
▁innovation	-10106
▁medication	-10107
▁punishment	-10108
▁resolution	-10109
▁volunteers	-10110
▁Furthermore	-10111
▁communicate	-10112
▁descendants	-10113
▁implemented	-10114
▁specialized	-10115
▁Independence	-10116
▁announcement	-10117
▁establishing	-10118
▁evolutionary	-10119
▁manufacturer	-10120
▁simultaneously	-10121
34	-10122
BM	-10123
DR	-10124
hm	-10125
wi	-10126
▁É	-10127
2),	-10128
20.	-10129
3),	-10130
dam	-10131
don	-10132
iao	-10133
iaz	-10134
iov	-10135
kok	-10136
lay	-10137
oen	-10138
opl	-10139
uku	-10140
▁41	-10141
▁47	-10142
▁55	-10143
▁56	-10144
▁IT	-10145
▁PR	-10146
▁SP	-10147
▁Ve	-10148
▁zo	-10149
aris	-10150
aska	-10151
aved	-10152
gain	-10153
ishi	-10154
orph	-10155
quis	-10156
rugu	-10157
sole	-10158
thag	-10159
▁14.	-10160
▁Abu	-10161
▁Ask	-10162
▁Ath	-10163
▁Bow	-10164
▁Dae	-10165
▁Dol	-10166
▁Eld	-10167
▁Fun	-10168
▁Moh	-10169
▁Moz	-10170
▁Pra	-10171
▁Wik	-10172
▁Yug	-10173
▁asc	-10174
▁bug	-10175
▁gor	-10176
ansas	-10177
ashes	-10178
loved	-10179
offic	-10180
owski	-10181
ppers	-10182
ruits	-10183
sized	-10184
▁1900	-10185
▁1941	-10186
▁1955	-10187
▁1975	-10188
▁1984	-10189
▁Andy	-10190
▁Area	-10191
▁Bart	-10192
▁Base	-10193
▁Cand	-10194
▁Cart	-10195
▁Dean	-10196
▁Farm	-10197
▁Hart	-10198
▁Kill	-10199
▁Lang	-10200
▁Laos	-10201
▁Meth	-10202
▁Minh	-10203
▁Mold	-10204
▁Need	-10205
▁Plus	-10206
▁Sang	-10207
▁Shut	-10208
▁Walt	-10209
▁Writ	-10210
▁accl	-10211
▁atom	-10212
▁aunt	-10213
▁butt	-10214
▁disg	-10215
▁mask	-10216
▁mile	-10217
▁owns	-10218
▁poem	-10219
▁pupp	-10220
▁puzz	-10221
▁sank	-10222
▁soap	-10223
▁tast	-10224
▁trap	-10225
▁wise	-10226
50,000	-10227
French	-10228
ateful	-10229
cribed	-10230
estyle	-10231
ington	-10232
iology	-10233
leased	-10234
making	-10235
reated	-10236
teenth	-10237
uction	-10238
usalem	-10239
▁1990,	-10240
▁1999,	-10241
▁5,000	-10242
▁Armed	-10243
▁Madag	-10244
▁Magaz	-10245
▁Might	-10246
▁Nepal	-10247
▁Norwe	-10248
▁Penns	-10249
▁Plate	-10250
▁Robin	-10251
▁Titan	-10252
▁Tommy	-10253
▁Trust	-10254
▁Urugu	-10255
▁Video	-10256
▁Wayne	-10257
▁bombs	-10258
▁crops	-10259
▁drunk	-10260
▁dwarf	-10261
▁fewer	-10262
▁firms	-10263
▁forth	-10264
▁hoped	-10265
▁hurry	-10266
▁opens	-10267
▁param	-10268
▁regul	-10269
▁safer	-10270
▁shelf	-10271
▁shots	-10272
▁wrest	-10273
Chinese	-10274
Russian	-10275
achelor	-10276
connect	-10277
illance	-10278
itivity	-10279
▁50,000	-10280
▁Author	-10281
▁Excuse	-10282
▁Really	-10283
▁Series	-10284
▁breaks	-10285
▁clever	-10286
▁deeper	-10287
▁denied	-10288
▁differ	-10289
▁extend	-10290
▁funded	-10291
▁fusion	-10292
▁handed	-10293
▁insect	-10294
▁invite	-10295
▁mutual	-10296
▁nephew	-10297
▁orange	-10298
▁rebels	-10299
▁rising	-10300
▁scream	-10301
▁shapes	-10302
▁Islamic	-10303
▁Raymond	-10304
▁Russell	-10305
▁Species	-10306
▁Tuesday	-10307
▁acquire	-10308
▁awesome	-10309
▁beloved	-10310
▁chronic	-10311
▁default	-10312
▁dischar	-10313
▁extinct	-10314
▁garbage	-10315
▁grounds	-10316
▁holiday	-10317
▁mineral	-10318
▁moments	-10319
▁parking	-10320
▁peoples	-10321
▁profile	-10322
▁pursuit	-10323
▁ranging	-10324
▁touched	-10325
▁tourism	-10326
▁Cultural	-10327
▁Illinois	-10328
▁Napoleon	-10329
▁Regiment	-10330
▁Santiago	-10331
▁certific	-10332
▁civilian	-10333
▁consumed	-10334
▁estimate	-10335
▁observer	-10336
▁operates	-10337
▁opinions	-10338
▁preserve	-10339
▁prospect	-10340
▁psychiat	-10341
▁spectrum	-10342
▁synchron	-10343
▁treating	-10344
▁ultimate	-10345
▁underway	-10346
ologically	-10347
▁Jerusalem	-10348
▁Represent	-10349
▁behaviour	-10350
▁collapsed	-10351
▁consumers	-10352
▁creatures	-10353
▁designers	-10354
▁discussed	-10355
▁elevation	-10356
▁encourage	-10357
▁estimates	-10358
▁extension	-10359
▁historian	-10360
▁impressed	-10361
▁intensity	-10362
▁ministers	-10363
▁permitted	-10364
▁premiered	-10365
▁producers	-10366
▁qualities	-10367
▁referring	-10368
▁releasing	-10369
▁remainder	-10370
▁spreading	-10371
▁submitted	-10372
▁synthesis	-10373
▁Madagascar	-10374
▁accounting	-10375
▁conclusion	-10376
▁confidence	-10377
▁corruption	-10378
▁dimensions	-10379
▁discipline	-10380
▁entreprene	-10381
▁extinction	-10382
▁provincial	-10383
▁publishing	-10384
▁reportedly	-10385
▁situations	-10386
▁consequence	-10387
▁disappeared	-10388
▁documentary	-10389
▁inspiration	-10390
▁maintenance	-10391
▁predecessor	-10392
▁reconstruct	-10393
▁intellectual	-10394
▁jurisdiction	-10395
▁Championships	-10396
▁consideration	-10397
▁traditionally	-10398
▁implementation	-10399
▁internationally	-10400
El	-10401
FS	-10402
LS	-10403
OC	-10404
bf	-10405
mo	-10406
-15	-10407
8).	-10408
All	-10409
III	-10410
aba	-10411
aux	-10412
eff	-10413
enz	-10414
gly	-10415
imo	-10416
inn	-10417
jah	-10418
opp	-10419
pur	-10420
rus	-10421
uum	-10422
var	-10423
wig	-10424
▁1:	-10425
▁46	-10426
▁Ki	-10427
▁Kl	-10428
▁Ny	-10429
▁Vi	-10430
▁rh	-10431
...?	-10432
abwe	-10433
adic	-10434
amen	-10435
arma	-10436
bast	-10437
brew	-10438
brid	-10439
elle	-10440
elsh	-10441
enda	-10442
ethe	-10443
foot	-10444
girl	-10445
lemy	-10446
oker	-10447
quit	-10448
rand	-10449
uary	-10450
ults	-10451
vate	-10452
yler	-10453
zhou	-10454
▁(0.	-10455
▁12.	-10456
▁15.	-10457
▁Aer	-10458
▁Alt	-10459
▁Ark	-10460
▁Cob	-10461
▁Ele	-10462
▁Fac	-10463
▁Jay	-10464
▁Lag	-10465
▁Leo	-10466
▁Lut	-10467
▁Lyn	-10468
▁Mov	-10469
▁Neb	-10470
▁Pto	-10471
▁Yam	-10472
▁bid	-10473
▁dar	-10474
▁dub	-10475
▁sib	-10476
▁wis	-10477
agers	-10478
atics	-10479
atoes	-10480
berry	-10481
child	-10482
eland	-10483
ifies	-10484
imony	-10485
isers	-10486
keley	-10487
metry	-10488
quest	-10489
ranch	-10490
third	-10491
world	-10492
▁1961	-10493
▁1974	-10494
▁Bush	-10495
▁Code	-10496
▁Food	-10497
▁Gang	-10498
▁Gram	-10499
▁ISBN	-10500
▁Ohio	-10501
▁Self	-10502
▁Sony	-10503
▁Virt	-10504
▁Xbox	-10505
▁Zimb	-10506
▁buff	-10507
▁cats	-10508
▁cort	-10509
▁dual	-10510
▁grid	-10511
▁guid	-10512
▁inev	-10513
▁lapt	-10514
▁mild	-10515
▁plug	-10516
▁pole	-10517
▁prey	-10518
▁quot	-10519
▁raid	-10520
▁stub	-10521
▁subt	-10522
▁sunk	-10523
▁ties	-10524
▁vamp	-10525
▁wand	-10526
▁ward	-10527
German	-10528
Polish	-10529
itated	-10530
mathbf	-10531
ndered	-10532
strong	-10533
▁1,500	-10534
▁1991.	-10535
▁Blood	-10536
▁Bring	-10537
▁Crown	-10538
▁Dance	-10539
▁Delta	-10540
▁Filip	-10541
▁Gener	-10542
▁Liter	-10543
▁Luxem	-10544
▁Medal	-10545
▁Motor	-10546
▁Nokia	-10547
▁Opera	-10548
▁Siles	-10549
▁Sweet	-10550
▁Turns	-10551
▁Yemen	-10552
▁angel	-10553
▁arist	-10554
▁blank	-10555
▁bless	-10556
▁buddy	-10557
▁cable	-10558
▁cited	-10559
▁drain	-10560
▁enlar	-10561
▁farms	-10562
▁fears	-10563
▁femin	-10564
▁flour	-10565
▁fluid	-10566
▁fraud	-10567
▁invis	-10568
▁legit	-10569
▁lover	-10570
▁mines	-10571
▁moist	-10572
▁morph	-10573
▁ports	-10574
▁pride	-10575
▁rhyth	-10576
▁unpre	-10577
chestra	-10578
faction	-10579
natural	-10580
rection	-10581
▁Batman	-10582
▁Contin	-10583
▁Darwin	-10584
▁Heaven	-10585
▁Hebrew	-10586
▁Knight	-10587
▁Kosmos	-10588
▁Kraków	-10589
▁Miller	-10590
▁Monday	-10591
▁Morgan	-10592
▁Planet	-10593
▁bomber	-10594
▁button	-10595
▁decomp	-10596
▁enzyme	-10597
▁facial	-10598
▁flavor	-10599
▁hunger	-10600
▁judges	-10601
▁lonely	-10602
▁loving	-10603
▁metaph	-10604
▁methyl	-10605
▁phrase	-10606
▁revers	-10607
▁sacred	-10608
▁sooner	-10609
▁strain	-10610
▁stream	-10611
▁tennis	-10612
▁trains	-10613
▁tribut	-10614
▁warned	-10615
district	-10616
ordinate	-10617
ribution	-10618
▁Control	-10619
▁Indians	-10620
▁Natural	-10621
▁Product	-10622
▁Romania	-10623
▁Solomon	-10624
▁Soviets	-10625
▁Stephen	-10626
▁Village	-10627
▁alright	-10628
▁bombing	-10629
▁chamber	-10630
▁cleared	-10631
▁cluster	-10632
▁creates	-10633
▁cutting	-10634
▁defence	-10635
▁donated	-10636
▁endemic	-10637
▁fingers	-10638
▁footage	-10639
▁goodbye	-10640
▁heavier	-10641
▁ignored	-10642
▁impacts	-10643
▁inherit	-10644
▁legally	-10645
▁mixture	-10646
▁mystery	-10647
▁painful	-10648
▁pleased	-10649
▁pointed	-10650
▁pushing	-10651
▁pyramid	-10652
▁rebuilt	-10653
▁shipped	-10654
▁signals	-10655
▁stating	-10656
▁travels	-10657
▁uranium	-10658
▁viruses	-10659
▁volcano	-10660
aceutical	-10661
▁Building	-10662
▁Electron	-10663
▁Margaret	-10664
▁Yugoslav	-10665
▁Zimbabwe	-10666
▁advances	-10667
▁answered	-10668
▁composer	-10669
▁concrete	-10670
▁darkness	-10671
▁decrease	-10672
▁horrible	-10673
▁informed	-10674
▁instinct	-10675
▁overwhel	-10676
▁peaceful	-10677
▁publicly	-10678
▁resigned	-10679
▁sacrific	-10680
▁sciences	-10681
▁upgraded	-10682
ographical	-10683
▁Political	-10684
▁artillery	-10685
▁breakfast	-10686
▁campaigns	-10687
▁carefully	-10688
▁civilians	-10689
▁competing	-10690
▁disorders	-10691
▁displayed	-10692
▁equations	-10693
▁fictional	-10694
▁intercept	-10695
▁invention	-10696
▁preferred	-10697
▁promoting	-10698
▁qualified	-10699
▁strongest	-10700
▁temporary	-10701
▁virtually	-10702
▁attractive	-10703
▁developers	-10704
▁functional	-10705
▁immigrants	-10706
▁mathematic	-10707
▁subspecies	-10708
▁underneath	-10709
▁PlayStation	-10710
▁technically	-10711
▁unconscious	-10712
▁Additionally	-10713
▁Christianity	-10714
▁Commonwealth	-10715
▁demonstrated	-10716
▁difficulties	-10717
▁participants	-10718
▁pronunciation	-10719
▁revolutionary	-10720
▁constitutional	-10721
";	-10722
.”	-10723
3%	-10724
9%	-10725
EG	-10726
Go	-10727
My	-10728
OW	-10729
ST	-10730
gi	-10731
ls	-10732
▁€	-10733
-18	-10734
.).	-10735
But	-10736
Yes	-10737
anh	-10738
asp	-10739
lly	-10740
log	-10741
nik	-10742
oka	-10743
oki	-10744
oko	-10745
ppe	-10746
rez	-10747
sun	-10748
usa	-10749
uto	-10750
ymn	-10751
ńsk	-10752
▁52	-10753
▁57	-10754
▁72	-10755
▁AM	-10756
▁Aw	-10757
▁HE	-10758
▁Ig	-10759
▁WH	-10760
▁eh	-10761
▁ho	-10762
▁ju	-10763
asha	-10764
asks	-10765
eman	-10766
iami	-10767
icia	-10768
icus	-10769
ilet	-10770
illo	-10771
ints	-10772
ixon	-10773
ogan	-10774
ouri	-10775
pled	-10776
prus	-10777
rama	-10778
role	-10779
uber	-10780
uble	-10781
▁(1,	-10782
▁(15	-10783
▁(17	-10784
▁1.5	-10785
▁11.	-10786
▁Ald	-10787
▁Amy	-10788
▁Aud	-10789
▁Bag	-10790
▁Cab	-10791
▁Cir	-10792
▁Esc	-10793
▁Hug	-10794
▁Lud	-10795
▁Opp	-10796
▁Pas	-10797
▁Pon	-10798
▁Rap	-10799
▁Sor	-10800
▁Tro	-10801
▁Wed	-10802
▁Yan	-10803
▁bay	-10804
▁hex	-10805
▁jet	-10806
▁les	-10807
▁pup	-10808
▁raw	-10809
▁tap	-10810
▁tie	-10811
▁vig	-10812
alion	-10813
ambia	-10814
ancou	-10815
arest	-10816
cover	-10817
eroid	-10818
guard	-10819
inton	-10820
iture	-10821
ocity	-10822
orean	-10823
ovich	-10824
phoon	-10825
unate	-10826
usive	-10827
utors	-10828
▁1939	-10829
▁1943	-10830
▁1952	-10831
▁Andr	-10832
▁Batt	-10833
▁Corn	-10834
▁Garc	-10835
▁Gate	-10836
▁Josh	-10837
▁Rica	-10838
▁Sara	-10839
▁Shah	-10840
▁Ward	-10841
▁anch	-10842
▁bang	-10843
▁bars	-10844
▁crap	-10845
▁fasc	-10846
▁gran	-10847
▁navy	-10848
▁obst	-10849
▁ours	-10850
▁rush	-10851
▁seas	-10852
▁sink	-10853
▁warn	-10854
▁wolf	-10855
August	-10856
forced	-10857
icated	-10858
igible	-10859
orious	-10860
rising	-10861
ustion	-10862
verted	-10863
▁1990.	-10864
▁1993.	-10865
▁1995,	-10866
▁Boliv	-10867
▁Cuban	-10868
▁Hindu	-10869
▁Larry	-10870
▁Libya	-10871
▁Miami	-10872
▁Minor	-10873
▁Model	-10874
▁Qatar	-10875
▁Storm	-10876
▁Tibet	-10877
▁Uzbek	-10878
▁boxes	-10879
▁chips	-10880
▁dated	-10881
▁error	-10882
▁fract	-10883
▁harsh	-10884
▁manip	-10885
▁marks	-10886
▁pneum	-10887
▁strip	-10888
▁tenth	-10889
▁trace	-10890
▁tract	-10891
General	-10892
Spanish	-10893
prising	-10894
writing	-10895
▁30,000	-10896
▁Arctic	-10897
▁Avenue	-10898
▁Fourth	-10899
▁Graham	-10900
▁Hunter	-10901
▁Munich	-10902
▁Tennes	-10903
▁Vancou	-10904
▁Warner	-10905
▁Wonder	-10906
▁casino	-10907
▁condem	-10908
▁courts	-10909
▁eighth	-10910
▁eleven	-10911
▁junior	-10912
▁muscle	-10913
▁peaked	-10914
▁plasma	-10915
▁portra	-10916
▁pounds	-10917
▁refere	-10918
▁refuse	-10919
▁respir	-10920
▁stroke	-10921
▁tempor	-10922
▁transf	-10923
▁wisdom	-10924
▁worlds	-10925
▁Article	-10926
▁Defence	-10927
▁Environ	-10928
▁Jessica	-10929
▁Marines	-10930
▁Matthew	-10931
▁Members	-10932
▁Prussia	-10933
▁Senator	-10934
▁Shortly	-10935
▁Stanley	-10936
▁bearing	-10937
▁browser	-10938
▁carries	-10939
▁centers	-10940
▁consent	-10941
▁console	-10942
▁cruiser	-10943
▁delayed	-10944
▁enzymes	-10945
▁goddess	-10946
▁heating	-10947
▁mounted	-10948
▁neurons	-10949
▁ongoing	-10950
▁powered	-10951
▁reforms	-10952
▁resolve	-10953
▁scholar	-10954
▁secured	-10955
▁shorter	-10956
▁terrain	-10957
▁transit	-10958
▁unclear	-10959
▁venture	-10960
▁wanting	-10961
▁warrior	-10962
▁Muhammad	-10963
▁Tanzania	-10964
▁altitude	-10965
▁bankrupt	-10966
▁bleeding	-10967
▁declined	-10968
▁guidance	-10969
▁judgment	-10970
▁musician	-10971
▁offshore	-10972
▁rainfall	-10973
▁reserves	-10974
▁restored	-10975
▁smallest	-10976
▁sometime	-10977
▁stealing	-10978
▁surfaces	-10979
▁visiting	-10980
▁wherever	-10981
▁Agreement	-10982
▁Colombian	-10983
▁Currently	-10984
▁Gentlemen	-10985
▁Louisiana	-10986
▁Palestine	-10987
▁Tennessee	-10988
▁Vancouver	-10989
▁arguments	-10990
▁chemicals	-10991
▁conflicts	-10992
▁desperate	-10993
▁improving	-10994
▁inhabited	-10995
▁magazines	-10996
▁monastery	-10997
▁predicted	-10998
▁pregnancy	-10999
▁reinforce	-11000
▁superhero	-11001
▁underwent	-11002
▁unsuccess	-11003
▁Production	-11004
▁approached	-11005
▁consistent	-11006
▁conversion	-11007
▁deployment	-11008
▁directions	-11009
▁homosexual	-11010
▁mainstream	-11011
▁psychology	-11012
▁quantities	-11013
▁rainforest	-11014
▁variations	-11015
▁Constantine	-11016
▁approaching	-11017
▁immigration	-11018
▁intelligent	-11019
▁politically	-11020
▁probability	-11021
▁Nevertheless	-11022
▁Pennsylvania	-11023
▁availability	-11024
▁championship	-11025
▁universities	-11026
▁characterized	-11027
▁controversial	-11028
▁corresponding	-11029
▁technological	-11030
,'	-11031
31	-11032
Am	-11033
An	-11034
EF	-11035
IL	-11036
UN	-11037
di	-11038
sl	-11039
ti	-11040
▁}	-11041
-17	-11042
2).	-11043
Can	-11044
One	-11045
agi	-11046
ati	-11047
bro	-11048
ikh	-11049
lem	-11050
new	-11051
obi	-11052
obs	-11053
oca	-11054
ods	-11055
pin	-11056
she	-11057
tin	-11058
won	-11059
▁(8	-11060
▁51	-11061
▁Ax	-11062
▁CN	-11063
▁Cu	-11064
▁Om	-11065
▁SM	-11066
▁Wr	-11067
▁mg	-11068
acts	-11069
agne	-11070
alia	-11071
amma	-11072
anni	-11073
avan	-11074
bury	-11075
engu	-11076
grim	-11077
onto	-11078
oute	-11079
rium	-11080
scar	-11081
urse	-11082
▁10.	-11083
▁140	-11084
▁18.	-11085
▁CEO	-11086
▁Cro	-11087
▁Dur	-11088
▁Fem	-11089
▁Hmm	-11090
▁Hum	-11091
▁Kab	-11092
▁Mol	-11093
▁Nev	-11094
▁RNA	-11095
▁Rat	-11096
▁Vel	-11097
▁Wes	-11098
▁bio	-11099
▁nic	-11100
▁vib	-11101
▁vom	-11102
amoto	-11103
amous	-11104
annah	-11105
apped	-11106
arter	-11107
bably	-11108
burgh	-11109
canic	-11110
ected	-11111
elson	-11112
esign	-11113
grand	-11114
group	-11115
idges	-11116
ounce	-11117
oxide	-11118
piece	-11119
plane	-11120
regon	-11121
▁(195	-11122
▁1976	-11123
▁Anti	-11124
▁Bhut	-11125
▁Cook	-11126
▁Cris	-11127
▁Crus	-11128
▁Dead	-11129
▁Diam	-11130
▁Fitz	-11131
▁Guys	-11132
▁Habs	-11133
▁Hait	-11134
▁Hein	-11135
▁Hend	-11136
▁Iber	-11137
▁Inte	-11138
▁Jenn	-11139
▁Joon	-11140
▁Magn	-11141
▁Marc	-11142
▁Rest	-11143
▁Said	-11144
▁Spir	-11145
▁USSR	-11146
▁Wing	-11147
▁amph	-11148
▁anat	-11149
▁cosm	-11150
▁desp	-11151
▁gear	-11152
▁glob	-11153
▁item	-11154
▁keys	-11155
▁lean	-11156
▁mane	-11157
▁mast	-11158
▁obsc	-11159
▁pipe	-11160
▁sits	-11161
▁soup	-11162
League	-11163
alysis	-11164
ieties	-11165
keeper	-11166
ocrats	-11167
▁1942.	-11168
▁1956,	-11169
▁1991,	-11170
▁1993,	-11171
▁2000.	-11172
▁2003.	-11173
▁Album	-11174
▁Anglo	-11175
▁Apoll	-11176
▁Buddh	-11177
▁Burma	-11178
▁Claud	-11179
▁Daddy	-11180
▁Kevin	-11181
▁Mayor	-11182
▁Namib	-11183
▁Roger	-11184
▁Turks	-11185
▁Upper	-11186
▁Welsh	-11187
▁amino	-11188
▁bands	-11189
▁comic	-11190
▁excav	-11191
▁facil	-11192
▁gases	-11193
▁genre	-11194
▁hills	-11195
▁inaug	-11196
▁mercy	-11197
▁noble	-11198
▁pairs	-11199
▁prest	-11200
▁reloc	-11201
▁ridic	-11202
▁roots	-11203
▁sizes	-11204
▁stays	-11205
▁tears	-11206
▁thumb	-11207
▁whore	-11208
▁zones	-11209
casting	-11210
olished	-11211
section	-11212
selling	-11213
▁Comple	-11214
▁Cyprus	-11215
▁Howard	-11216
▁Kazakh	-11217
▁Kuwait	-11218
▁Labour	-11219
▁Martha	-11220
▁Parker	-11221
▁Saturn	-11222
▁Sevent	-11223
▁Sierra	-11224
▁Valent	-11225
▁boring	-11226
▁campus	-11227
▁colony	-11228
▁colors	-11229
▁copper	-11230
▁divers	-11231
▁embark	-11232
▁genome	-11233
▁ignore	-11234
▁kidney	-11235
▁lately	-11236
▁legacy	-11237
▁merger	-11238
▁metals	-11239
▁monkey	-11240
▁proven	-11241
▁racing	-11242
▁ruined	-11243
▁slaves	-11244
▁string	-11245
▁swords	-11246
▁thrown	-11247
▁undert	-11248
▁united	-11249
▁varies	-11250
▁weaken	-11251
▁worthy	-11252
building	-11253
esthetic	-11254
▁100,000	-11255
▁Empress	-11256
▁Iranian	-11257
▁Madonna	-11258
▁Majesty	-11259
▁Mississ	-11260
▁Okinawa	-11261
▁affects	-11262
▁authors	-11263
▁banking	-11264
▁confess	-11265
▁contrad	-11266
▁divorce	-11267
▁essence	-11268
▁forcing	-11269
▁handful	-11270
▁lawyers	-11271
▁mankind	-11272
▁organiz	-11273
▁painter	-11274
▁prosper	-11275
▁spelled	-11276
▁synthes	-11277
▁varying	-11278
▁warfare	-11279
▁warming	-11280
▁Augustus	-11281
▁Berkeley	-11282
▁Brothers	-11283
▁Cameroon	-11284
▁Electric	-11285
▁Habsburg	-11286
▁Infantry	-11287
▁Magazine	-11288
▁Medicine	-11289
▁Scottish	-11290
▁Trinidad	-11291
▁absorbed	-11292
▁abundant	-11293
▁activist	-11294
▁annually	-11295
▁attitude	-11296
▁baseball	-11297
▁decisive	-11298
▁divorced	-11299
▁dropping	-11300
▁entrance	-11301
▁ministry	-11302
▁mistakes	-11303
▁settlers	-11304
▁stubborn	-11305
▁uprising	-11306
▁whenever	-11307
employment	-11308
ifications	-11309
osynthesis	-11310
unications	-11311
▁Cambridge	-11312
▁Catherine	-11313
▁Initially	-11314
▁affection	-11315
▁coalition	-11316
▁decreased	-11317
▁defensive	-11318
▁exclusive	-11319
▁invisible	-11320
▁occurring	-11321
▁philosoph	-11322
▁photograp	-11323
▁programme	-11324
▁provision	-11325
▁sequences	-11326
▁synthetic	-11327
▁Indonesian	-11328
▁Liberation	-11329
▁commitment	-11330
▁completing	-11331
▁continuous	-11332
▁elementary	-11333
▁evaluation	-11334
▁exhibition	-11335
▁impressive	-11336
▁spacecraft	-11337
▁strategies	-11338
▁subsidiary	-11339
▁Information	-11340
▁Observatory	-11341
▁arrangement	-11342
▁atmospheric	-11343
▁circulation	-11344
▁collections	-11345
▁consecutive	-11346
▁illustrated	-11347
▁instruction	-11348
▁neighboring	-11349
▁settlements	-11350
▁administered	-11351
▁commissioned	-11352
▁northwestern	-11353
▁collaboration	-11354
▁gravitational	-11355
▁interpretation	-11356
▁representatives	-11357
05	-11358
28	-11359
67	-11360
95	-11361
;/	-11362
CD	-11363
CN	-11364
Co	-11365
EP	-11366
GA	-11367
ML	-11368
uf	-11369
ERE	-11370
Hey	-11371
abi	-11372
aco	-11373
alo	-11374
asm	-11375
bec	-11376
hor	-11377
iem	-11378
iks	-11379
inh	-11380
iop	-11381
oké	-11382
orp	-11383
rip	-11384
tim	-11385
two	-11386
uno	-11387
via	-11388
yte	-11389
▁3:	-11390
▁61	-11391
▁Ec	-11392
▁Mm	-11393
▁pm	-11394
▁ya	-11395
ablo	-11396
achi	-11397
acon	-11398
arag	-11399
door	-11400
five	-11401
ingo	-11402
odon	-11403
orer	-11404
oric	-11405
orms	-11406
pres	-11407
rans	-11408
resa	-11409
ripp	-11410
uine	-11411
umen	-11412
urai	-11413
wind	-11414
ylan	-11415
▁(10	-11416
▁110	-11417
▁135	-11418
▁Dak	-11419
▁Jup	-11420
▁Kob	-11421
▁Laz	-11422
▁Lig	-11423
▁Liu	-11424
▁Low	-11425
▁Mis	-11426
▁Pin	-11427
▁Pit	-11428
▁Ple	-11429
▁Pub	-11430
▁Rah	-11431
▁Rub	-11432
▁Sax	-11433
▁Slo	-11434
▁Taj	-11435
▁Wol	-11436
▁ecl	-11437
▁hub	-11438
▁mum	-11439
▁tab	-11440
▁uns	-11441
acent	-11442
archy	-11443
gebra	-11444
ingly	-11445
izard	-11446
leans	-11447
oding	-11448
opath	-11449
party	-11450
rague	-11451
rooms	-11452
trans	-11453
▁1800	-11454
▁1966	-11455
▁1967	-11456
▁1973	-11457
▁1978	-11458
▁Airl	-11459
▁Bird	-11460
▁Clar	-11461
▁Clay	-11462
▁Gust	-11463
▁Hond	-11464
▁Jake	-11465
▁Kang	-11466
▁Kate	-11467
▁Left	-11468
▁Less	-11469
▁Nort	-11470
▁Pret	-11471
▁Prop	-11472
▁Siam	-11473
▁Sino	-11474
▁Sung	-11475
▁Trip	-11476
▁apps	-11477
▁bike	-11478
▁corp	-11479
▁dirt	-11480
▁fame	-11481
▁fart	-11482
▁guer	-11483
▁hire	-11484
▁hood	-11485
▁ions	-11486
▁mars	-11487
▁rect	-11488
▁sout	-11489
▁tent	-11490
▁toll	-11491
▁tube	-11492
arched	-11493
olving	-11494
prints	-11495
rapped	-11496
spring	-11497
▁1983,	-11498
▁1988,	-11499
▁1996,	-11500
▁Angel	-11501
▁Based	-11502
▁Brand	-11503
▁Delhi	-11504
▁Fried	-11505
▁Guang	-11506
▁Guess	-11507
▁Hanoi	-11508
▁Jason	-11509
▁Lucas	-11510
▁Mario	-11511
▁María	-11512
▁Nikol	-11513
▁Songs	-11514
▁acids	-11515
▁affil	-11516
▁alter	-11517
▁armor	-11518
▁aside	-11519
▁badly	-11520
▁bears	-11521
▁cease	-11522
▁congr	-11523
▁cubic	-11524
▁decay	-11525
▁flies	-11526
▁freak	-11527
▁galax	-11528
▁genet	-11529
▁monks	-11530
▁parad	-11531
▁paras	-11532
▁realm	-11533
▁renew	-11534
▁renov	-11535
▁scare	-11536
▁slide	-11537
▁tasks	-11538
▁tends	-11539
▁Allies	-11540
▁Danish	-11541
▁Desert	-11542
▁Gregor	-11543
▁Oregon	-11544
▁Singto	-11545
▁Taipei	-11546
▁Walker	-11547
▁autumn	-11548
▁basket	-11549
▁behave	-11550
▁define	-11551
▁fitted	-11552
▁hearts	-11553
▁infant	-11554
▁insist	-11555
▁mining	-11556
▁orbits	-11557
▁organs	-11558
▁partly	-11559
▁propag	-11560
▁pushed	-11561
▁reluct	-11562
▁rubber	-11563
▁seized	-11564
▁shower	-11565
▁sphere	-11566
▁statue	-11567
▁sulfur	-11568
▁topics	-11569
▁traits	-11570
▁vacuum	-11571
ountered	-11572
▁Anthony	-11573
▁Arabian	-11574
▁Bangkok	-11575
▁Element	-11576
▁Kennedy	-11577
▁Ptolemy	-11578
▁Systems	-11579
▁Theater	-11580
▁anxiety	-11581
▁barrels	-11582
▁bedroom	-11583
▁circles	-11584
▁circuit	-11585
▁desired	-11586
▁faction	-11587
▁graphic	-11588
▁handled	-11589
▁mothers	-11590
▁penalty	-11591
▁restore	-11592
▁retreat	-11593
▁reveals	-11594
▁spotted	-11595
▁starred	-11596
▁swallow	-11597
▁tactics	-11598
▁torture	-11599
▁transpl	-11600
▁viewers	-11601
▁windows	-11602
▁Florence	-11603
▁Mongolia	-11604
▁Official	-11605
▁Starting	-11606
▁Williams	-11607
▁cleaning	-11608
▁colonies	-11609
▁congress	-11610
▁connects	-11611
▁counting	-11612
▁detailed	-11613
▁dialects	-11614
▁elevated	-11615
▁emerging	-11616
▁flagship	-11617
▁guerrill	-11618
▁heritage	-11619
▁managing	-11620
▁monarchy	-11621
▁predomin	-11622
▁priority	-11623
▁stopping	-11624
▁tourists	-11625
▁Norwegian	-11626
▁Otherwise	-11627
▁Socialist	-11628
▁colleague	-11629
▁conquered	-11630
▁copyright	-11631
▁departure	-11632
▁diagnosed	-11633
▁discrimin	-11634
▁evacuated	-11635
▁factories	-11636
▁guarantee	-11637
▁proceeded	-11638
▁rebellion	-11639
▁relegated	-11640
▁requested	-11641
▁varieties	-11642
▁victories	-11643
▁Management	-11644
▁Philippine	-11645
▁attempting	-11646
▁endangered	-11647
▁initiative	-11648
▁invitation	-11649
▁localities	-11650
▁monitoring	-11651
▁reasonable	-11652
▁restricted	-11653
▁substances	-11654
▁surprising	-11655
▁underlying	-11656
▁withdrawal	-11657
▁businessman	-11658
▁distinction	-11659
▁distinguish	-11660
▁encountered	-11661
▁exploration	-11662
▁legislation	-11663
▁mountainous	-11664
▁philosopher	-11665
▁sustainable	-11666
▁territorial	-11667
▁Metropolitan	-11668
▁achievements	-11669
▁instructions	-11670
▁organisation	-11671
▁southwestern	-11672
▁surveillance	-11673
▁transmission	-11674
▁demonstration	-11675
36	-11676
At	-11677
De	-11678
Hz	-11679
IP	-11680
PR	-11681
Pe	-11682
Re	-11683
ić	-11684
rh	-11685
vi	-11686
zi	-11687
{\	-11688
–7	-11689
▁Ś	-11690
RNA	-11691
USE	-11692
aho	-11693
aru	-11694
cho	-11695
esc	-11696
hei	-11697
iba	-11698
ifa	-11699
inf	-11700
iph	-11701
iti	-11702
mid	-11703
nor	-11704
pos	-11705
sts	-11706
urf	-11707
uru	-11708
▁AL	-11709
▁DC	-11710
▁OF	-11711
Euro	-11712
agle	-11713
amas	-11714
anol	-11715
ansk	-11716
atis	-11717
aver	-11718
avia	-11719
dale	-11720
enza	-11721
haul	-11722
icon	-11723
iffs	-11724
ioch	-11725
ipel	-11726
itic	-11727
leys	-11728
made	-11729
mala	-11730
mons	-11731
neys	-11732
norm	-11733
phin	-11734
seud	-11735
unes	-11736
uros	-11737
▁10%	-11738
▁Arc	-11739
▁Bed	-11740
▁Box	-11741
▁Cau	-11742
▁Cut	-11743
▁Fur	-11744
▁Jam	-11745
▁Joy	-11746
▁Kag	-11747
▁Ker	-11748
▁Kos	-11749
▁Lic	-11750
▁Mau	-11751
▁Pil	-11752
▁RAF	-11753
▁Roc	-11754
▁Rot	-11755
▁Set	-11756
▁Tas	-11757
▁Tet	-11758
▁Wat	-11759
▁Wor	-11760
▁alk	-11761
▁ber	-11762
▁cad	-11763
▁ion	-11764
▁nun	-11765
▁oct	-11766
▁pit	-11767
▁por	-11768
▁rab	-11769
▁sla	-11770
▁sne	-11771
▁spr	-11772
▁sty	-11773
▁thy	-11774
▁unw	-11775
▁urg	-11776
▁vit	-11777
about	-11778
ammar	-11779
ammed	-11780
amped	-11781
anche	-11782
aurus	-11783
aware	-11784
borne	-11785
canal	-11786
cling	-11787
elled	-11788
gered	-11789
illes	-11790
inery	-11791
ipher	-11792
ommod	-11793
onomy	-11794
peare	-11795
pense	-11796
works	-11797
▁$100	-11798
▁1937	-11799
▁1953	-11800
▁1959	-11801
▁Abra	-11802
▁Alab	-11803
▁Amen	-11804
▁Balk	-11805
▁Barn	-11806
▁Boys	-11807
▁Cole	-11808
▁Cond	-11809
▁Himm	-11810
▁Leop	-11811
▁Nine	-11812
▁Page	-11813
▁Poké	-11814
▁Rena	-11815
▁True	-11816
▁argu	-11817
▁brut	-11818
▁cens	-11819
▁fest	-11820
▁fron	-11821
▁herd	-11822
▁inch	-11823
▁intr	-11824
▁maid	-11825
▁monk	-11826
▁noon	-11827
▁nuts	-11828
▁oral	-11829
▁outs	-11830
▁shed	-11831
▁span	-11832
▁sung	-11833
▁tale	-11834
▁tatt	-11835
▁terr	-11836
abella	-11837
arians	-11838
ateral	-11839
estion	-11840
headed	-11841
heimer	-11842
iosity	-11843
orient	-11844
ortion	-11845
oustic	-11846
shaped	-11847
▁1975,	-11848
▁1979,	-11849
▁Alpha	-11850
▁Arsen	-11851
▁Begin	-11852
▁Bobby	-11853
▁Chung	-11854
▁Daily	-11855
▁Danny	-11856
▁Doesn	-11857
▁Emily	-11858
▁Ghost	-11859
▁Iraqi	-11860
▁Kyoto	-11861
▁Nixon	-11862
▁Pedro	-11863
▁Riley	-11864
▁Round	-11865
▁Sarah	-11866
▁Scand	-11867
▁Story	-11868
▁Vatic	-11869
▁alpha	-11870
▁ammon	-11871
▁ellip	-11872
▁fever	-11873
▁glaci	-11874
▁guilt	-11875
▁hence	-11876
▁holes	-11877
▁maneu	-11878
▁minim	-11879
▁nurse	-11880
▁panel	-11881
▁poems	-11882
▁races	-11883
▁recur	-11884
▁scrap	-11885
▁stead	-11886
▁topic	-11887
▁wavel	-11888
aration	-11889
imental	-11890
parents	-11891
usually	-11892
▁Caesar	-11893
▁Commer	-11894
▁Cooper	-11895
▁Danube	-11896
▁Harold	-11897
▁Jersey	-11898
▁Justin	-11899
▁Mathem	-11900
▁Norman	-11901
▁Person	-11902
▁Peters	-11903
▁Record	-11904
▁Sebast	-11905
▁Shakes	-11906
▁Sicily	-11907
▁Slavic	-11908
▁Visual	-11909
▁Yellow	-11910
▁allied	-11911
▁analog	-11912
▁asleep	-11913
▁beaten	-11914
▁betray	-11915
▁burden	-11916
▁burial	-11917
▁compat	-11918
▁corrid	-11919
▁deemed	-11920
▁feared	-11921
▁gaming	-11922
▁incent	-11923
▁luxury	-11924
▁orphan	-11925
▁poorly	-11926
▁rating	-11927
▁rulers	-11928
▁spokes	-11929
▁suited	-11930
▁tables	-11931
▁thirty	-11932
▁toilet	-11933
▁traged	-11934
▁voting	-11935
▁Account	-11936
▁Antonio	-11937
▁Believe	-11938
▁Chilean	-11939
▁Friends	-11940
▁Iceland	-11941
▁Marshal	-11942
▁Orleans	-11943
▁Perform	-11944
▁Protest	-11945
▁Railway	-11946
▁Toronto	-11947
▁Various	-11948
▁advisor	-11949
▁amateur	-11950
▁athlete	-11951
▁authent	-11952
▁bridges	-11953
▁crucial	-11954
▁diagram	-11955
▁dispute	-11956
▁enabled	-11957
▁enhance	-11958
▁exhibit	-11959
▁faculty	-11960
▁focuses	-11961
▁fortune	-11962
▁gardens	-11963
▁genuine	-11964
▁helpful	-11965
▁hostile	-11966
▁minimal	-11967
▁outcome	-11968
▁readily	-11969
▁shifted	-11970
▁sixteen	-11971
▁slavery	-11972
▁traitor	-11973
▁Austrian	-11974
▁Cardinal	-11975
▁Caroline	-11976
▁Chandler	-11977
▁Probably	-11978
▁Russians	-11979
▁Sergeant	-11980
▁cellular	-11981
▁comments	-11982
▁concerts	-11983
▁contacts	-11984
▁criteria	-11985
▁demanded	-11986
▁emphasis	-11987
▁nitrogen	-11988
▁obsessed	-11989
▁regained	-11990
▁releases	-11991
▁reporter	-11992
▁scenario	-11993
▁stranger	-11994
▁throwing	-11995
▁triangle	-11996
▁weakness	-11997
▁Financial	-11998
▁Guatemala	-11999
▁Liverpool	-12000
▁cancelled	-12001
▁cognitive	-12002
▁confusion	-12003
▁defeating	-12004
▁detective	-12005
▁diagnosis	-12006
▁dimension	-12007
▁economies	-12008
▁evaluated	-12009
▁highlight	-12010
▁hopefully	-12011
▁investors	-12012
▁oxidation	-12013
▁portrayed	-12014
▁stability	-12015
onnaissance	-12016
▁Mississipp	-12017
▁Prefecture	-12018
▁algorithms	-12019
▁autonomous	-12020
▁complexity	-12021
▁creativity	-12022
▁destroying	-12023
▁hypothesis	-12024
▁identities	-12025
▁percentage	-12026
▁proclaimed	-12027
▁separately	-12028
▁substitute	-12029
▁wavelength	-12030
▁Guadalcanal	-12031
▁Palestinian	-12032
▁Shakespeare	-12033
▁compilation	-12034
▁controlling	-12035
▁ingredients	-12036
▁accompanying	-12037
▁civilization	-12038
▁continuously	-12039
▁developments	-12040
▁differential	-12041
▁inscriptions	-12042
▁significance	-12043
▁Revolutionary	-12044
▁manufacturers	-12045
▁participating	-12046
▁characteristic	-12047
▁municipalities	-12048
,”	-12049
16	-12050
42	-12051
43	-12052
AD	-12053
BO	-12054
Be	-12055
CH	-12056
DD	-12057
EM	-12058
IG	-12059
IR	-12060
UL	-12061
tz	-12062
ér	-12063
–3	-12064
–8	-12065
▁‘	-12066
-11	-12067
-12	-12068
ATO	-12069
For	-12070
May	-12071
amo	-12072
atl	-12073
bin	-12074
bul	-12075
fit	-12076
guy	-12077
hat	-12078
hig	-12079
isa	-12080
lis	-12081
oni	-12082
oor	-12083
orf	-12084
▁71	-12085
▁GM	-12086
▁HD	-12087
▁IF	-12088
▁Ng	-12089
▁Yi	-12090
▁_{	-12091
▁ov	-12092
▁oz	-12093
ESCO	-12094
They	-12095
airo	-12096
ambo	-12097
arre	-12098
bery	-12099
held	-12100
helm	-12101
imon	-12102
irts	-12103
itsu	-12104
just	-12105
opot	-12106
oval	-12107
pher	-12108
post	-12109
quin	-12110
uchy	-12111
usse	-12112
zens	-12113
▁105	-12114
▁16.	-12115
▁700	-12116
▁AFC	-12117
▁Ain	-12118
▁Ana	-12119
▁Ara	-12120
▁Blo	-12121
▁Bog	-12122
▁Cer	-12123
▁Cos	-12124
▁Eli	-12125
▁Exp	-12126
▁Fab	-12127
▁Hak	-12128
▁Isa	-12129
▁Kor	-12130
▁Mig	-12131
▁Miy	-12132
▁Mos	-12133
▁Neg	-12134
▁Ont	-12135
▁Rab	-12136
▁Saf	-12137
▁Sha	-12138
▁Sue	-12139
▁Tax	-12140
▁Use	-12141
▁Yak	-12142
▁dil	-12143
▁dos	-12144
▁gig	-12145
▁hes	-12146
▁hip	-12147
▁hob	-12148
▁pir	-12149
▁rod	-12150
▁shy	-12151
▁tag	-12152
▁une	-12153
▁unp	-12154
adays	-12155
aline	-12156
chers	-12157
chief	-12158
ellar	-12159
eness	-12160
eries	-12161
grade	-12162
great	-12163
inded	-12164
itime	-12165
later	-12166
limin	-12167
onian	-12168
ribly	-12169
ridge	-12170
ugawa	-12171
unted	-12172
▁(198	-12173
▁1947	-12174
▁1963	-12175
▁Alps	-12176
▁Deep	-12177
▁Drug	-12178
▁Full	-12179
▁Gaul	-12180
▁Gong	-12181
▁Hide	-12182
▁Luke	-12183
▁Mama	-12184
▁Mang	-12185
▁Note	-12186
▁Room	-12187
▁Sere	-12188
▁Test	-12189
▁Tomb	-12190
▁Vers	-12191
▁Yuan	-12192
▁adds	-12193
▁aims	-12194
▁bees	-12195
▁beta	-12196
▁bicy	-12197
▁bold	-12198
▁boom	-12199
▁bump	-12200
▁bund	-12201
▁caps	-12202
▁clar	-12203
▁clay	-12204
▁conj	-12205
▁crus	-12206
▁dawn	-12207
▁disk	-12208
▁dive	-12209
▁flex	-12210
▁gamb	-12211
▁gluc	-12212
▁jury	-12213
▁knee	-12214
▁maps	-12215
▁prev	-12216
▁rape	-12217
▁scre	-12218
▁soph	-12219
▁styl	-12220
▁taxi	-12221
▁twin	-12222
Korean	-12223
bourne	-12224
earing	-12225
erated	-12226
esters	-12227
family	-12228
fields	-12229
idding	-12230
ilized	-12231
market	-12232
ompson	-12233
pector	-12234
riving	-12235
termin	-12236
usters	-12237
▁1918,	-12238
▁1944.	-12239
▁1954,	-12240
▁1960,	-12241
▁1984,	-12242
▁1986,	-12243
▁1998.	-12244
▁Apart	-12245
▁Cabin	-12246
▁Cheng	-12247
▁Dylan	-12248
▁Exper	-12249
▁Lanka	-12250
▁Money	-12251
▁Osaka	-12252
▁Plant	-12253
▁Rouge	-12254
▁Villa	-12255
▁arena	-12256
▁bench	-12257
▁botan	-12258
▁conve	-12259
▁embed	-12260
▁encry	-12261
▁filed	-12262
▁flank	-12263
▁frust	-12264
▁gates	-12265
▁grief	-12266
▁integ	-12267
▁overd	-12268
▁oxide	-12269
▁penis	-12270
▁resid	-12271
▁sells	-12272
▁sorts	-12273
▁steam	-12274
▁toast	-12275
▁vault	-12276
▁verte	-12277
▁whist	-12278
osphere	-12279
regular	-12280
ressing	-12281
▁20,000	-12282
▁Buddha	-12283
▁Calvin	-12284
▁Carmen	-12285
▁Flight	-12286
▁Greeks	-12287
▁Gyeong	-12288
▁Indeed	-12289
▁Marcus	-12290
▁Mobile	-12291
▁Player	-12292
▁aggreg	-12293
▁cataly	-12294
▁culmin	-12295
▁entity	-12296
▁equals	-12297
▁festiv	-12298
▁franch	-12299
▁freely	-12300
▁intest	-12301
▁knight	-12302
▁laptop	-12303
▁magnet	-12304
▁meteor	-12305
▁neural	-12306
▁nights	-12307
▁orient	-12308
▁revolt	-12309
▁rounds	-12310
▁rumors	-12311
▁spiral	-12312
▁tablet	-12313
▁turret	-12314
▁vector	-12315
▁versus	-12316
▁visits	-12317
▁weekly	-12318
▁wooden	-12319
essional	-12320
etheless	-12321
issioned	-12322
liminary	-12323
▁Alabama	-12324
▁Antioch	-12325
▁Armenia	-12326
▁Belgian	-12327
▁Chester	-12328
▁Faculty	-12329
▁Himmler	-12330
▁Jupiter	-12331
▁Mission	-12332
▁Municip	-12333
▁Nicarag	-12334
▁Private	-12335
▁Seattle	-12336
▁Support	-12337
▁Usually	-12338
▁annexed	-12339
▁barrier	-12340
▁bombers	-12341
▁compare	-12342
▁congrat	-12343
▁crushed	-12344
▁customs	-12345
▁darling	-12346
▁desires	-12347
▁desktop	-12348
▁destiny	-12349
▁earning	-12350
▁fastest	-12351
▁feather	-12352
▁harmful	-12353
▁harvest	-12354
▁honored	-12355
▁hormone	-12356
▁hostage	-12357
▁hurting	-12358
▁lessons	-12359
▁locally	-12360
▁mammals	-12361
▁miracle	-12362
▁optical	-12363
▁satisfy	-12364
▁shallow	-12365
▁solving	-12366
▁thermal	-12367
▁trailer	-12368
▁tremend	-12369
▁tribute	-12370
▁updated	-12371
▁upgrade	-12372
▁wealthy	-12373
▁winners	-12374
rehensive	-12375
▁Algerian	-12376
▁Buddhism	-12377
▁Fernando	-12378
▁Hannibal	-12379
▁Intellig	-12380
▁Memorial	-12381
▁Missouri	-12382
▁Nicholas	-12383
▁Peruvian	-12384
▁Prussian	-12385
▁Training	-12386
▁accommod	-12387
▁adoption	-12388
▁agencies	-12389
▁billions	-12390
▁cemetery	-12391
▁conquest	-12392
▁consolid	-12393
▁constitu	-12394
▁consumer	-12395
▁contamin	-12396
▁cruisers	-12397
▁deserves	-12398
▁diameter	-12399
▁diplomat	-12400
▁emission	-12401
▁fraction	-12402
▁galaxies	-12403
▁grateful	-12404
▁honestly	-12405
▁hormones	-12406
▁insisted	-12407
▁interrog	-12408
▁invested	-12409
▁landings	-12410
▁marginal	-12411
▁marketed	-12412
▁metaphor	-12413
▁midnight	-12414
▁modeling	-12415
▁opponent	-12416
▁organize	-12417
▁protests	-12418
▁receives	-12419
▁resource	-12420
▁reunited	-12421
▁servants	-12422
▁shipping	-12423
▁siblings	-12424
▁strictly	-12425
▁supplied	-12426
▁tactical	-12427
▁targeted	-12428
▁thorough	-12429
▁underest	-12430
▁vacation	-12431
▁Authority	-12432
▁Charlotte	-12433
▁Similarly	-12434
▁accidents	-12435
▁chocolate	-12436
▁commented	-12437
▁conceived	-12438
▁contracts	-12439
▁correctly	-12440
▁designing	-12441
▁elephants	-12442
▁eliminate	-12443
▁favourite	-12444
▁inflation	-12445
▁municipal	-12446
▁relatives	-12447
▁reservoir	-12448
▁scattered	-12449
▁sentenced	-12450
▁slaughter	-12451
▁telephone	-12452
▁traveling	-12453
▁Luxembourg	-12454
▁Previously	-12455
▁Yugoslavia	-12456
▁acceptance	-12457
▁convenient	-12458
▁households	-12459
▁indicating	-12460
▁industries	-12461
▁innovative	-12462
▁interviews	-12463
▁membership	-12464
▁nomination	-12465
▁qualifying	-12466
▁researcher	-12467
▁separation	-12468
▁statistics	-12469
▁succession	-12470
▁Engineering	-12471
▁continental	-12472
▁corporation	-12473
▁counterpart	-12474
▁distinctive	-12475
▁enforcement	-12476
▁generations	-12477
▁imagination	-12478
▁residential	-12479
▁respiratory	-12480
▁theoretical	-12481
▁transformed	-12482
▁transported	-12483
▁breakthrough	-12484
▁commercially	-12485
▁installation	-12486
▁intermediate	-12487
▁metropolitan	-12488
▁southeastern	-12489
▁precipitation	-12490
▁organizational	-12491
2%	-12492
26	-12493
49	-12494
51	-12495
PG	-12496
TP	-12497
gg	-12498
ku	-12499
pi	-12500
öu	-12501
–9	-12502
4),	-12503
:30	-12504
CMC	-12505
New	-12506
adt	-12507
amy	-12508
cia	-12509
enh	-12510
har	-12511
hea	-12512
hev	-12513
iza	-12514
jet	-12515
rea	-12516
ste	-12517
urd	-12518
vet	-12519
–10	-12520
▁$2	-12521
▁2-	-12522
▁58	-12523
▁67	-12524
▁84	-12525
▁91	-12526
▁DS	-12527
▁FM	-12528
▁Od	-12529
▁PA	-12530
▁Ut	-12531
▁ah	-12532
▁lt	-12533
-200	-12534
:00.	-12535
anim	-12536
arer	-12537
asis	-12538
awak	-12539
bird	-12540
cycl	-12541
emia	-12542
emon	-12543
eros	-12544
iens	-12545
ilib	-12546
imen	-12547
inos	-12548
isle	-12549
isse	-12550
itty	-12551
itus	-12552
look	-12553
lude	-12554
mina	-12555
moon	-12556
olit	-12557
oons	-12558
orde	-12559
otus	-12560
rape	-12561
ribe	-12562
rost	-12563
rust	-12564
suit	-12565
this	-12566
town	-12567
ulum	-12568
wana	-12569
wang	-12570
–199	-12571
▁13.	-12572
▁15-	-12573
▁170	-12574
▁20.	-12575
▁BCE	-12576
▁Bot	-12577
▁Dog	-12578
▁GPS	-12579
▁HMS	-12580
▁Hop	-12581
▁IBM	-12582
▁ISO	-12583
▁Imp	-12584
▁Kid	-12585
▁Lan	-12586
▁Len	-12587
▁Lev	-12588
▁Lip	-12589
▁MIT	-12590
▁Mao	-12591
▁MiG	-12592
▁Sep	-12593
▁Tab	-12594
▁Tae	-12595
▁Tol	-12596
▁Tup	-12597
▁Typ	-12598
▁aux	-12599
▁bee	-12600
▁bum	-12601
▁cot	-12602
▁duo	-12603
▁gau	-12604
▁iPh	-12605
▁sab	-12606
▁seg	-12607
April	-12608
antan	-12609
aping	-12610
araoh	-12611
arios	-12612
chlor	-12613
comes	-12614
eling	-12615
erted	-12616
jamin	-12617
pered	-12618
phony	-12619
rared	-12620
rator	-12621
uania	-12622
ulent	-12623
young	-12624
▁"...	-12625
▁1918	-12626
▁1949	-12627
▁1951	-12628
▁1956	-12629
▁Anat	-12630
▁Beth	-12631
▁Bros	-12632
▁Chin	-12633
▁Exam	-12634
▁Grey	-12635
▁Hama	-12636
▁Hero	-12637
▁Indo	-12638
▁Java	-12639
▁Kath	-12640
▁Kiss	-12641
▁Link	-12642
▁Made	-12643
▁Mann	-12644
▁Mits	-12645
▁Name	-12646
▁Nash	-12647
▁Pent	-12648
▁Rand	-12649
▁Rita	-12650
▁Same	-12651
▁Soph	-12652
▁Task	-12653
▁Tong	-12654
▁Trad	-12655
▁Whoa	-12656
▁Yard	-12657
▁alph	-12658
▁anom	-12659
▁axis	-12660
▁coma	-12661
▁cord	-12662
▁deer	-12663
▁drum	-12664
▁ease	-12665
▁extr	-12666
▁grey	-12667
▁irre	-12668
▁jazz	-12669
▁migr	-12670
▁mour	-12671
▁oath	-12672
▁pigs	-12673
▁pope	-12674
▁pour	-12675
▁quad	-12676
▁rats	-12677
▁rely	-12678
▁ruin	-12679
▁seal	-12680
▁stir	-12681
▁thir	-12682
▁ugly	-12683
▁wage	-12684
mented	-12685
omeday	-12686
prises	-12687
roleum	-12688
rowing	-12689
source	-12690
urated	-12691
ursday	-12692
▁1945.	-12693
▁1974,	-12694
▁1980,	-12695
▁4,000	-12696
▁Carlo	-12697
▁Eddie	-12698
▁Hiros	-12699
▁Leyte	-12700
▁Nancy	-12701
▁Oscar	-12702
▁Parth	-12703
▁Perry	-12704
▁Phoen	-12705
▁Pract	-12706
▁Rhine	-12707
▁Route	-12708
▁Shall	-12709
▁Singh	-12710
▁Sudan	-12711
▁Turin	-12712
▁acted	-12713
▁acute	-12714
▁adren	-12715
▁beast	-12716
▁bride	-12717
▁chaos	-12718
▁conce	-12719
▁cruel	-12720
▁dealt	-12721
▁fuels	-12722
▁hears	-12723
▁humor	-12724
▁inequ	-12725
▁lunar	-12726
▁maxim	-12727
▁meals	-12728
▁monop	-12729
▁ninth	-12730
▁overt	-12731
▁recru	-12732
▁rings	-12733
▁schem	-12734
▁slept	-12735
▁souls	-12736
▁spots	-12737
▁stere	-12738
▁sworn	-12739
▁thief	-12740
▁thres	-12741
▁trail	-12742
▁wider	-12743
▁widow	-12744
achment	-12745
ascular	-12746
changed	-12747
essions	-12748
ipelago	-12749
ometric	-12750
veloped	-12751
▁Alaska	-12752
▁Barcel	-12753
▁Former	-12754
▁Future	-12755
▁Instit	-12756
▁Nelson	-12757
▁Newton	-12758
▁Normal	-12759
▁Orland	-12760
▁Samuel	-12761
▁Schwar	-12762
▁Season	-12763
▁Silver	-12764
▁Sports	-12765
▁Wright	-12766
▁aerial	-12767
▁ballet	-12768
▁ceased	-12769
▁chains	-12770
▁dancer	-12771
▁drives	-12772
▁edited	-12773
▁elabor	-12774
▁enters	-12775
▁enthus	-12776
▁finite	-12777
▁frozen	-12778
▁fruits	-12779
▁genres	-12780
▁heroin	-12781
▁honors	-12782
▁horror	-12783
▁insane	-12784
▁jumped	-12785
▁medals	-12786
▁poster	-12787
▁runner	-12788
▁salary	-12789
▁soccer	-12790
▁sovere	-12791
▁speaks	-12792
▁stimul	-12793
▁timing	-12794
▁vocals	-12795
▁wallet	-12796
▁whales	-12797
ablished	-12798
graduate	-12799
minister	-12800
▁Algeria	-12801
▁Alright	-12802
▁Arsenal	-12803
▁Babylon	-12804
▁Bahrain	-12805
▁Brigade	-12806
▁Cabinet	-12807
▁Janeiro	-12808
▁Maurice	-12809
▁Nahiyah	-12810
▁Ontario	-12811
▁Siberia	-12812
▁anthrop	-12813
▁binding	-12814
▁centres	-12815
▁colored	-12816
▁compuls	-12817
▁confron	-12818
▁crashed	-12819
▁crosses	-12820
▁diamond	-12821
▁embrace	-12822
▁enables	-12823
▁erected	-12824
▁expense	-12825
▁extends	-12826
▁flooded	-12827
▁heights	-12828
▁instant	-12829
▁jumping	-12830
▁monthly	-12831
▁organis	-12832
▁pulling	-12833
▁recruit	-12834
▁reduces	-12835
▁revised	-12836
▁senator	-12837
▁silence	-12838
▁spirits	-12839
▁substit	-12840
▁suscept	-12841
▁tragedy	-12842
▁unhappy	-12843
▁updates	-12844
▁Agricult	-12845
▁Airlines	-12846
▁Chairman	-12847
▁Champion	-12848
▁Emirates	-12849
▁Harrison	-12850
▁Highness	-12851
▁Original	-12852
▁Salvador	-12853
▁Services	-12854
▁Stanford	-12855
▁Thompson	-12856
▁Tokugawa	-12857
▁Tropical	-12858
▁adjacent	-12859
▁ancestor	-12860
▁animated	-12861
▁audition	-12862
▁borrowed	-12863
▁centered	-12864
▁counties	-12865
▁discrete	-12866
▁entities	-12867
▁equality	-12868
▁globally	-12869
▁infinite	-12870
▁injuries	-12871
▁merchant	-12872
▁mistaken	-12873
▁monsters	-12874
▁promises	-12875
▁reserved	-12876
▁secretly	-12877
▁severely	-12878
▁theaters	-12879
▁transmit	-12880
▁variants	-12881
▁volcanic	-12882
▁Cambodian	-12883
▁Economics	-12884
▁addresses	-12885
▁appearing	-12886
▁belonging	-12887
▁criminals	-12888
▁curiosity	-12889
▁defending	-12890
▁escorting	-12891
▁exhausted	-12892
▁extending	-12893
▁governing	-12894
▁lifestyle	-12895
▁mortality	-12896
▁musicians	-12897
▁offspring	-12898
▁opponents	-12899
▁prevented	-12900
▁promising	-12901
▁recipient	-12902
▁reporting	-12903
▁translate	-12904
▁violation	-12905
▁calculated	-12906
▁casualties	-12907
▁categories	-12908
▁collecting	-12909
▁comparable	-12910
▁conducting	-12911
▁ecosystems	-12912
▁encounters	-12913
▁horizontal	-12914
▁lieutenant	-12915
▁originates	-12916
▁prevention	-12917
▁respective	-12918
▁structural	-12919
▁suspension	-12920
▁suspicious	-12921
▁sweetheart	-12922
▁transplant	-12923
▁yourselves	-12924
▁Mississippi	-12925
▁bombardment	-12926
▁controversy	-12927
▁declaration	-12928
▁earthquakes	-12929
▁electronics	-12930
▁legislature	-12931
▁orientation	-12932
▁practically	-12933
▁statistical	-12934
▁Conservation	-12935
▁accomplished	-12936
▁disappointed	-12937
▁investigated	-12938
▁publications	-12939
▁strengthened	-12940
▁Confederation	-12941
▁effectiveness	-12942
▁philosophical	-12943
▁possibilities	-12944
▁substantially	-12945
2}	-12946
47	-12947
:3	-12948
CP	-12949
EE	-12950
Gu	-12951
La	-12952
MB	-12953
NG	-12954
OP	-12955
Se	-12956
Te	-12957
hr	-12958
nh	-12959
uy	-12960
én	-12961
ño	-12962
-20	-12963
Ind	-12964
abl	-12965
alt	-12966
arr	-12967
dal	-12968
hee	-12969
hou	-12970
ieu	-12971
ilo	-12972
lie	-12973
lon	-12974
low	-12975
oco	-12976
ovo	-12977
ppo	-12978
rah	-12979
vas	-12980
woo	-12981
xes	-12982
ère	-12983
–12	-12984
–13	-12985
–15	-12986
–20	-12987
▁3-	-12988
▁BE	-12989
▁CF	-12990
▁CS	-12991
▁DJ	-12992
▁Dh	-12993
▁Gö	-12994
▁MR	-12995
▁Mk	-12996
▁NT	-12997
▁Nu	-12998
▁Ow	-12999
▁WW	-13000
▁Yo	-13001
▁je	-13002
▁pH	-13003
▁vs	-13004
aden	-13005
aira	-13006
amia	-13007
aund	-13008
brev	-13009
chen	-13010
cile	-13011
cipe	-13012
etta	-13013
etus	-13014
feld	-13015
ften	-13016
hend	-13017
hill	-13018
icut	-13019
ifts	-13020
ilst	-13021
itol	-13022
ivic	-13023
keys	-13024
lius	-13025
lore	-13026
mare	-13027
obic	-13028
odge	-13029
onso	-13030
oths	-13031
rett	-13032
roit	-13033
rone	-13034
uala	-13035
uced	-13036
unct	-13037
velt	-13038
walk	-13039
week	-13040
word	-13041
ymph	-13042
▁(3.	-13043
▁10-	-13044
▁130	-13045
▁160	-13046
▁17.	-13047
▁Beh	-13048
▁Blu	-13049
▁Bry	-13050
▁Bul	-13051
▁CON	-13052
▁Cav	-13053
▁Cho	-13054
▁Dim	-13055
▁Eun	-13056
▁Gay	-13057
▁Hav	-13058
▁Huh	-13059
▁Kru	-13060
▁Kry	-13061
▁Pel	-13062
▁PhD	-13063
▁Sac	-13064
▁Sad	-13065
▁Sib	-13066
▁Sik	-13067
▁Tus	-13068
▁Wei	-13069
▁ank	-13070
▁ate	-13071
▁cel	-13072
▁dys	-13073
▁hug	-13074
▁los	-13075
▁ray	-13076
▁tel	-13077
▁tet	-13078
▁toy	-13079
▁umb	-13080
▁vas	-13081
adows	-13082
arate	-13083
arted	-13084
blast	-13085
cence	-13086
chair	-13087
cheon	-13088
esses	-13089
ester	-13090
ieved	-13091
ipper	-13092
istol	-13093
lined	-13094
lived	-13095
nered	-13096
occup	-13097
odles	-13098
onium	-13099
osion	-13100
oting	-13101
owell	-13102
owing	-13103
rable	-13104
rique	-13105
space	-13106
▁1958	-13107
▁1968	-13108
▁1969	-13109
▁Aunt	-13110
▁Baek	-13111
▁Been	-13112
▁Bert	-13113
▁Bull	-13114
▁Burn	-13115
▁Case	-13116
▁Conc	-13117
▁Data	-13118
▁Emma	-13119
▁Fish	-13120
▁Gary	-13121
▁Kane	-13122
▁Kurd	-13123
▁Mall	-13124
▁Meet	-13125
▁Ming	-13126
▁Nguy	-13127
▁Patt	-13128
▁Pere	-13129
▁Pull	-13130
▁Qing	-13131
▁Quin	-13132
▁Ring	-13133
▁Ryan	-13134
▁Sect	-13135
▁Shir	-13136
▁Shop	-13137
▁Voiv	-13138
▁Wong	-13139
▁amid	-13140
▁biod	-13141
▁chop	-13142
▁craw	-13143
▁dign	-13144
▁doct	-13145
▁hier	-13146
▁jerk	-13147
▁mini	-13148
▁nitr	-13149
▁orth	-13150
▁pier	-13151
▁puts	-13152
▁rehe	-13153
▁spat	-13154
▁tech	-13155
▁unre	-13156
Europe	-13157
abetes	-13158
angled	-13159
ashing	-13160
asting	-13161
bility	-13162
encing	-13163
eroids	-13164
herent	-13165
istani	-13166
master	-13167
member	-13168
ograms	-13169
onomic	-13170
ourage	-13171
profit	-13172
rients	-13173
uclear	-13174
▁1968,	-13175
▁1981,	-13176
▁1996.	-13177
▁Arist	-13178
▁Categ	-13179
▁Cloud	-13180
▁Gabri	-13181
▁Haven	-13182
▁Index	-13183
▁Luzon	-13184
▁Malay	-13185
▁Marco	-13186
▁Natal	-13187
▁Often	-13188
▁Place	-13189
▁Roose	-13190
▁Sales	-13191
▁Scout	-13192
▁Stage	-13193
▁Table	-13194
▁Woman	-13195
▁annoy	-13196
▁arbit	-13197
▁arrow	-13198
▁basin	-13199
▁belly	-13200
▁clans	-13201
▁condu	-13202
▁crude	-13203
▁debts	-13204
▁dimin	-13205
▁doses	-13206
▁enact	-13207
▁globe	-13208
▁grace	-13209
▁hated	-13210
▁jewel	-13211
▁manus	-13212
▁marsh	-13213
▁meter	-13214
▁pengu	-13215
▁prost	-13216
▁raids	-13217
▁rebel	-13218
▁seeks	-13219
▁sends	-13220
▁shout	-13221
▁spite	-13222
▁stall	-13223
▁straw	-13224
▁theft	-13225
▁width	-13226
agonist	-13227
arently	-13228
endment	-13229
ication	-13230
ictions	-13231
initely	-13232
largest	-13233
mingham	-13234
ordance	-13235
powered	-13236
present	-13237
riction	-13238
▁Anyone	-13239
▁Apollo	-13240
▁Athlet	-13241
▁Bengal	-13242
▁Better	-13243
▁Bhutan	-13244
▁Ethiop	-13245
▁Galile	-13246
▁Garden	-13247
▁Grande	-13248
▁Harvey	-13249
▁Helena	-13250
▁Juvent	-13251
▁Legend	-13252
▁Libert	-13253
▁Luther	-13254
▁Miguel	-13255
▁Murphy	-13256
▁Nathan	-13257
▁Nevada	-13258
▁Online	-13259
▁Panzer	-13260
▁Prague	-13261
▁Rhodes	-13262
▁Rodrig	-13263
▁Saigon	-13264
▁Serbia	-13265
▁Sounds	-13266
▁UNESCO	-13267
▁Weekly	-13268
▁acquis	-13269
▁adoles	-13270
▁cinema	-13271
▁coined	-13272
▁config	-13273
▁cortex	-13274
▁deadly	-13275
▁deport	-13276
▁depths	-13277
▁dubbed	-13278
▁farmer	-13279
▁flames	-13280
▁genera	-13281
▁glands	-13282
▁grains	-13283
▁guided	-13284
▁insign	-13285
▁intens	-13286
▁perpet	-13287
▁puzzle	-13288
▁regent	-13289
▁renown	-13290
▁scores	-13291
▁server	-13292
▁silent	-13293
▁slower	-13294
▁supern	-13295
▁surely	-13296
▁tonnes	-13297
▁virgin	-13298
▁waited	-13299
▁wasted	-13300
▁wheels	-13301
▁wolves	-13302
cedented	-13303
ifferent	-13304
language	-13305
olutions	-13306
▁Abraham	-13307
▁Charter	-13308
▁Corinth	-13309
▁Croatia	-13310
▁Diamond	-13311
▁Founded	-13312
▁Iberian	-13313
▁Masters	-13314
▁Orlando	-13315
▁Uruguay	-13316
▁Vatican	-13317
▁Vincent	-13318
▁Wilhelm	-13319
▁analyze	-13320
▁applies	-13321
▁artwork	-13322
▁bargain	-13323
▁blessed	-13324
▁calcium	-13325
▁cooling	-13326
▁costume	-13327
▁counted	-13328
▁creator	-13329
▁decides	-13330
▁denomin	-13331
▁insects	-13332
▁portray	-13333
▁printed	-13334
▁profits	-13335
▁pursued	-13336
▁qualify	-13337
▁screwed	-13338
▁seeking	-13339
▁tension	-13340
▁threats	-13341
▁tissues	-13342
▁unoffic	-13343
▁veteran	-13344
istically	-13345
▁Benjamin	-13346
▁Industry	-13347
▁Thursday	-13348
▁Voivodes	-13349
▁allergic	-13350
▁asteroid	-13351
▁athletes	-13352
▁colleges	-13353
▁contents	-13354
▁contrary	-13355
▁defender	-13356
▁diamonds	-13357
▁disputed	-13358
▁disputes	-13359
▁embarked	-13360
▁enjoying	-13361
▁enlarged	-13362
▁epidemic	-13363
▁expelled	-13364
▁flooding	-13365
▁frontier	-13366
▁gasoline	-13367
▁generals	-13368
▁imagined	-13369
▁indirect	-13370
▁informal	-13371
▁latitude	-13372
▁neurolog	-13373
▁nowadays	-13374
▁overseas	-13375
▁pressing	-13376
▁quantity	-13377
▁reminded	-13378
▁respects	-13379
▁survival	-13380
▁symmetry	-13381
▁treaties	-13382
▁velocity	-13383
▁vomiting	-13384
▁wildlife	-13385
▁wireless	-13386
▁wondered	-13387
generation	-13388
▁Barcelona	-13389
▁Egyptians	-13390
▁Lithuania	-13391
▁Malaysian	-13392
▁Roosevelt	-13393
▁Seriously	-13394
▁accounted	-13395
▁advancing	-13396
▁adventure	-13397
▁algorithm	-13398
▁astronaut	-13399
▁believing	-13400
▁combining	-13401
▁computing	-13402
▁confident	-13403
▁container	-13404
▁decorated	-13405
▁descended	-13406
▁developer	-13407
▁dinosaurs	-13408
▁discontin	-13409
▁emissions	-13410
▁encounter	-13411
▁explosion	-13412
▁intensive	-13413
▁irregular	-13414
▁measuring	-13415
▁migration	-13416
▁nutrients	-13417
▁peninsula	-13418
▁practiced	-13419
▁receptors	-13420
▁requiring	-13421
▁selective	-13422
▁sophistic	-13423
▁streaming	-13424
▁telescope	-13425
▁testimony	-13426
▁Birmingham	-13427
▁Depression	-13428
▁battleship	-13429
▁compromise	-13430
▁deficiency	-13431
▁derivative	-13432
▁economists	-13433
▁explaining	-13434
▁explicitly	-13435
▁imprisoned	-13436
▁linguistic	-13437
▁manuscript	-13438
▁mechanisms	-13439
▁possession	-13440
▁practicing	-13441
▁procedures	-13442
▁prohibited	-13443
▁prominence	-13444
▁protective	-13445
▁relegation	-13446
▁ridiculous	-13447
▁specialist	-13448
▁Renaissance	-13449
▁citizenship	-13450
▁cooperative	-13451
▁demonstrate	-13452
▁inheritance	-13453
▁radioactive	-13454
▁resignation	-13455
▁scholarship	-13456
▁transmitted	-13457
▁Consequently	-13458
▁Intelligence	-13459
▁accidentally	-13460
▁broadcasting	-13461
▁considerably	-13462
▁corporations	-13463
▁automatically	-13464
▁qualification	-13465
▁unprecedented	-13466
▁identification	-13467
▁pharmaceutical	-13468
▁representation	-13469
'?	-13470
46	-13471
71	-13472
85	-13473
Bl	-13474
DF	-13475
LC	-13476
OK	-13477
Os	-13478
To	-13479
ei	-13480
fa	-13481
rt	-13482
ür	-13483
4).	-13484
5).	-13485
900	-13486
Man	-13487
Not	-13488
TER	-13489
def	-13490
ema	-13491
eur	-13492
gie	-13493
gom	-13494
had	-13495
iah	-13496
iso	-13497
nec	-13498
ohn	-13499
omo	-13500
rub	-13501
uba	-13502
ucl	-13503
vol	-13504
zeg	-13505
▁$3	-13506
▁$5	-13507
▁00	-13508
▁1%	-13509
▁99	-13510
▁AU	-13511
▁DB	-13512
▁Dj	-13513
▁Ja	-13514
▁LA	-13515
▁Ré	-13516
▁SA	-13517
▁SC	-13518
▁Ub	-13519
▁cu	-13520
▁om	-13521
▁ta	-13522
..."	-13523
Ital	-13524
When	-13525
acha	-13526
anto	-13527
arks	-13528
arte	-13529
arth	-13530
bach	-13531
bred	-13532
ceae	-13533
comp	-13534
eded	-13535
essa	-13536
give	-13537
hire	-13538
iani	-13539
igma	-13540
inae	-13541
inia	-13542
llah	-13543
ndum	-13544
olan	-13545
onal	-13546
quer	-13547
quet	-13548
riot	-13549
rise	-13550
song	-13551
yang	-13552
–201	-13553
▁(14	-13554
▁(16	-13555
▁145	-13556
▁80%	-13557
▁Abb	-13558
▁Agu	-13559
▁Arn	-13560
▁Bai	-13561
▁Cra	-13562
▁Cum	-13563
▁Duc	-13564
▁FDA	-13565
▁Fuk	-13566
▁Hok	-13567
▁Ian	-13568
▁Iey	-13569
▁Jar	-13570
▁Jun	-13571
▁Kai	-13572
▁Meg	-13573
▁Nem	-13574
▁Pom	-13575
▁Pul	-13576
▁Rud	-13577
▁Sag	-13578
▁Sah	-13579
▁Tat	-13580
▁Vic	-13581
▁Viv	-13582
▁aqu	-13583
▁bes	-13584
▁cum	-13585
▁cyl	-13586
▁egg	-13587
▁lap	-13588
▁mol	-13589
▁obl	-13590
▁pix	-13591
▁sor	-13592
▁vag	-13593
adder	-13594
anmar	-13595
antom	-13596
armed	-13597
atern	-13598
being	-13599
eches	-13600
eenth	-13601
eping	-13602
erald	-13603
ernel	-13604
idity	-13605
ilers	-13606
iston	-13607
mouth	-13608
ochem	-13609
ohama	-13610
oming	-13611
oping	-13612
osome	-13613
stage	-13614
vised	-13615
▁Alam	-13616
▁Burg	-13617
▁Chan	-13618
▁Cort	-13619
▁Days	-13620
▁Drag	-13621
▁Easy	-13622
▁Fast	-13623
▁Gard	-13624
▁Gran	-13625
▁Guer	-13626
▁HCMC	-13627
▁Hamp	-13628
▁Holl	-13629
▁Homs	-13630
▁Iowa	-13631
▁Isle	-13632
▁Lara	-13633
▁Lear	-13634
▁Pink	-13635
▁Pitt	-13636
▁Reed	-13637
▁Shaw	-13638
▁THAT	-13639
▁Tree	-13640
▁Whit	-13641
▁Yosh	-13642
▁aven	-13643
▁beam	-13644
▁beef	-13645
▁chat	-13646
▁deaf	-13647
▁dece	-13648
▁epic	-13649
▁flee	-13650
▁gest	-13651
▁gray	-13652
▁hers	-13653
▁inex	-13654
▁inqu	-13655
▁jung	-13656
▁lens	-13657
▁limb	-13658
▁medi	-13659
▁menu	-13660
▁peer	-13661
▁pige	-13662
▁pine	-13663
▁proc	-13664
▁recl	-13665
▁recy	-13666
▁reef	-13667
▁rejo	-13668
▁shoe	-13669
▁sins	-13670
▁surn	-13671
▁tier	-13672
▁verb	-13673
▁weig	-13674
▁yard	-13675
anking	-13676
atical	-13677
gomery	-13678
holder	-13679
inging	-13680
irable	-13681
lected	-13682
nesota	-13683
opatra	-13684
osomes	-13685
phones	-13686
romagn	-13687
terior	-13688
usting	-13689
▁1939,	-13690
▁1965,	-13691
▁1974.	-13692
▁1982,	-13693
▁1987,	-13694
▁1992.	-13695
▁2019,	-13696
▁Abdul	-13697
▁Baker	-13698
▁Basin	-13699
▁Build	-13700
▁Chase	-13701
▁Happy	-13702
▁Isaac	-13703
▁Jules	-13704
▁Leeds	-13705
▁Malta	-13706
▁Movie	-13707
▁Pablo	-13708
▁Ridge	-13709
▁Seung	-13710
▁Solar	-13711
▁Stars	-13712
▁Steel	-13713
▁Stein	-13714
▁align	-13715
▁apple	-13716
▁arose	-13717
▁aspir	-13718
▁beats	-13719
▁canal	-13720
▁corps	-13721
▁disin	-13722
▁dough	-13723
▁dwell	-13724
▁fancy	-13725
▁ferry	-13726
▁franc	-13727
▁frank	-13728
▁freed	-13729
▁heter	-13730
▁illeg	-13731
▁insul	-13732
▁intra	-13733
▁invas	-13734
▁lions	-13735
▁outta	-13736
▁overl	-13737
▁pants	-13738
▁pills	-13739
▁posts	-13740
▁quote	-13741
▁rainy	-13742
▁reads	-13743
▁rises	-13744
▁semin	-13745
▁sheet	-13746
▁silly	-13747
▁slice	-13748
▁slope	-13749
▁squir	-13750
▁steep	-13751
▁subsc	-13752
▁trium	-13753
▁wrist	-13754
actions	-13755
central	-13756
covered	-13757
emption	-13758
ificent	-13759
isphere	-13760
venture	-13761
▁Aleppo	-13762
▁Amanda	-13763
▁Borneo	-13764
▁Carter	-13765
▁Celtic	-13766
▁Crisis	-13767
▁Forbes	-13768
▁Forget	-13769
▁Hannah	-13770
▁Ieyasu	-13771
▁Julius	-13772
▁Marvel	-13773
▁Member	-13774
▁Murray	-13775
▁Paragu	-13776
▁Patrol	-13777
▁Regard	-13778
▁Shadow	-13779
▁Strait	-13780
▁Venice	-13781
▁Wednes	-13782
▁anthem	-13783
▁brands	-13784
▁bronze	-13785
▁candle	-13786
▁capita	-13787
▁commod	-13788
▁coward	-13789
▁crater	-13790
▁drinks	-13791
▁emerge	-13792
▁fights	-13793
▁fisher	-13794
▁foster	-13795
▁fright	-13796
▁grades	-13797
▁halluc	-13798
▁hollow	-13799
▁hotels	-13800
▁humble	-13801
▁invade	-13802
▁nuclei	-13803
▁overth	-13804
▁pardon	-13805
▁patron	-13806
▁plague	-13807
▁powder	-13808
▁prayer	-13809
▁prints	-13810
▁propri	-13811
▁proxim	-13812
▁raises	-13813
▁retrie	-13814
▁rhythm	-13815
▁sealed	-13816
▁sharks	-13817
▁spinal	-13818
▁styles	-13819
▁subway	-13820
▁tasked	-13821
▁traded	-13822
▁trauma	-13823
▁tribal	-13824
▁unrest	-13825
▁update	-13826
▁varied	-13827
electric	-13828
hibition	-13829
ogenesis	-13830
restrial	-13831
▁Antarct	-13832
▁Certain	-13833
▁Clinton	-13834
▁Detroit	-13835
▁Jamaica	-13836
▁Myanmar	-13837
▁Schwarz	-13838
▁Singles	-13839
▁Success	-13840
▁Teacher	-13841
▁Virtual	-13842
▁Wallace	-13843
▁avoided	-13844
▁bicycle	-13845
▁chances	-13846
▁conform	-13847
▁convoys	-13848
▁corrupt	-13849
▁deliber	-13850
▁drought	-13851
▁electro	-13852
▁entries	-13853
▁erosion	-13854
▁fifteen	-13855
▁fossils	-13856
▁fulfill	-13857
▁gaining	-13858
▁gallery	-13859
▁healing	-13860
▁hunters	-13861
▁lasting	-13862
▁liberty	-13863
▁malaria	-13864
▁messing	-13865
▁militia	-13866
▁observe	-13867
▁offense	-13868
▁outrage	-13869
▁pilgrim	-13870
▁pressed	-13871
▁priests	-13872
▁prolong	-13873
▁readers	-13874
▁refugee	-13875
▁shelter	-13876
▁someday	-13877
▁stepped	-13878
▁streams	-13879
▁supreme	-13880
▁symptom	-13881
▁tablets	-13882
▁thereby	-13883
▁unified	-13884
▁useless	-13885
▁valleys	-13886
▁wasting	-13887
efficient	-13888
ictionary	-13889
▁Anderson	-13890
▁Attorney	-13891
▁Brooklyn	-13892
▁Examples	-13893
▁Franklin	-13894
▁Hamilton	-13895
▁Isabella	-13896
▁Jennifer	-13897
▁Robinson	-13898
▁Tiberius	-13899
▁Treasury	-13900
▁Uprising	-13901
▁Yokohama	-13902
▁acoustic	-13903
▁ambition	-13904
▁armament	-13905
▁aviation	-13906
▁betrayed	-13907
▁commerce	-13908
▁confront	-13909
▁diabetes	-13910
▁dialogue	-13911
▁displays	-13912
▁distract	-13913
▁embedded	-13914
▁enhanced	-13915
▁explored	-13916
▁floating	-13917
▁freezing	-13918
▁gambling	-13919
▁handling	-13920
▁lighting	-13921
▁momentum	-13922
▁organism	-13923
▁outcomes	-13924
▁overhaul	-13925
▁payments	-13926
▁persuade	-13927
▁pipeline	-13928
▁portions	-13929
▁portrait	-13930
▁punished	-13931
▁receptor	-13932
▁sandwich	-13933
▁screened	-13934
▁specimen	-13935
▁squadron	-13936
▁summoned	-13937
▁sunlight	-13938
▁tensions	-13939
▁terminal	-13940
▁troubled	-13941
▁vicinity	-13942
▁writings	-13943
controlled	-13944
ordination	-13945
▁Bulgarian	-13946
▁Cleopatra	-13947
▁Europeans	-13948
▁Macedonia	-13949
▁Melbourne	-13950
▁Ministers	-13951
▁Minnesota	-13952
▁Yesterday	-13953
▁accepting	-13954
▁addressed	-13955
▁anonymous	-13956
▁batteries	-13957
▁collision	-13958
▁companion	-13959
▁consensus	-13960
▁demanding	-13961
▁dismissed	-13962
▁franchise	-13963
▁incorrect	-13964
▁inventory	-13965
▁isolation	-13966
▁merchants	-13967
▁persuaded	-13968
▁petroleum	-13969
▁phenomena	-13970
▁physicist	-13971
▁relocated	-13972
▁sculpture	-13973
▁sentences	-13974
▁similarly	-13975
▁specimens	-13976
▁struggles	-13977
▁torpedoes	-13978
▁volunteer	-13979
▁witnesses	-13980
▁wrestling	-13981
▁Apparently	-13982
▁Christians	-13983
▁Elementary	-13984
▁Literature	-13985
▁Protection	-13986
▁Scientific	-13987
▁Uzbekistan	-13988
▁attendance	-13989
▁combustion	-13990
▁conspiracy	-13991
▁generating	-13992
▁inequality	-13993
▁legitimate	-13994
▁motivation	-13995
▁objectives	-13996
▁presidency	-13997
▁referendum	-13998
▁repeatedly	-13999
▁satellites	-14000
▁simulation	-14001
▁systematic	-14002
▁vegetables	-14003
▁visibility	-14004
▁Voivodeship	-14005
▁achievement	-14006
▁anticipated	-14007
▁celebration	-14008
▁contestants	-14009
▁coordinates	-14010
▁expressions	-14011
▁foundations	-14012
▁identifying	-14013
▁legislative	-14014
▁magnificent	-14015
▁partnership	-14016
▁promotional	-14017
▁sensitivity	-14018
▁subordinate	-14019
▁temporarily	-14020
▁Historically	-14021
▁astronomical	-14022
▁dramatically	-14023
▁historically	-14024
▁reproductive	-14025
▁mathematician	-14026
▁unfortunately	-14027
▁photosynthesis	-14028
▁reconnaissance	-14029
Ex	-14030
LE	-14031
On	-14032
TH	-14033
TO	-14034
Ts	-14035
cé	-14036
iw	-14037
uv	-14038
yō	-14039
zu	-14040
}\	-14041
éd	-14042
ña	-14043
7).	-14044
700	-14045
ENT	-14046
Mar	-14047
PDF	-14048
aha	-14049
ako	-14050
bet	-14051
elf	-14052
elo	-14053
gos	-14054
hum	-14055
iom	-14056
izz	-14057
len	-14058
loy	-14059
mel	-14060
mir	-14061
mus	-14062
nen	-14063
nut	-14064
opy	-14065
org	-14066
pes	-14067
phi	-14068
rod	-14069
tor	-14070
uko	-14071
ups	-14072
utu	-14073
voy	-14074
yon	-14075
yuz	-14076
▁49	-14077
▁59	-14078
▁62	-14079
▁63	-14080
▁66	-14081
▁77	-14082
▁8-	-14083
▁95	-14084
▁AV	-14085
▁Ae	-14086
▁BP	-14087
▁GN	-14088
▁IC	-14089
▁Ib	-14090
▁Iw	-14091
▁NY	-14092
▁ON	-14093
▁Oz	-14094
▁PM	-14095
▁Pi	-14096
▁SE	-14097
▁SH	-14098
▁SK	-14099
▁UA	-14100
▁Wu	-14101
▁XX	-14102
▁Yū	-14103
▁ok	-14104
Nove	-14105
Port	-14106
West	-14107
abad	-14108
acus	-14109
ados	-14110
aeda	-14111
alla	-14112
apor	-14113
atal	-14114
bull	-14115
card	-14116
cius	-14117
half	-14118
home	-14119
ilis	-14120
itas	-14121
ithe	-14122
jung	-14123
leuc	-14124
loor	-14125
oebe	-14126
ogly	-14127
omes	-14128
onne	-14129
opic	-14130
oras	-14131
oton	-14132
plus	-14133
pose	-14134
qual	-14135
shot	-14136
soon	-14137
text	-14138
uder	-14139
ught	-14140
ummy	-14141
usan	-14142
wife	-14143
ylum	-14144
yson	-14145
zero	-14146
çois	-14147
▁(13	-14148
▁106	-14149
▁3.5	-14150
▁40%	-14151
▁Abs	-14152
▁Ahm	-14153
▁Ank	-14154
▁Aur	-14155
▁Cre	-14156
▁Fra	-14157
▁Hai	-14158
▁Hub	-14159
▁Ich	-14160
▁Jen	-14161
▁Kun	-14162
▁Lao	-14163
▁Lav	-14164
▁Lay	-14165
▁Maz	-14166
▁NBC	-14167
▁Oil	-14168
▁Pav	-14169
▁Pir	-14170
▁Pos	-14171
▁Poz	-14172
▁Raf	-14173
▁Stu	-14174
▁Tha	-14175
▁bip	-14176
▁bun	-14177
▁caf	-14178
▁clo	-14179
▁dip	-14180
▁dre	-14181
▁fel	-14182
▁gel	-14183
▁kin	-14184
▁pod	-14185
▁unc	-14186
,000,	-14187
March	-14188
aints	-14189
ambon	-14190
arius	-14191
ausea	-14192
bound	-14193
built	-14194
copic	-14195
cycle	-14196
esium	-14197
icism	-14198
ilian	-14199
named	-14200
onica	-14201
osals	-14202
otive	-14203
ovsky	-14204
pling	-14205
somet	-14206
white	-14207
woman	-14208
yoshi	-14209
▁1921	-14210
▁1932	-14211
▁1954	-14212
▁1957	-14213
▁1962	-14214
▁2020	-14215
▁Cors	-14216
▁Dale	-14217
▁Date	-14218
▁Earl	-14219
▁Fant	-14220
▁Ferm	-14221
▁Guam	-14222
▁Hamb	-14223
▁Hamm	-14224
▁Hoff	-14225
▁Iris	-14226
▁Jump	-14227
▁Kamp	-14228
▁Khal	-14229
▁Kiev	-14230
▁Kurt	-14231
▁Lane	-14232
▁Lenn	-14233
▁Luis	-14234
▁Mans	-14235
▁Mare	-14236
▁Ment	-14237
▁NATO	-14238
▁Nile	-14239
▁Nord	-14240
▁Otto	-14241
▁Papa	-14242
▁Phot	-14243
▁Pont	-14244
▁Rosa	-14245
▁Ruth	-14246
▁Szcz	-14247
▁Tart	-14248
▁Tian	-14249
▁Zero	-14250
▁bags	-14251
▁bapt	-14252
▁barn	-14253
▁blog	-14254
▁cann	-14255
▁curs	-14256
▁cyan	-14257
▁dess	-14258
▁ensu	-14259
▁fees	-14260
▁flaw	-14261
▁gymn	-14262
▁hipp	-14263
▁holy	-14264
▁intu	-14265
▁leaf	-14266
▁leak	-14267
▁mall	-14268
▁nons	-14269
▁oils	-14270
▁pace	-14271
▁panc	-14272
▁pays	-14273
▁plut	-14274
▁pork	-14275
▁pose	-14276
▁rope	-14277
▁sher	-14278
▁syll	-14279
▁ware	-14280
▁whis	-14281
agonal	-14282
ailing	-14283
ainted	-14284
alling	-14285
apolis	-14286
icides	-14287
ifacts	-14288
imated	-14289
lihood	-14290
listed	-14291
makers	-14292
necess	-14293
ombard	-14294
origin	-14295
timore	-14296
ulates	-14297
ulsion	-14298
usions	-14299
ustain	-14300
▁(2000	-14301
▁1937,	-14302
▁1948,	-14303
▁1956.	-14304
▁1958,	-14305
▁1962,	-14306
▁1963,	-14307
▁1966,	-14308
▁1975.	-14309
▁1977,	-14310
▁1999.	-14311
▁6,000	-14312
▁Alert	-14313
▁Allow	-14314
▁Aside	-14315
▁Carey	-14316
▁Champ	-14317
▁Chron	-14318
▁Haiti	-14319
▁Hence	-14320
▁Hills	-14321
▁Hurry	-14322
▁Idaho	-14323
▁Joint	-14324
▁Judge	-14325
▁Kelly	-14326
▁Meiji	-14327
▁Mommy	-14328
▁Phnom	-14329
▁Russo	-14330
▁Santo	-14331
▁Seems	-14332
▁Soyuz	-14333
▁Store	-14334
▁Swift	-14335
▁Tajik	-14336
▁Thous	-14337
▁Warri	-14338
▁Zhang	-14339
▁adequ	-14340
▁ambit	-14341
▁ashes	-14342
▁audit	-14343
▁boost	-14344
▁bored	-14345
▁comet	-14346
▁cried	-14347
▁cripp	-14348
▁crypt	-14349
▁cyber	-14350
▁eager	-14351
▁facto	-14352
▁fella	-14353
▁fence	-14354
▁fifty	-14355
▁flown	-14356
▁intim	-14357
▁membr	-14358
▁rains	-14359
▁repay	-14360
▁sanct	-14361
▁sauce	-14362
▁shake	-14363
▁stain	-14364
▁swore	-14365
▁tiger	-14366
▁trash	-14367
▁tubes	-14368
▁twins	-14369
▁venue	-14370
▁yards	-14371
artered	-14372
aternal	-14373
legraph	-14374
looking	-14375
orative	-14376
▁12,000	-14377
▁Avatar	-14378
▁Boeing	-14379
▁Caucas	-14380
▁Chance	-14381
▁Change	-14382
▁Choice	-14383
▁Concer	-14384
▁Declar	-14385
▁Franco	-14386
▁Guards	-14387
▁Manuel	-14388
▁Oblast	-14389
▁Period	-14390
▁Policy	-14391
▁Santos	-14392
▁Shield	-14393
▁Spirit	-14394
▁Tasman	-14395
▁Warren	-14396
▁abbrev	-14397
▁admire	-14398
▁alumin	-14399
▁arrows	-14400
▁centim	-14401
▁clinic	-14402
▁cotton	-14403
▁cruise	-14404
▁dealer	-14405
▁dozens	-14406
▁filter	-14407
▁hazard	-14408
▁hybrid	-14409
▁iPhone	-14410
▁iconic	-14411
▁insult	-14412
▁intend	-14413
▁jungle	-14414
▁manual	-14415
▁mentor	-14416
▁metall	-14417
▁patent	-14418
▁plates	-14419
▁posted	-14420
▁relies	-14421
▁resort	-14422
▁robust	-14423
▁snakes	-14424
▁solely	-14425
▁solved	-14426
▁steady	-14427
▁thrill	-14428
▁tumors	-14429
▁wounds	-14430
aircraft	-14431
ilibrium	-14432
oriented	-14433
▁Atlanta	-14434
▁Barbara	-14435
▁Cameron	-14436
▁Chaplin	-14437
▁Conserv	-14438
▁Edwards	-14439
▁Estonia	-14440
▁Fighter	-14441
▁Frances	-14442
▁Gabriel	-14443
▁Gregory	-14444
▁Hundred	-14445
▁Mercury	-14446
▁Pokémon	-14447
▁Sarawak	-14448
▁Sheriff	-14449
▁Tunisia	-14450
▁Whether	-14451
▁acetate	-14452
▁advised	-14453
▁ammonia	-14454
▁apology	-14455
▁bullets	-14456
▁captive	-14457
▁categor	-14458
▁combine	-14459
▁consort	-14460
▁constra	-14461
▁declare	-14462
▁deserts	-14463
▁differs	-14464
▁dragged	-14465
▁dynamic	-14466
▁endless	-14467
▁exagger	-14468
▁exports	-14469
▁flowing	-14470
▁fragile	-14471
▁knights	-14472
▁lecture	-14473
▁lengths	-14474
▁lighter	-14475
▁manages	-14476
▁mapping	-14477
▁nucleus	-14478
▁orbital	-14479
▁patrols	-14480
▁pension	-14481
▁persist	-14482
▁precurs	-14483
▁prefect	-14484
▁reactor	-14485
▁rebuild	-14486
▁smarter	-14487
▁staring	-14488
▁statues	-14489
▁superst	-14490
▁surgeon	-14491
▁warrant	-14492
▁whoever	-14493
▁Aircraft	-14494
▁Armenian	-14495
▁Campbell	-14496
▁Category	-14497
▁Fighting	-14498
▁Filipino	-14499
▁Germanic	-14500
▁Greatest	-14501
▁Hawaiian	-14502
▁Heinrich	-14503
▁Juventus	-14504
▁Lebanese	-14505
▁Pictures	-14506
▁Portland	-14507
▁Speaking	-14508
▁accuracy	-14509
▁airports	-14510
▁chambers	-14511
▁cheating	-14512
▁choosing	-14513
▁commands	-14514
▁defining	-14515
▁displace	-14516
▁disposal	-14517
▁editions	-14518
▁elephant	-14519
▁employee	-14520
▁examined	-14521
▁factions	-14522
▁fourteen	-14523
▁gameplay	-14524
▁ideology	-14525
▁injected	-14526
▁mentions	-14527
▁moderate	-14528
▁numbered	-14529
▁platinum	-14530
▁potatoes	-14531
▁protocol	-14532
▁quarters	-14533
▁recalled	-14534
▁reigning	-14535
▁relating	-14536
▁reliable	-14537
▁renowned	-14538
▁revenues	-14539
▁rewarded	-14540
▁suspects	-14541
▁teenager	-14542
▁textbook	-14543
▁warriors	-14544
roximately	-14545
▁Baltimore	-14546
▁Beginning	-14547
▁Democrats	-14548
▁Orchestra	-14549
▁Taiwanese	-14550
▁Wednesday	-14551
▁achieving	-14552
▁aesthetic	-14553
▁astronomy	-14554
▁breakdown	-14555
▁calculate	-14556
▁certified	-14557
▁complaint	-14558
▁condemned	-14559
▁cooperate	-14560
▁dictators	-14561
▁directors	-14562
▁distances	-14563
▁expertise	-14564
▁geography	-14565
▁interfere	-14566
▁kilograms	-14567
▁mechanics	-14568
▁narrative	-14569
▁nightmare	-14570
▁occasions	-14571
▁physician	-14572
▁plutonium	-14573
▁populated	-14574
▁processed	-14575
▁proximity	-14576
▁publisher	-14577
▁reception	-14578
▁reflected	-14579
▁scenarios	-14580
▁stationed	-14581
▁struggled	-14582
▁successes	-14583
▁sustained	-14584
▁travelled	-14585
▁uncomfort	-14586
▁witnessed	-14587
▁Alexandria	-14588
▁Antarctica	-14589
▁Kazakhstan	-14590
▁Montgomery	-14591
▁Protestant	-14592
▁accomplish	-14593
▁aggressive	-14594
▁attraction	-14595
▁ceremonial	-14596
▁consulting	-14597
▁enterprise	-14598
▁extraction	-14599
▁freshwater	-14600
▁imperative	-14601
▁impression	-14602
▁inevitable	-14603
▁instructor	-14604
▁intentions	-14605
▁journalism	-14606
▁millennium	-14607
▁nationwide	-14608
▁physicists	-14609
▁protesters	-14610
▁provisions	-14611
▁purchasing	-14612
▁regulation	-14613
▁statements	-14614
▁struggling	-14615
▁terrorists	-14616
▁theatrical	-14617
▁Connecticut	-14618
▁Declaration	-14619
▁Performance	-14620
▁battleships	-14621
▁certificate	-14622
▁controllers	-14623
▁departments	-14624
▁maintaining	-14625
▁measurement	-14626
▁outstanding	-14627
▁regulations	-14628
▁requirement	-14629
▁restoration	-14630
▁surrendered	-14631
▁transaction	-14632
▁transparent	-14633
▁Johannesburg	-14634
▁Subsequently	-14635
▁coordination	-14636
▁entrepreneur	-14637
▁experiencing	-14638
▁unsuccessful	-14639
▁organisations	-14640
▁professionals	-14641
▁discrimination	-14642
57	-14643
59	-14644
?!	-14645
Af	-14646
MP	-14647
RO	-14648
SM	-14649
Sc	-14650
UR	-14651
UT	-14652
fi	-14653
iu	-14654
ás	-14655
ал	-14656
ер	-14657
”.	-14658
1).	-14659
7),	-14660
Are	-14661
IDS	-14662
aft	-14663
asg	-14664
big	-14665
cin	-14666
cts	-14667
eto	-14668
fat	-14669
fen	-14670
gae	-14671
gam	-14672
gio	-14673
hey	-14674
igu	-14675
kel	-14676
kim	-14677
oba	-14678
oqu	-14679
ouk	-14680
rup	-14681
shi	-14682
sur	-14683
uta	-14684
yer	-14685
ène	-14686
▁"'	-14687
▁($	-14688
▁69	-14689
▁AB	-14690
▁AC	-14691
▁AF	-14692
▁AI	-14693
▁ER	-14694
▁IG	-14695
▁IX	-14696
▁Jr	-14697
▁Kw	-14698
▁LG	-14699
▁MO	-14700
▁MW	-14701
▁SN	-14702
▁ST	-14703
▁TG	-14704
▁TR	-14705
▁Zo	-14706
"...	-14707
Best	-14708
Come	-14709
Hung	-14710
Look	-14711
adia	-14712
adys	-14713
ahar	-14714
ails	-14715
anas	-14716
ango	-14717
angs	-14718
aton	-14719
atts	-14720
atus	-14721
azed	-14722
boat	-14723
bons	-14724
cier	-14725
core	-14726
ello	-14727
eneg	-14728
eric	-14729
gean	-14730
heng	-14731
hiro	-14732
iden	-14733
ieng	-14734
inas	-14735
isan	-14736
kaya	-14737
kers	-14738
laus	-14739
llor	-14740
midt	-14741
nals	-14742
olia	-14743
orne	-14744
otes	-14745
pert	-14746
rays	-14747
rike	-14748
rius	-14749
ropy	-14750
rush	-14751
thal	-14752
uria	-14753
wald	-14754
wall	-14755
▁(12	-14756
▁(20	-14757
▁(6.	-14758
▁109	-14759
▁16-	-14760
▁176	-14761
▁75%	-14762
▁90%	-14763
▁900	-14764
▁Bav	-14765
▁Boh	-14766
▁CPU	-14767
▁Dah	-14768
▁Der	-14769
▁Gas	-14770
▁Hob	-14771
▁Imm	-14772
▁Inv	-14773
▁Jak	-14774
▁Kas	-14775
▁Kin	-14776
▁Kom	-14777
▁Lap	-14778
▁Lub	-14779
▁Lum	-14780
▁MHz	-14781
▁Mam	-14782
▁Map	-14783
▁Oak	-14784
▁Ooh	-14785
▁Opt	-14786
▁Ost	-14787
▁Pay	-14788
▁Row	-14789
▁Rum	-14790
▁Sek	-14791
▁Suz	-14792
▁Tao	-14793
▁Tel	-14794
▁Tou	-14795
▁USB	-14796
▁Yor	-14797
▁cos	-14798
▁cyc	-14799
▁ink	-14800
▁iod	-14801
▁kit	-14802
▁lag	-14803
▁lav	-14804
▁lip	-14805
▁lob	-14806
▁pel	-14807
▁rug	-14808
▁spy	-14809
▁tig	-14810
▁tin	-14811
▁tow	-14812
▁wip	-14813
▁yöu	-14814
actly	-14815
aijan	-14816
allas	-14817
andan	-14818
annon	-14819
antes	-14820
arett	-14821
asgow	-14822
ceded	-14823
cliff	-14824
enger	-14825
erers	-14826
front	-14827
idine	-14828
ikido	-14829
inate	-14830
iolet	-14831
maker	-14832
oland	-14833
olith	-14834
onies	-14835
otrop	-14836
ourse	-14837
pherd	-14838
pires	-14839
shine	-14840
speed	-14841
steps	-14842
▁1500	-14843
▁1905	-14844
▁1915	-14845
▁1928	-14846
▁1935	-14847
▁1936	-14848
▁1938	-14849
▁1948	-14850
▁1971	-14851
▁Bear	-14852
▁Bing	-14853
▁Bond	-14854
▁Bund	-14855
▁Chao	-14856
▁Chun	-14857
▁Fame	-14858
▁Help	-14859
▁Hipp	-14860
▁Hood	-14861
▁Into	-14862
▁Kara	-14863
▁Kens	-14864
▁Lanc	-14865
▁Ling	-14866
▁Lisa	-14867
▁Mine	-14868
▁Mons	-14869
▁Nova	-14870
▁Oman	-14871
▁Pete	-14872
▁Pole	-14873
▁Roll	-14874
▁Save	-14875
▁Side	-14876
▁Soul	-14877
▁View	-14878
▁Weap	-14879
▁auto	-14880
▁aver	-14881
▁blew	-14882
▁boot	-14883
▁bowl	-14884
▁burg	-14885
▁dent	-14886
▁exit	-14887
▁feud	-14888
▁gast	-14889
▁heal	-14890
▁hull	-14891
▁lava	-14892
▁lawn	-14893
▁lend	-14894
▁leop	-14895
▁lips	-14896
▁lith	-14897
▁loop	-14898
▁mant	-14899
▁obey	-14900
▁pile	-14901
▁prol	-14902
▁rabb	-14903
▁rede	-14904
▁reop	-14905
▁rupt	-14906
▁seiz	-14907
▁torn	-14908
▁toug	-14909
▁toys	-14910
▁turt	-14911
▁unin	-14912
▁unve	-14913
▁yuan	-14914
advant	-14915
alized	-14916
cyclop	-14917
dinand	-14918
ducted	-14919
enburg	-14920
erving	-14921
esthes	-14922
estone	-14923
ffield	-14924
giving	-14925
icient	-14926
imedia	-14927
ipedia	-14928
itored	-14929
lining	-14930
luence	-14931
ocytes	-14932
odynam	-14933
perors	-14934
resist	-14935
rocław	-14936
ulance	-14937
unting	-14938
urable	-14939
ysical	-14940
▁1916,	-14941
▁1930,	-14942
▁1933,	-14943
▁1936,	-14944
▁1939.	-14945
▁1943.	-14946
▁1947,	-14947
▁1953,	-14948
▁1967,	-14949
▁1969,	-14950
▁1973.	-14951
▁1976.	-14952
▁1985,	-14953
▁1989.	-14954
▁Alber	-14955
▁Annie	-14956
▁Arabs	-14957
▁Bohem	-14958
▁Carac	-14959
▁Chess	-14960
▁Cyrus	-14961
▁Elena	-14962
▁Ellen	-14963
▁Fifth	-14964
▁Franz	-14965
▁Heavy	-14966
▁Helen	-14967
▁Inhab	-14968
▁Jiang	-14969
▁Karen	-14970
▁Kyung	-14971
▁Large	-14972
▁Local	-14973
▁Loren	-14974
▁Phill	-14975
▁Rican	-14976
▁Taira	-14977
▁Tiger	-14978
▁accus	-14979
▁alert	-14980
▁antip	-14981
▁antis	-14982
▁bills	-14983
▁burns	-14984
▁cameo	-14985
▁cares	-14986
▁champ	-14987
▁chase	-14988
▁creep	-14989
▁crust	-14990
▁curse	-14991
▁drill	-14992
▁drone	-14993
▁erupt	-14994
▁fails	-14995
▁fairy	-14996
▁fiber	-14997
▁flame	-14998
▁gains	-14999
▁glory	-15000
▁homet	-15001
▁inapp	-15002
▁irrit	-15003
▁jelly	-15004
▁masks	-15005
▁ought	-15006
▁perce	-15007
▁postp	-15008
▁ramen	-15009
▁scope	-15010
▁showc	-15011
▁smugg	-15012
▁spawn	-15013
▁spont	-15014
▁squee	-15015
▁suite	-15016
▁therm	-15017
▁tours	-15018
▁trump	-15019
▁tuber	-15020
▁wagon	-15021
atories	-15022
founder	-15023
itative	-15024
ounding	-15025
quarium	-15026
ructive	-15027
ulative	-15028
▁Access	-15029
▁Across	-15030
▁Almost	-15031
▁Altern	-15032
▁Anders	-15033
▁Aragon	-15034
▁Astron	-15035
▁Attend	-15036
▁Beauty	-15037
▁Bishop	-15038
▁Castro	-15039
▁Dakota	-15040
▁Enough	-15041
▁Garcia	-15042
▁Geneva	-15043
▁Gothic	-15044
▁Ground	-15045
▁Indies	-15046
▁Isabel	-15047
▁Kaiser	-15048
▁Kansas	-15049
▁Lisbon	-15050
▁Nation	-15051
▁Nearly	-15052
▁Phoebe	-15053
▁Potter	-15054
▁Pythag	-15055
▁Ranger	-15056
▁Reagan	-15057
▁Report	-15058
▁Seleuc	-15059
▁Sloven	-15060
▁Survey	-15061
▁abnorm	-15062
▁agenda	-15063
▁aiming	-15064
▁attain	-15065
▁binary	-15066
▁boards	-15067
▁bubble	-15068
▁cancel	-15069
▁catast	-15070
▁confer	-15071
▁cycles	-15072
▁defect	-15073
▁divide	-15074
▁errors	-15075
▁fabric	-15076
▁finals	-15077
▁floods	-15078
▁forged	-15079
▁heated	-15080
▁hydrox	-15081
▁kernel	-15082
▁learns	-15083
▁lifted	-15084
▁lovers	-15085
▁marker	-15086
▁mascul	-15087
▁mating	-15088
▁needle	-15089
▁occupy	-15090
▁persec	-15091
▁presum	-15092
▁preval	-15093
▁purely	-15094
▁radius	-15095
▁robbed	-15096
▁scarce	-15097
▁stairs	-15098
▁stones	-15099
▁subdiv	-15100
▁subsid	-15101
▁topped	-15102
▁towers	-15103
▁triang	-15104
▁whilst	-15105
▁wishes	-15106
November	-15107
emporary	-15108
ependent	-15109
iability	-15110
idelines	-15111
interest	-15112
osterone	-15113
othermal	-15114
▁Actress	-15115
▁Aristot	-15116
▁Beatles	-15117
[...]
